alignas(16) const unsigned char model[] ={
  0x1c, 0x00, 0x00, 0x00, 0x54, 0x46, 0x4c, 0x33, 0x14, 0x00, 0x20, 0x00, 0x04, 0x00, 0x08, 0x00, 
  0x0c, 0x00, 0x10, 0x00, 0x14, 0x00, 0x00, 0x00, 0x18, 0x00, 0x1c, 0x00, 0x14, 0x00, 0x00, 0x00, 
  0x03, 0x00, 0x00, 0x00, 0x18, 0x00, 0x00, 0x00, 0x44, 0x00, 0x00, 0x00, 0x78, 0x01, 0x00, 0x00, 
  0x44, 0x00, 0x00, 0x00, 0x20, 0x01, 0x00, 0x00, 0x18, 0x01, 0x00, 0x00, 0x0b, 0x00, 0x00, 0x00, 
  0x1c, 0x23, 0x00, 0x00, 0x40, 0x22, 0x00, 0x00, 0xc8, 0x20, 0x00, 0x00, 0x00, 0x1f, 0x00, 0x00, 
  0xf8, 0x1c, 0x00, 0x00, 0xe0, 0x1a, 0x00, 0x00, 0x48, 0x19, 0x00, 0x00, 0xf4, 0x05, 0x00, 0x00, 
  0x04, 0x05, 0x00, 0x00, 0x80, 0x03, 0x00, 0x00, 0xf8, 0x02, 0x00, 0x00, 0x01, 0x00, 0x00, 0x00, 
  0x58, 0x01, 0x00, 0x00, 0x36, 0x00, 0x00, 0x00, 0x8c, 0x4a, 0x00, 0x00, 0x88, 0x4a, 0x00, 0x00, 
  0xa8, 0x49, 0x00, 0x00, 0x30, 0x49, 0x00, 0x00, 0xc8, 0x48, 0x00, 0x00, 0x5c, 0x48, 0x00, 0x00, 
  0xf0, 0x47, 0x00, 0x00, 0x84, 0x47, 0x00, 0x00, 0x18, 0x47, 0x00, 0x00, 0xa0, 0x46, 0x00, 0x00, 
  0x2c, 0x45, 0x00, 0x00, 0xc4, 0x43, 0x00, 0x00, 0x34, 0x43, 0x00, 0x00, 0xa0, 0x42, 0x00, 0x00, 
  0xe8, 0x3e, 0x00, 0x00, 0x04, 0x3d, 0x00, 0x00, 0x6c, 0x3c, 0x00, 0x00, 0xd0, 0x3b, 0x00, 0x00, 
  0xd8, 0x2b, 0x00, 0x00, 0xf4, 0x28, 0x00, 0x00, 0x4c, 0x28, 0x00, 0x00, 0xa0, 0x27, 0x00, 0x00, 
  0x28, 0x25, 0x00, 0x00, 0x5c, 0x24, 0x00, 0x00, 0xb4, 0x23, 0x00, 0x00, 0x18, 0x23, 0x00, 0x00, 
  0x24, 0x4a, 0x00, 0x00, 0x20, 0x4a, 0x00, 0x00, 0x1c, 0x4a, 0x00, 0x00, 0x18, 0x4a, 0x00, 0x00, 
  0x14, 0x4a, 0x00, 0x00, 0x10, 0x4a, 0x00, 0x00, 0x0c, 0x4a, 0x00, 0x00, 0x08, 0x4a, 0x00, 0x00, 
  0x04, 0x4a, 0x00, 0x00, 0x00, 0x4a, 0x00, 0x00, 0xfc, 0x49, 0x00, 0x00, 0xf8, 0x49, 0x00, 0x00, 
  0xf4, 0x49, 0x00, 0x00, 0xf0, 0x49, 0x00, 0x00, 0xec, 0x49, 0x00, 0x00, 0xe8, 0x49, 0x00, 0x00, 
  0xe4, 0x49, 0x00, 0x00, 0xe0, 0x49, 0x00, 0x00, 0xdc, 0x49, 0x00, 0x00, 0xd8, 0x49, 0x00, 0x00, 
  0xd4, 0x49, 0x00, 0x00, 0xd0, 0x49, 0x00, 0x00, 0xcc, 0x49, 0x00, 0x00, 0xc8, 0x49, 0x00, 0x00, 
  0xc4, 0x49, 0x00, 0x00, 0xc0, 0x49, 0x00, 0x00, 0xbc, 0x49, 0x00, 0x00, 0x3c, 0x00, 0x00, 0x00, 
  0x00, 0x00, 0x00, 0x00, 0x01, 0x00, 0x00, 0x00, 0x0c, 0x00, 0x00, 0x00, 0x08, 0x00, 0x0c, 0x00, 
  0x04, 0x00, 0x08, 0x00, 0x08, 0x00, 0x00, 0x00, 0x08, 0x00, 0x00, 0x00, 0x35, 0x00, 0x00, 0x00, 
  0x13, 0x00, 0x00, 0x00, 0x6d, 0x69, 0x6e, 0x5f, 0x72, 0x75, 0x6e, 0x74, 0x69, 0x6d, 0x65, 0x5f, 
  0x76, 0x65, 0x72, 0x73, 0x69, 0x6f, 0x6e, 0x00, 0x66, 0xb7, 0xff, 0xff, 0x04, 0x00, 0x00, 0x00, 
  0x10, 0x00, 0x00, 0x00, 0x31, 0x2e, 0x31, 0x34, 0x2e, 0x30, 0x00, 0x00, 0x00, 0x00, 0x00, 0x00, 
  0x00, 0x00, 0x00, 0x00, 0x0f, 0x00, 0x00, 0x00, 0x4d, 0x4c, 0x49, 0x52, 0x20, 0x43, 0x6f, 0x6e, 
  0x76, 0x65, 0x72, 0x74, 0x65, 0x64, 0x2e, 0x00, 0x00, 0x00, 0x0e, 0x00, 0x18, 0x00, 0x04, 0x00, 
  0x08, 0x00, 0x0c, 0x00, 0x10, 0x00, 0x14, 0x00, 0x0e, 0x00, 0x00, 0x00, 0x14, 0x00, 0x00, 0x00, 
  0xe4, 0x00, 0x00, 0x00, 0xe8, 0x00, 0x00, 0x00, 0xec, 0x00, 0x00, 0x00, 0x58, 0x01, 0x00, 0x00, 
  0x34, 0x00, 0x00, 0x00, 0xcc, 0x48, 0x00, 0x00, 0x60, 0x48, 0x00, 0x00, 0xe0, 0x47, 0x00, 0x00, 
  0x70, 0x47, 0x00, 0x00, 0x0c, 0x47, 0x00, 0x00, 0xa0, 0x46, 0x00, 0x00, 0x34, 0x46, 0x00, 0x00, 
  0xc8, 0x45, 0x00, 0x00, 0x48, 0x45, 0x00, 0x00, 0x60, 0x44, 0x00, 0x00, 0x88, 0x42, 0x00, 0x00, 
  0xe0, 0x41, 0x00, 0x00, 0x4c, 0x41, 0x00, 0x00, 0x0c, 0x40, 0x00, 0x00, 0xe8, 0x3b, 0x00, 0x00, 
  0x20, 0x3b, 0x00, 0x00, 0x84, 0x3a, 0x00, 0x00, 0x7c, 0x38, 0x00, 0x00, 0x18, 0x28, 0x00, 0x00, 
  0x10, 0x27, 0x00, 0x00, 0x64, 0x26, 0x00, 0x00, 0xcc, 0x25, 0x00, 0x00, 0x40, 0x23, 0x00, 0x00, 
  0x88, 0x22, 0x00, 0x00, 0xc8, 0x21, 0x00, 0x00, 0x38, 0x21, 0x00, 0x00, 0x48, 0x20, 0x00, 0x00, 
  0xd0, 0x1e, 0x00, 0x00, 0x08, 0x1d, 0x00, 0x00, 0xf8, 0x1a, 0x00, 0x00, 0xe8, 0x18, 0x00, 0x00, 
  0x10, 0x18, 0x00, 0x00, 0x4c, 0x17, 0x00, 0x00, 0x50, 0x16, 0x00, 0x00, 0x90, 0x15, 0x00, 0x00, 
  0x38, 0x14, 0x00, 0x00, 0x8c, 0x12, 0x00, 0x00, 0x8c, 0x10, 0x00, 0x00, 0x8c, 0x0e, 0x00, 0x00, 
  0xcc, 0x0d, 0x00, 0x00, 0x04, 0x0d, 0x00, 0x00, 0x38, 0x0c, 0x00, 0x00, 0x78, 0x0b, 0x00, 0x00, 
  0x20, 0x0a, 0x00, 0x00, 0x74, 0x08, 0x00, 0x00, 0x74, 0x06, 0x00, 0x00, 0x74, 0x04, 0x00, 0x00, 
  0xc0, 0x03, 0x00, 0x00, 0xd0, 0x02, 0x00, 0x00, 0xe4, 0x01, 0x00, 0x00, 0x48, 0x01, 0x00, 0x00, 
  0xc0, 0x00, 0x00, 0x00, 0x01, 0x00, 0x00, 0x00, 0x00, 0x00, 0x00, 0x00, 0x01, 0x00, 0x00, 0x00, 
  0x33, 0x00, 0x00, 0x00, 0x1b, 0x00, 0x00, 0x00, 0x6c, 0x20, 0x00, 0x00, 0x88, 0x1f, 0x00, 0x00, 
  0xf4, 0x1d, 0x00, 0x00, 0x48, 0x1c, 0x00, 0x00, 0x34, 0x1a, 0x00, 0x00, 0x34, 0x18, 0x00, 0x00, 
  0x60, 0x17, 0x00, 0x00, 0x6c, 0x16, 0x00, 0x00, 0xac, 0x15, 0x00, 0x00, 0xe0, 0x14, 0x00, 0x00, 
  0x78, 0x13, 0x00, 0x00, 0xdc, 0x11, 0x00, 0x00, 0xdc, 0x0f, 0x00, 0x00, 0xe8, 0x0d, 0x00, 0x00, 
  0x1c, 0x0d, 0x00, 0x00, 0x44, 0x0c, 0x00, 0x00, 0x94, 0x0b, 0x00, 0x00, 0xc8, 0x0a, 0x00, 0x00, 
  0x60, 0x09, 0x00, 0x00, 0xc4, 0x07, 0x00, 0x00, 0xc4, 0x05, 0x00, 0x00, 0xd0, 0x03, 0x00, 0x00, 
  0x00, 0x03, 0x00, 0x00, 0x00, 0x02, 0x00, 0x00, 0x30, 0x01, 0x00, 0x00, 0x88, 0x00, 0x00, 0x00, 
  0x10, 0x00, 0x00, 0x00, 0x04, 0x00, 0x00, 0x00, 0x6d, 0x61, 0x69, 0x6e, 0x00, 0x00, 0x00, 0x00, 
  0x3a, 0xe8, 0xff, 0xff, 0x0a, 0x00, 0x00, 0x00, 0x10, 0x00, 0x00, 0x00, 0x04, 0x00, 0x00, 0x00, 
  0x01, 0x00, 0x00, 0x00, 0x33, 0x00, 0x00, 0x00, 0x01, 0x00, 0x00, 0x00, 0x32, 0x00, 0x00, 0x00, 
  0x10, 0xe0, 0xff, 0xff, 0x06, 0x00, 0x00, 0x00, 0x00, 0x00, 0x00, 0x06, 0x02, 0x00, 0x00, 0x00, 
  0xd4, 0xb8, 0xff, 0xff, 0x14, 0x00, 0x00, 0x00, 0x34, 0x00, 0x00, 0x00, 0x24, 0x00, 0x00, 0x00, 
  0x30, 0x00, 0x00, 0x00, 0x10, 0x00, 0x00, 0x00, 0x02, 0x00, 0x00, 0x00, 0x01, 0x00, 0x00, 0x00, 
  0x03, 0x00, 0x00, 0x00, 0x02, 0x00, 0x00, 0x00, 0xff, 0xff, 0xff, 0xff, 0x03, 0x00, 0x00, 0x00, 
  0x08, 0x00, 0x00, 0x00, 0x49, 0x64, 0x65, 0x6e, 0x74, 0x69, 0x74, 0x79, 0x00, 0x00, 0x00, 0x00, 
  0xb0, 0xb8, 0xff, 0xff, 0x6e, 0xe1, 0xff, 0xff, 0x00, 0x00, 0x00, 0x09, 0x09, 0x00, 0x00, 0x00, 
  0x1c, 0x00, 0x00, 0x00, 0x10, 0x00, 0x00, 0x00, 0x04, 0x00, 0x00, 0x00, 0xaa, 0xb9, 0xff, 0xff, 
  0x00, 0x00, 0x80, 0x3f, 0x01, 0x00, 0x00, 0x00, 0x32, 0x00, 0x00, 0x00, 0x01, 0x00, 0x00, 0x00, 
  0x31, 0x00, 0x00, 0x00, 0x94, 0xe0, 0xff, 0xff, 0x19, 0x00, 0x00, 0x00, 0x00, 0x00, 0x00, 0x19, 
  0x02, 0x00, 0x00, 0x00, 0x88, 0xe0, 0xff, 0xff, 0x00, 0x00, 0x00, 0x09, 0x14, 0x00, 0x00, 0x00, 
  0x33, 0x00, 0x00, 0x00, 0x24, 0x00, 0x00, 0x00, 0x30, 0x00, 0x00, 0x00, 0x10, 0x00, 0x00, 0x00, 
  0x02, 0x00, 0x00, 0x00, 0x01, 0x00, 0x00, 0x00, 0x03, 0x00, 0x00, 0x00, 0x02, 0x00, 0x00, 0x00, 
  0xff, 0xff, 0xff, 0xff, 0x03, 0x00, 0x00, 0x00, 0x09, 0x00, 0x00, 0x00, 0x49, 0x64, 0x65, 0x6e, 
  0x74, 0x69, 0x74, 0x79, 0x31, 0x00, 0x00, 0x00, 0x80, 0xbd, 0xff, 0xff, 0x08, 0x00, 0x00, 0x00, 
  0x0c, 0x00, 0x00, 0x00, 0x01, 0x00, 0x00, 0x00, 0x00, 0x00, 0x80, 0x3b, 0x01, 0x00, 0x00, 0x00, 
  0x80, 0xff, 0xff, 0xff, 0xff, 0xff, 0xff, 0xff, 0x12, 0xe2, 0xff, 0xff, 0x00, 0x00, 0x00, 0x08, 
  0x08, 0x00, 0x00, 0x00, 0x18, 0x00, 0x00, 0x00, 0x0c, 0x00, 0x00, 0x00, 0x04, 0x00, 0x00, 0x00, 
  0x70, 0xb9, 0xff, 0xff, 0x01, 0x00, 0x00, 0x00, 0x31, 0x00, 0x00, 0x00, 0x03, 0x00, 0x00, 0x00, 
  0x30, 0x00, 0x00, 0x00, 0x17, 0x00, 0x00, 0x00, 0x18, 0x00, 0x00, 0x00, 0x20, 0xe1, 0xff, 0xff, 
  0x00, 0x00, 0x00, 0x09, 0x14, 0x00, 0x00, 0x00, 0x32, 0x00, 0x00, 0x00, 0x24, 0x00, 0x00, 0x00, 
  0x60, 0x00, 0x00, 0x00, 0x10, 0x00, 0x00, 0x00, 0x02, 0x00, 0x00, 0x00, 0x01, 0x00, 0x00, 0x00, 
  0x03, 0x00, 0x00, 0x00, 0x02, 0x00, 0x00, 0x00, 0xff, 0xff, 0xff, 0xff, 0x03, 0x00, 0x00, 0x00, 
  0x3a, 0x00, 0x00, 0x00, 0x73, 0x65, 0x71, 0x75, 0x65, 0x6e, 0x74, 0x69, 0x61, 0x6c, 0x5f, 0x36, 
  0x2f, 0x64, 0x65, 0x6e, 0x73, 0x65, 0x5f, 0x31, 0x30, 0x2f, 0x4d, 0x61, 0x74, 0x4d, 0x75, 0x6c, 
  0x3b, 0x73, 0x65, 0x71, 0x75, 0x65, 0x6e, 0x74, 0x69, 0x61, 0x6c, 0x5f, 0x36, 0x2f, 0x64, 0x65, 
  0x6e, 0x73, 0x65, 0x5f, 0x31, 0x30, 0x2f, 0x42, 0x69, 0x61, 0x73, 0x41, 0x64, 0x64, 0x00, 0x00, 
  0x48, 0xbe, 0xff, 0xff, 0x08, 0x00, 0x00, 0x00, 0x0c, 0x00, 0x00, 0x00, 0x01, 0x00, 0x00, 0x00, 
  0xdf, 0xfe, 0x14, 0x3d, 0x01, 0x00, 0x00, 0x00, 0x0c, 0x00, 0x00, 0x00, 0x00, 0x00, 0x00, 0x00, 
  0x00, 0x00, 0x00, 0x00, 0xe2, 0xeb, 0xff, 0xff, 0x00, 0x00, 0x00, 0x08, 0x08, 0x00, 0x00, 0x00, 
  0x24, 0x00, 0x00, 0x00, 0x18, 0x00, 0x00, 0x00, 0x0c, 0x00, 0x00, 0x00, 0x00, 0x00, 0x06, 0x00, 
  0x08, 0x00, 0x07, 0x00, 0x06, 0x00, 0x00, 0x00, 0x00, 0x00, 0x00, 0x01, 0x01, 0x00, 0x00, 0x00, 
  0x30, 0x00, 0x00, 0x00, 0x03, 0x00, 0x00, 0x00, 0x2f, 0x00, 0x00, 0x00, 0x15, 0x00, 0x00, 0x00, 
  0x16, 0x00, 0x00, 0x00, 0x14, 0xe2, 0xff, 0xff, 0x09, 0x00, 0x00, 0x00, 0x00, 0x00, 0x00, 0x09, 
  0x04, 0x00, 0x00, 0x00, 0x08, 0xe2, 0xff, 0xff, 0x00, 0x00, 0x00, 0x09, 0x14, 0x00, 0x00, 0x00, 
  0x31, 0x00, 0x00, 0x00, 0x24, 0x00, 0x00, 0x00, 0x78, 0x00, 0x00, 0x00, 0x10, 0x00, 0x00, 0x00, 
  0x02, 0x00, 0x00, 0x00, 0x01, 0x00, 0x00, 0x00, 0x10, 0x00, 0x00, 0x00, 0x02, 0x00, 0x00, 0x00, 
  0xff, 0xff, 0xff, 0xff, 0x10, 0x00, 0x00, 0x00, 0x52, 0x00, 0x00, 0x00, 0x73, 0x65, 0x71, 0x75, 
  0x65, 0x6e, 0x74, 0x69, 0x61, 0x6c, 0x5f, 0x36, 0x2f, 0x64, 0x65, 0x6e, 0x73, 0x65, 0x5f, 0x39, 
  0x2f, 0x4d, 0x61, 0x74, 0x4d, 0x75, 0x6c, 0x3b, 0x73, 0x65, 0x71, 0x75, 0x65, 0x6e, 0x74, 0x69, 
  0x61, 0x6c, 0x5f, 0x36, 0x2f, 0x64, 0x65, 0x6e, 0x73, 0x65, 0x5f, 0x39, 0x2f, 0x42, 0x69, 0x61, 
  0x73, 0x41, 0x64, 0x64, 0x3b, 0x73, 0x65, 0x71, 0x75, 0x65, 0x6e, 0x74, 0x69, 0x61, 0x6c, 0x5f, 
  0x36, 0x2f, 0x64, 0x65, 0x6e, 0x73, 0x65, 0x5f, 0x39, 0x2f, 0x52, 0x65, 0x6c, 0x75, 0x00, 0x00, 
  0x48, 0xbf, 0xff, 0xff, 0x08, 0x00, 0x00, 0x00, 0x0c, 0x00, 0x00, 0x00, 0x01, 0x00, 0x00, 0x00, 
  0xb8, 0x50, 0x71, 0x3c, 0x01, 0x00, 0x00, 0x00, 0x80, 0xff, 0xff, 0xff, 0xff, 0xff, 0xff, 0xff, 
  0xda, 0xe3, 0xff, 0xff, 0x00, 0x00, 0x00, 0x1b, 0x07, 0x00, 0x00, 0x00, 0x18, 0x00, 0x00, 0x00, 
  0x0c, 0x00, 0x00, 0x00, 0x04, 0x00, 0x00, 0x00, 0x38, 0xbb, 0xff, 0xff, 0x01, 0x00, 0x00, 0x00, 
  0x2f, 0x00, 0x00, 0x00, 0x02, 0x00, 0x00, 0x00, 0x2e, 0x00, 0x00, 0x00, 0x08, 0x00, 0x00, 0x00, 
  0x00, 0xe3, 0xff, 0xff, 0x28, 0x00, 0x00, 0x00, 0x00, 0x00, 0x00, 0x28, 0x02, 0x00, 0x00, 0x00, 
  0xf4, 0xe2, 0xff, 0xff, 0x00, 0x00, 0x00, 0x09, 0x14, 0x00, 0x00, 0x00, 0x30, 0x00, 0x00, 0x00, 
  0x24, 0x00, 0x00, 0x00, 0x54, 0x00, 0x00, 0x00, 0x10, 0x00, 0x00, 0x00, 0x02, 0x00, 0x00, 0x00, 
  0x01, 0x00, 0x00, 0x00, 0x20, 0x00, 0x00, 0x00, 0x02, 0x00, 0x00, 0x00, 0xff, 0xff, 0xff, 0xff, 
  0x20, 0x00, 0x00, 0x00, 0x2c, 0x00, 0x00, 0x00, 0x73, 0x65, 0x71, 0x75, 0x65, 0x6e, 0x74, 0x69, 
  0x61, 0x6c, 0x5f, 0x36, 0x2f, 0x67, 0x6c, 0x6f, 0x62, 0x61, 0x6c, 0x5f, 0x61, 0x76, 0x65, 0x72, 
  0x61, 0x67, 0x65, 0x5f, 0x70, 0x6f, 0x6f, 0x6c, 0x69, 0x6e, 0x67, 0x31, 0x64, 0x5f, 0x36, 0x2f, 
  0x4d, 0x65, 0x61, 0x6e, 0x00, 0x00, 0x00, 0x00, 0x10, 0xc0, 0xff, 0xff, 0x08, 0x00, 0x00, 0x00, 
  0x0c, 0x00, 0x00, 0x00, 0x01, 0x00, 0x00, 0x00, 0x55, 0x60, 0x43, 0x3c, 0x01, 0x00, 0x00, 0x00, 
  0xc9, 0xff, 0xff, 0xff, 0xff, 0xff, 0xff, 0xff, 0x00, 0x00, 0x00, 0x00, 0xe6, 0xeb, 0xff, 0xff, 
  0x05, 0x00, 0x00, 0x00, 0x10, 0x00, 0x00, 0x00, 0x04, 0x00, 0x00, 0x00, 0x01, 0x00, 0x00, 0x00, 
  0x2e, 0x00, 0x00, 0x00, 0x02, 0x00, 0x00, 0x00, 0x2d, 0x00, 0x00, 0x00, 0x07, 0x00, 0x00, 0x00, 
  0xa4, 0xe3, 0xff, 0xff, 0x00, 0x00, 0x00, 0x09, 0x14, 0x00, 0x00, 0x00, 0x2f, 0x00, 0x00, 0x00, 
  0x2c, 0x00, 0x00, 0x00, 0x94, 0x01, 0x00, 0x00, 0x14, 0x00, 0x00, 0x00, 0x03, 0x00, 0x00, 0x00, 
  0x01, 0x00, 0x00, 0x00, 0x15, 0x00, 0x00, 0x00, 0x20, 0x00, 0x00, 0x00, 0x03, 0x00, 0x00, 0x00, 
  0xff, 0xff, 0xff, 0xff, 0x15, 0x00, 0x00, 0x00, 0x20, 0x00, 0x00, 0x00, 0x64, 0x01, 0x00, 0x00, 
  0x73, 0x65, 0x71, 0x75, 0x65, 0x6e, 0x74, 0x69, 0x61, 0x6c, 0x5f, 0x36, 0x2f, 0x62, 0x61, 0x74, 
  0x63, 0x68, 0x5f, 0x6e, 0x6f, 0x72, 0x6d, 0x61, 0x6c, 0x69, 0x7a, 0x61, 0x74, 0x69, 0x6f, 0x6e, 
  0x5f, 0x31, 0x31, 0x2f, 0x62, 0x61, 0x74, 0x63, 0x68, 0x6e, 0x6f, 0x72, 0x6d, 0x2f, 0x61, 0x64, 
  0x64, 0x5f, 0x31, 0x3b, 0x73, 0x65, 0x71, 0x75, 0x65, 0x6e, 0x74, 0x69, 0x61, 0x6c, 0x5f, 0x36, 
  0x2f, 0x63, 0x6f, 0x6e, 0x76, 0x31, 0x64, 0x5f, 0x31, 0x34, 0x2f, 0x63, 0x6f, 0x6e, 0x76, 0x31, 
  0x64, 0x2f, 0x53, 0x71, 0x75, 0x65, 0x65, 0x7a, 0x65, 0x3b, 0x73, 0x65, 0x71, 0x75, 0x65, 0x6e, 
  0x74, 0x69, 0x61, 0x6c, 0x5f, 0x36, 0x2f, 0x62, 0x61, 0x74, 0x63, 0x68, 0x5f, 0x6e, 0x6f, 0x72, 
  0x6d, 0x61, 0x6c, 0x69, 0x7a, 0x61, 0x74, 0x69, 0x6f, 0x6e, 0x5f, 0x31, 0x31, 0x2f, 0x62, 0x61, 
  0x74, 0x63, 0x68, 0x6e, 0x6f, 0x72, 0x6d, 0x2f, 0x6d, 0x75, 0x6c, 0x5f, 0x31, 0x3b, 0x73, 0x65, 
  0x71, 0x75, 0x65, 0x6e, 0x74, 0x69, 0x61, 0x6c, 0x5f, 0x36, 0x2f, 0x63, 0x6f, 0x6e, 0x76, 0x31, 
  0x64, 0x5f, 0x31, 0x34, 0x2f, 0x52, 0x65, 0x6c, 0x75, 0x3b, 0x73, 0x65, 0x71, 0x75, 0x65, 0x6e, 
  0x74, 0x69, 0x61, 0x6c, 0x5f, 0x36, 0x2f, 0x63, 0x6f, 0x6e, 0x76, 0x31, 0x64, 0x5f, 0x31, 0x34, 
  0x2f, 0x42, 0x69, 0x61, 0x73, 0x41, 0x64, 0x64, 0x3b, 0x73, 0x65, 0x71, 0x75, 0x65, 0x6e, 0x74, 
  0x69, 0x61, 0x6c, 0x5f, 0x36, 0x2f, 0x63, 0x6f, 0x6e, 0x76, 0x31, 0x64, 0x5f, 0x31, 0x34, 0x2f, 
  0x42, 0x69, 0x61, 0x73, 0x41, 0x64, 0x64, 0x2f, 0x52, 0x65, 0x61, 0x64, 0x56, 0x61, 0x72, 0x69, 
  0x61, 0x62, 0x6c, 0x65, 0x4f, 0x70, 0x2f, 0x72, 0x65, 0x73, 0x6f, 0x75, 0x72, 0x63, 0x65, 0x3b, 
  0x73, 0x65, 0x71, 0x75, 0x65, 0x6e, 0x74, 0x69, 0x61, 0x6c, 0x5f, 0x36, 0x2f, 0x62, 0x61, 0x74, 
  0x63, 0x68, 0x5f, 0x6e, 0x6f, 0x72, 0x6d, 0x61, 0x6c, 0x69, 0x7a, 0x61, 0x74, 0x69, 0x6f, 0x6e, 
  0x5f, 0x31, 0x31, 0x2f, 0x62, 0x61, 0x74, 0x63, 0x68, 0x6e, 0x6f, 0x72, 0x6d, 0x2f, 0x6d, 0x75, 
  0x6c, 0x3b, 0x73, 0x65, 0x71, 0x75, 0x65, 0x6e, 0x74, 0x69, 0x61, 0x6c, 0x5f, 0x36, 0x2f, 0x62, 
  0x61, 0x74, 0x63, 0x68, 0x5f, 0x6e, 0x6f, 0x72, 0x6d, 0x61, 0x6c, 0x69, 0x7a, 0x61, 0x74, 0x69, 
  0x6f, 0x6e, 0x5f, 0x31, 0x31, 0x2f, 0x62, 0x61, 0x74, 0x63, 0x68, 0x6e, 0x6f, 0x72, 0x6d, 0x2f, 
  0x73, 0x75, 0x62, 0x31, 0x00, 0x00, 0x00, 0x00, 0x00, 0xc2, 0xff, 0xff, 0x08, 0x00, 0x00, 0x00, 
  0x0c, 0x00, 0x00, 0x00, 0x01, 0x00, 0x00, 0x00, 0xa1, 0xbc, 0x9a, 0x3c, 0x01, 0x00, 0x00, 0x00, 
  0xb0, 0xff, 0xff, 0xff, 0xff, 0xff, 0xff, 0xff, 0x00, 0x00, 0x00, 0x00, 0x96, 0xe6, 0xff, 0xff, 
  0x00, 0x00, 0x00, 0x0b, 0x04, 0x00, 0x00, 0x00, 0x18, 0x00, 0x00, 0x00, 0x0c, 0x00, 0x00, 0x00, 
  0x04, 0x00, 0x00, 0x00, 0xf4, 0xbd, 0xff, 0xff, 0x01, 0x00, 0x00, 0x00, 0x2d, 0x00, 0x00, 0x00, 
  0x02, 0x00, 0x00, 0x00, 0x2c, 0x00, 0x00, 0x00, 0x14, 0x00, 0x00, 0x00, 0xa0, 0xe5, 0xff, 0xff, 
  0x00, 0x00, 0x00, 0x09, 0x14, 0x00, 0x00, 0x00, 0x2e, 0x00, 0x00, 0x00, 0x34, 0x00, 0x00, 0x00, 
  0x98, 0x01, 0x00, 0x00, 0x18, 0x00, 0x00, 0x00, 0x04, 0x00, 0x00, 0x00, 0x01, 0x00, 0x00, 0x00, 
  0x01, 0x00, 0x00, 0x00, 0x15, 0x00, 0x00, 0x00, 0x20, 0x00, 0x00, 0x00, 0x04, 0x00, 0x00, 0x00, 
  0xff, 0xff, 0xff, 0xff, 0x01, 0x00, 0x00, 0x00, 0x15, 0x00, 0x00, 0x00, 0x20, 0x00, 0x00, 0x00, 
  0x63, 0x01, 0x00, 0x00, 0x73, 0x65, 0x71, 0x75, 0x65, 0x6e, 0x74, 0x69, 0x61, 0x6c, 0x5f, 0x36, 
  0x2f, 0x62, 0x61, 0x74, 0x63, 0x68, 0x5f, 0x6e, 0x6f, 0x72, 0x6d, 0x61, 0x6c, 0x69, 0x7a, 0x61, 
  0x74, 0x69, 0x6f, 0x6e, 0x5f, 0x31, 0x31, 0x2f, 0x62, 0x61, 0x74, 0x63, 0x68, 0x6e, 0x6f, 0x72, 
  0x6d, 0x2f, 0x61, 0x64, 0x64, 0x5f, 0x31, 0x3b, 0x73, 0x65, 0x71, 0x75, 0x65, 0x6e, 0x74, 0x69, 
  0x61, 0x6c, 0x5f, 0x36, 0x2f, 0x63, 0x6f, 0x6e, 0x76, 0x31, 0x64, 0x5f, 0x31, 0x34, 0x2f, 0x63, 
  0x6f, 0x6e, 0x76, 0x31, 0x64, 0x2f, 0x53, 0x71, 0x75, 0x65, 0x65, 0x7a, 0x65, 0x3b, 0x73, 0x65, 
  0x71, 0x75, 0x65, 0x6e, 0x74, 0x69, 0x61, 0x6c, 0x5f, 0x36, 0x2f, 0x62, 0x61, 0x74, 0x63, 0x68, 
  0x5f, 0x6e, 0x6f, 0x72, 0x6d, 0x61, 0x6c, 0x69, 0x7a, 0x61, 0x74, 0x69, 0x6f, 0x6e, 0x5f, 0x31, 
  0x31, 0x2f, 0x62, 0x61, 0x74, 0x63, 0x68, 0x6e, 0x6f, 0x72, 0x6d, 0x2f, 0x6d, 0x75, 0x6c, 0x5f, 
  0x31, 0x3b, 0x73, 0x65, 0x71, 0x75, 0x65, 0x6e, 0x74, 0x69, 0x61, 0x6c, 0x5f, 0x36, 0x2f, 0x63, 
  0x6f, 0x6e, 0x76, 0x31, 0x64, 0x5f, 0x31, 0x34, 0x2f, 0x52, 0x65, 0x6c, 0x75, 0x3b, 0x73, 0x65, 
  0x71, 0x75, 0x65, 0x6e, 0x74, 0x69, 0x61, 0x6c, 0x5f, 0x36, 0x2f, 0x63, 0x6f, 0x6e, 0x76, 0x31, 
  0x64, 0x5f, 0x31, 0x34, 0x2f, 0x42, 0x69, 0x61, 0x73, 0x41, 0x64, 0x64, 0x3b, 0x73, 0x65, 0x71, 
  0x75, 0x65, 0x6e, 0x74, 0x69, 0x61, 0x6c, 0x5f, 0x36, 0x2f, 0x63, 0x6f, 0x6e, 0x76, 0x31, 0x64, 
  0x5f, 0x31, 0x34, 0x2f, 0x42, 0x69, 0x61, 0x73, 0x41, 0x64, 0x64, 0x2f, 0x52, 0x65, 0x61, 0x64, 
  0x56, 0x61, 0x72, 0x69, 0x61, 0x62, 0x6c, 0x65, 0x4f, 0x70, 0x2f, 0x72, 0x65, 0x73, 0x6f, 0x75, 
  0x72, 0x63, 0x65, 0x3b, 0x73, 0x65, 0x71, 0x75, 0x65, 0x6e, 0x74, 0x69, 0x61, 0x6c, 0x5f, 0x36, 
  0x2f, 0x62, 0x61, 0x74, 0x63, 0x68, 0x5f, 0x6e, 0x6f, 0x72, 0x6d, 0x61, 0x6c, 0x69, 0x7a, 0x61, 
  0x74, 0x69, 0x6f, 0x6e, 0x5f, 0x31, 0x31, 0x2f, 0x62, 0x61, 0x74, 0x63, 0x68, 0x6e, 0x6f, 0x72, 
  0x6d, 0x2f, 0x6d, 0x75, 0x6c, 0x3b, 0x73, 0x65, 0x71, 0x75, 0x65, 0x6e, 0x74, 0x69, 0x61, 0x6c, 
  0x5f, 0x36, 0x2f, 0x62, 0x61, 0x74, 0x63, 0x68, 0x5f, 0x6e, 0x6f, 0x72, 0x6d, 0x61, 0x6c, 0x69, 
  0x7a, 0x61, 0x74, 0x69, 0x6f, 0x6e, 0x5f, 0x31, 0x31, 0x2f, 0x62, 0x61, 0x74, 0x63, 0x68, 0x6e, 
  0x6f, 0x72, 0x6d, 0x2f, 0x73, 0x75, 0x62, 0x00, 0x00, 0xc4, 0xff, 0xff, 0x08, 0x00, 0x00, 0x00, 
  0x0c, 0x00, 0x00, 0x00, 0x01, 0x00, 0x00, 0x00, 0xa1, 0xbc, 0x9a, 0x3c, 0x01, 0x00, 0x00, 0x00, 
  0xb0, 0xff, 0xff, 0xff, 0xff, 0xff, 0xff, 0xff, 0x92, 0xe8, 0xff, 0xff, 0x00, 0x00, 0x00, 0x15, 
  0x03, 0x00, 0x00, 0x00, 0x18, 0x00, 0x00, 0x00, 0x0c, 0x00, 0x00, 0x00, 0x04, 0x00, 0x00, 0x00, 
  0xf0, 0xbf, 0xff, 0xff, 0x01, 0x00, 0x00, 0x00, 0x2c, 0x00, 0x00, 0x00, 0x02, 0x00, 0x00, 0x00, 
  0x2b, 0x00, 0x00, 0x00, 0x13, 0x00, 0x00, 0x00, 0x9c, 0xe7, 0xff, 0xff, 0x00, 0x00, 0x00, 0x09, 
  0x14, 0x00, 0x00, 0x00, 0x2d, 0x00, 0x00, 0x00, 0x34, 0x00, 0x00, 0x00, 0x34, 0x01, 0x00, 0x00, 
  0x18, 0x00, 0x00, 0x00, 0x04, 0x00, 0x00, 0x00, 0x01, 0x00, 0x00, 0x00, 0x01, 0x00, 0x00, 0x00, 
  0x15, 0x00, 0x00, 0x00, 0x20, 0x00, 0x00, 0x00, 0x04, 0x00, 0x00, 0x00, 0xff, 0xff, 0xff, 0xff, 
  0x01, 0x00, 0x00, 0x00, 0x15, 0x00, 0x00, 0x00, 0x20, 0x00, 0x00, 0x00, 0xfd, 0x00, 0x00, 0x00, 
  0x73, 0x65, 0x71, 0x75, 0x65, 0x6e, 0x74, 0x69, 0x61, 0x6c, 0x5f, 0x36, 0x2f, 0x62, 0x61, 0x74, 
  0x63, 0x68, 0x5f, 0x6e, 0x6f, 0x72, 0x6d, 0x61, 0x6c, 0x69, 0x7a, 0x61, 0x74, 0x69, 0x6f, 0x6e, 
  0x5f, 0x31, 0x31, 0x2f, 0x62, 0x61, 0x74, 0x63, 0x68, 0x6e, 0x6f, 0x72, 0x6d, 0x2f, 0x6d, 0x75, 
  0x6c, 0x5f, 0x31, 0x3b, 0x73, 0x65, 0x71, 0x75, 0x65, 0x6e, 0x74, 0x69, 0x61, 0x6c, 0x5f, 0x36, 
  0x2f, 0x63, 0x6f, 0x6e, 0x76, 0x31, 0x64, 0x5f, 0x31, 0x34, 0x2f, 0x63, 0x6f, 0x6e, 0x76, 0x31, 
  0x64, 0x2f, 0x53, 0x71, 0x75, 0x65, 0x65, 0x7a, 0x65, 0x3b, 0x73, 0x65, 0x71, 0x75, 0x65, 0x6e, 
  0x74, 0x69, 0x61, 0x6c, 0x5f, 0x36, 0x2f, 0x63, 0x6f, 0x6e, 0x76, 0x31, 0x64, 0x5f, 0x31, 0x34, 
  0x2f, 0x52, 0x65, 0x6c, 0x75, 0x3b, 0x73, 0x65, 0x71, 0x75, 0x65, 0x6e, 0x74, 0x69, 0x61, 0x6c, 
  0x5f, 0x36, 0x2f, 0x63, 0x6f, 0x6e, 0x76, 0x31, 0x64, 0x5f, 0x31, 0x34, 0x2f, 0x42, 0x69, 0x61, 
  0x73, 0x41, 0x64, 0x64, 0x3b, 0x73, 0x65, 0x71, 0x75, 0x65, 0x6e, 0x74, 0x69, 0x61, 0x6c, 0x5f, 
  0x36, 0x2f, 0x63, 0x6f, 0x6e, 0x76, 0x31, 0x64, 0x5f, 0x31, 0x34, 0x2f, 0x42, 0x69, 0x61, 0x73, 
  0x41, 0x64, 0x64, 0x2f, 0x52, 0x65, 0x61, 0x64, 0x56, 0x61, 0x72, 0x69, 0x61, 0x62, 0x6c, 0x65, 
  0x4f, 0x70, 0x2f, 0x72, 0x65, 0x73, 0x6f, 0x75, 0x72, 0x63, 0x65, 0x3b, 0x73, 0x65, 0x71, 0x75, 
  0x65, 0x6e, 0x74, 0x69, 0x61, 0x6c, 0x5f, 0x36, 0x2f, 0x62, 0x61, 0x74, 0x63, 0x68, 0x5f, 0x6e, 
  0x6f, 0x72, 0x6d, 0x61, 0x6c, 0x69, 0x7a, 0x61, 0x74, 0x69, 0x6f, 0x6e, 0x5f, 0x31, 0x31, 0x2f, 
  0x62, 0x61, 0x74, 0x63, 0x68, 0x6e, 0x6f, 0x72, 0x6d, 0x2f, 0x6d, 0x75, 0x6c, 0x00, 0x00, 0x00, 
  0x98, 0xc5, 0xff, 0xff, 0x08, 0x00, 0x00, 0x00, 0x0c, 0x00, 0x00, 0x00, 0x01, 0x00, 0x00, 0x00, 
  0xcc, 0xc6, 0x92, 0x3c, 0x01, 0x00, 0x00, 0x00, 0x80, 0xff, 0xff, 0xff, 0xff, 0xff, 0xff, 0xff, 
  0x2a, 0xea, 0xff, 0xff, 0x00, 0x00, 0x00, 0x01, 0x02, 0x00, 0x00, 0x00, 0x24, 0x00, 0x00, 0x00, 
  0x18, 0x00, 0x00, 0x00, 0x04, 0x00, 0x00, 0x00, 0xac, 0xeb, 0xff, 0xff, 0x01, 0x00, 0x00, 0x00, 
  0x01, 0x00, 0x00, 0x00, 0x00, 0x00, 0x01, 0x01, 0x01, 0x00, 0x00, 0x00, 0x2b, 0x00, 0x00, 0x00, 
  0x03, 0x00, 0x00, 0x00, 0x2a, 0x00, 0x00, 0x00, 0x11, 0x00, 0x00, 0x00, 0x12, 0x00, 0x00, 0x00, 
  0x44, 0xe9, 0xff, 0xff, 0x00, 0x00, 0x00, 0x09, 0x14, 0x00, 0x00, 0x00, 0x2c, 0x00, 0x00, 0x00, 
  0x34, 0x00, 0x00, 0x00, 0xec, 0x00, 0x00, 0x00, 0x18, 0x00, 0x00, 0x00, 0x04, 0x00, 0x00, 0x00, 
  0x01, 0x00, 0x00, 0x00, 0x01, 0x00, 0x00, 0x00, 0x15, 0x00, 0x00, 0x00, 0x20, 0x00, 0x00, 0x00, 
  0x04, 0x00, 0x00, 0x00, 0xff, 0xff, 0xff, 0xff, 0x01, 0x00, 0x00, 0x00, 0x15, 0x00, 0x00, 0x00, 
  0x20, 0x00, 0x00, 0x00, 0xb5, 0x00, 0x00, 0x00, 0x73, 0x65, 0x71, 0x75, 0x65, 0x6e, 0x74, 0x69, 
  0x61, 0x6c, 0x5f, 0x36, 0x2f, 0x63, 0x6f, 0x6e, 0x76, 0x31, 0x64, 0x5f, 0x31, 0x34, 0x2f, 0x52, 
  0x65, 0x6c, 0x75, 0x3b, 0x73, 0x65, 0x71, 0x75, 0x65, 0x6e, 0x74, 0x69, 0x61, 0x6c, 0x5f, 0x36, 
  0x2f, 0x63, 0x6f, 0x6e, 0x76, 0x31, 0x64, 0x5f, 0x31, 0x34, 0x2f, 0x42, 0x69, 0x61, 0x73, 0x41, 
  0x64, 0x64, 0x3b, 0x73, 0x65, 0x71, 0x75, 0x65, 0x6e, 0x74, 0x69, 0x61, 0x6c, 0x5f, 0x36, 0x2f, 
  0x63, 0x6f, 0x6e, 0x76, 0x31, 0x64, 0x5f, 0x31, 0x34, 0x2f, 0x63, 0x6f, 0x6e, 0x76, 0x31, 0x64, 
  0x2f, 0x53, 0x71, 0x75, 0x65, 0x65, 0x7a, 0x65, 0x3b, 0x73, 0x65, 0x71, 0x75, 0x65, 0x6e, 0x74, 
  0x69, 0x61, 0x6c, 0x5f, 0x36, 0x2f, 0x63, 0x6f, 0x6e, 0x76, 0x31, 0x64, 0x5f, 0x31, 0x34, 0x2f, 
  0x42, 0x69, 0x61, 0x73, 0x41, 0x64, 0x64, 0x2f, 0x52, 0x65, 0x61, 0x64, 0x56, 0x61, 0x72, 0x69, 
  0x61, 0x62, 0x6c, 0x65, 0x4f, 0x70, 0x2f, 0x72, 0x65, 0x73, 0x6f, 0x75, 0x72, 0x63, 0x65, 0x3b, 
  0x73, 0x65, 0x71, 0x75, 0x65, 0x6e, 0x74, 0x69, 0x61, 0x6c, 0x5f, 0x36, 0x2f, 0x63, 0x6f, 0x6e, 
  0x76, 0x31, 0x64, 0x5f, 0x31, 0x34, 0x2f, 0x63, 0x6f, 0x6e, 0x76, 0x31, 0x64, 0x00, 0x00, 0x00, 
  0xf8, 0xc6, 0xff, 0xff, 0x08, 0x00, 0x00, 0x00, 0x0c, 0x00, 0x00, 0x00, 0x01, 0x00, 0x00, 0x00, 
  0x3f, 0x43, 0x7f, 0x3c, 0x01, 0x00, 0x00, 0x00, 0x80, 0xff, 0xff, 0xff, 0xff, 0xff, 0xff, 0xff, 
  0x00, 0x00, 0x00, 0x00, 0x8e, 0xeb, 0xff, 0xff, 0x00, 0x00, 0x00, 0x34, 0x01, 0x00, 0x00, 0x00, 
  0x18, 0x00, 0x00, 0x00, 0x0c, 0x00, 0x00, 0x00, 0x04, 0x00, 0x00, 0x00, 0xec, 0xc2, 0xff, 0xff, 
  0x01, 0x00, 0x00, 0x00, 0x2a, 0x00, 0x00, 0x00, 0x02, 0x00, 0x00, 0x00, 0x29, 0x00, 0x00, 0x00, 
  0x01, 0x00, 0x00, 0x00, 0x98, 0xea, 0xff, 0xff, 0x00, 0x00, 0x00, 0x09, 0x14, 0x00, 0x00, 0x00, 
  0x2b, 0x00, 0x00, 0x00, 0x34, 0x00, 0x00, 0x00, 0x60, 0x00, 0x00, 0x00, 0x18, 0x00, 0x00, 0x00, 
  0x04, 0x00, 0x00, 0x00, 0x01, 0x00, 0x00, 0x00, 0x01, 0x00, 0x00, 0x00, 0x1b, 0x00, 0x00, 0x00, 
  0x10, 0x00, 0x00, 0x00, 0x04, 0x00, 0x00, 0x00, 0xff, 0xff, 0xff, 0xff, 0x01, 0x00, 0x00, 0x00, 
  0x1b, 0x00, 0x00, 0x00, 0x10, 0x00, 0x00, 0x00, 0x28, 0x00, 0x00, 0x00, 0x73, 0x65, 0x71, 0x75, 
  0x65, 0x6e, 0x74, 0x69, 0x61, 0x6c, 0x5f, 0x36, 0x2f, 0x63, 0x6f, 0x6e, 0x76, 0x31, 0x64, 0x5f, 
  0x31, 0x34, 0x2f, 0x63, 0x6f, 0x6e, 0x76, 0x31, 0x64, 0x2f, 0x45, 0x78, 0x70, 0x61, 0x6e, 0x64, 
  0x44, 0x69, 0x6d, 0x73, 0x00, 0x00, 0x00, 0x00, 0xc0, 0xc7, 0xff, 0xff, 0x08, 0x00, 0x00, 0x00, 
  0x0c, 0x00, 0x00, 0x00, 0x01, 0x00, 0x00, 0x00, 0x07, 0xa9, 0x51, 0x3c, 0x01, 0x00, 0x00, 0x00, 
  0xbc, 0xff, 0xff, 0xff, 0xff, 0xff, 0xff, 0xff, 0x00, 0x00, 0x00, 0x00, 0x96, 0xf3, 0xff, 0xff, 
  0x05, 0x00, 0x00, 0x00, 0x10, 0x00, 0x00, 0x00, 0x04, 0x00, 0x00, 0x00, 0x01, 0x00, 0x00, 0x00, 
  0x29, 0x00, 0x00, 0x00, 0x02, 0x00, 0x00, 0x00, 0x28, 0x00, 0x00, 0x00, 0x06, 0x00, 0x00, 0x00, 
  0x54, 0xeb, 0xff, 0xff, 0x00, 0x00, 0x00, 0x09, 0x14, 0x00, 0x00, 0x00, 0x2a, 0x00, 0x00, 0x00, 
  0x2c, 0x00, 0x00, 0x00, 0x54, 0x00, 0x00, 0x00, 0x14, 0x00, 0x00, 0x00, 0x03, 0x00, 0x00, 0x00, 
  0x01, 0x00, 0x00, 0x00, 0x1b, 0x00, 0x00, 0x00, 0x10, 0x00, 0x00, 0x00, 0x03, 0x00, 0x00, 0x00, 
  0xff, 0xff, 0xff, 0xff, 0x1b, 0x00, 0x00, 0x00, 0x10, 0x00, 0x00, 0x00, 0x26, 0x00, 0x00, 0x00, 
  0x73, 0x65, 0x71, 0x75, 0x65, 0x6e, 0x74, 0x69, 0x61, 0x6c, 0x5f, 0x36, 0x2f, 0x6d, 0x61, 0x78, 
  0x5f, 0x70, 0x6f, 0x6f, 0x6c, 0x69, 0x6e, 0x67, 0x31, 0x64, 0x5f, 0x31, 0x30, 0x2f, 0x53, 0x71, 
  0x75, 0x65, 0x65, 0x7a, 0x65, 0x31, 0x00, 0x00, 0x70, 0xc8, 0xff, 0xff, 0x08, 0x00, 0x00, 0x00, 
  0x0c, 0x00, 0x00, 0x00, 0x01, 0x00, 0x00, 0x00, 0x07, 0xa9, 0x51, 0x3c, 0x01, 0x00, 0x00, 0x00, 
  0xbc, 0xff, 0xff, 0xff, 0xff, 0xff, 0xff, 0xff, 0x02, 0xed, 0xff, 0xff, 0x00, 0x00, 0x00, 0x05, 
  0x06, 0x00, 0x00, 0x00, 0x2c, 0x00, 0x00, 0x00, 0x20, 0x00, 0x00, 0x00, 0x04, 0x00, 0x00, 0x00, 
  0xf6, 0xf5, 0xff, 0xff, 0x02, 0x00, 0x00, 0x00, 0x01, 0x00, 0x00, 0x00, 0x02, 0x00, 0x00, 0x00, 
  0x01, 0x00, 0x00, 0x00, 0x00, 0x00, 0x00, 0x01, 0x01, 0x00, 0x00, 0x00, 0x28, 0x00, 0x00, 0x00, 
  0x01, 0x00, 0x00, 0x00, 0x27, 0x00, 0x00, 0x00, 0x1c, 0xec, 0xff, 0xff, 0x00, 0x00, 0x00, 0x09, 
  0x14, 0x00, 0x00, 0x00, 0x29, 0x00, 0x00, 0x00, 0x34, 0x00, 0x00, 0x00, 0x5c, 0x00, 0x00, 0x00, 
  0x18, 0x00, 0x00, 0x00, 0x04, 0x00, 0x00, 0x00, 0x01, 0x00, 0x00, 0x00, 0x1b, 0x00, 0x00, 0x00, 
  0x01, 0x00, 0x00, 0x00, 0x10, 0x00, 0x00, 0x00, 0x04, 0x00, 0x00, 0x00, 0xff, 0xff, 0xff, 0xff, 
  0x1b, 0x00, 0x00, 0x00, 0x01, 0x00, 0x00, 0x00, 0x10, 0x00, 0x00, 0x00, 0x25, 0x00, 0x00, 0x00, 
  0x73, 0x65, 0x71, 0x75, 0x65, 0x6e, 0x74, 0x69, 0x61, 0x6c, 0x5f, 0x36, 0x2f, 0x6d, 0x61, 0x78, 
  0x5f, 0x70, 0x6f, 0x6f, 0x6c, 0x69, 0x6e, 0x67, 0x31, 0x64, 0x5f, 0x31, 0x30, 0x2f, 0x4d, 0x61, 
  0x78, 0x50, 0x6f, 0x6f, 0x6c, 0x00, 0x00, 0x00, 0x40, 0xc9, 0xff, 0xff, 0x08, 0x00, 0x00, 0x00, 
  0x0c, 0x00, 0x00, 0x00, 0x01, 0x00, 0x00, 0x00, 0x07, 0xa9, 0x51, 0x3c, 0x01, 0x00, 0x00, 0x00, 
  0xbc, 0xff, 0xff, 0xff, 0xff, 0xff, 0xff, 0xff, 0x00, 0x00, 0x00, 0x00, 0xd6, 0xed, 0xff, 0xff, 
  0x00, 0x00, 0x00, 0x34, 0x01, 0x00, 0x00, 0x00, 0x18, 0x00, 0x00, 0x00, 0x0c, 0x00, 0x00, 0x00, 
  0x04, 0x00, 0x00, 0x00, 0x34, 0xc5, 0xff, 0xff, 0x01, 0x00, 0x00, 0x00, 0x27, 0x00, 0x00, 0x00, 
  0x02, 0x00, 0x00, 0x00, 0x26, 0x00, 0x00, 0x00, 0x03, 0x00, 0x00, 0x00, 0xe0, 0xec, 0xff, 0xff, 
  0x00, 0x00, 0x00, 0x09, 0x14, 0x00, 0x00, 0x00, 0x28, 0x00, 0x00, 0x00, 0x34, 0x00, 0x00, 0x00, 
  0x60, 0x00, 0x00, 0x00, 0x18, 0x00, 0x00, 0x00, 0x04, 0x00, 0x00, 0x00, 0x01, 0x00, 0x00, 0x00, 
  0x36, 0x00, 0x00, 0x00, 0x01, 0x00, 0x00, 0x00, 0x10, 0x00, 0x00, 0x00, 0x04, 0x00, 0x00, 0x00, 
  0xff, 0xff, 0xff, 0xff, 0x36, 0x00, 0x00, 0x00, 0x01, 0x00, 0x00, 0x00, 0x10, 0x00, 0x00, 0x00, 
  0x28, 0x00, 0x00, 0x00, 0x73, 0x65, 0x71, 0x75, 0x65, 0x6e, 0x74, 0x69, 0x61, 0x6c, 0x5f, 0x36, 
  0x2f, 0x6d, 0x61, 0x78, 0x5f, 0x70, 0x6f, 0x6f, 0x6c, 0x69, 0x6e, 0x67, 0x31, 0x64, 0x5f, 0x31, 
  0x30, 0x2f, 0x45, 0x78, 0x70, 0x61, 0x6e, 0x64, 0x44, 0x69, 0x6d, 0x73, 0x00, 0x00, 0x00, 0x00, 
  0x08, 0xca, 0xff, 0xff, 0x08, 0x00, 0x00, 0x00, 0x0c, 0x00, 0x00, 0x00, 0x01, 0x00, 0x00, 0x00, 
  0x07, 0xa9, 0x51, 0x3c, 0x01, 0x00, 0x00, 0x00, 0xbc, 0xff, 0xff, 0xff, 0xff, 0xff, 0xff, 0xff, 
  0x00, 0x00, 0x00, 0x00, 0xde, 0xf5, 0xff, 0xff, 0x05, 0x00, 0x00, 0x00, 0x10, 0x00, 0x00, 0x00, 
  0x04, 0x00, 0x00, 0x00, 0x01, 0x00, 0x00, 0x00, 0x26, 0x00, 0x00, 0x00, 0x02, 0x00, 0x00, 0x00, 
  0x25, 0x00, 0x00, 0x00, 0x05, 0x00, 0x00, 0x00, 0x9c, 0xed, 0xff, 0xff, 0x00, 0x00, 0x00, 0x09, 
  0x14, 0x00, 0x00, 0x00, 0x27, 0x00, 0x00, 0x00, 0x2c, 0x00, 0x00, 0x00, 0x94, 0x01, 0x00, 0x00, 
  0x14, 0x00, 0x00, 0x00, 0x03, 0x00, 0x00, 0x00, 0x01, 0x00, 0x00, 0x00, 0x36, 0x00, 0x00, 0x00, 
  0x10, 0x00, 0x00, 0x00, 0x03, 0x00, 0x00, 0x00, 0xff, 0xff, 0xff, 0xff, 0x36, 0x00, 0x00, 0x00, 
  0x10, 0x00, 0x00, 0x00, 0x64, 0x01, 0x00, 0x00, 0x73, 0x65, 0x71, 0x75, 0x65, 0x6e, 0x74, 0x69, 
  0x61, 0x6c, 0x5f, 0x36, 0x2f, 0x62, 0x61, 0x74, 0x63, 0x68, 0x5f, 0x6e, 0x6f, 0x72, 0x6d, 0x61, 
  0x6c, 0x69, 0x7a, 0x61, 0x74, 0x69, 0x6f, 0x6e, 0x5f, 0x31, 0x30, 0x2f, 0x62, 0x61, 0x74, 0x63, 
  0x68, 0x6e, 0x6f, 0x72, 0x6d, 0x2f, 0x61, 0x64, 0x64, 0x5f, 0x31, 0x3b, 0x73, 0x65, 0x71, 0x75, 
  0x65, 0x6e, 0x74, 0x69, 0x61, 0x6c, 0x5f, 0x36, 0x2f, 0x63, 0x6f, 0x6e, 0x76, 0x31, 0x64, 0x5f, 
  0x31, 0x33, 0x2f, 0x63, 0x6f, 0x6e, 0x76, 0x31, 0x64, 0x2f, 0x53, 0x71, 0x75, 0x65, 0x65, 0x7a, 
  0x65, 0x3b, 0x73, 0x65, 0x71, 0x75, 0x65, 0x6e, 0x74, 0x69, 0x61, 0x6c, 0x5f, 0x36, 0x2f, 0x62, 
  0x61, 0x74, 0x63, 0x68, 0x5f, 0x6e, 0x6f, 0x72, 0x6d, 0x61, 0x6c, 0x69, 0x7a, 0x61, 0x74, 0x69, 
  0x6f, 0x6e, 0x5f, 0x31, 0x30, 0x2f, 0x62, 0x61, 0x74, 0x63, 0x68, 0x6e, 0x6f, 0x72, 0x6d, 0x2f, 
  0x6d, 0x75, 0x6c, 0x5f, 0x31, 0x3b, 0x73, 0x65, 0x71, 0x75, 0x65, 0x6e, 0x74, 0x69, 0x61, 0x6c, 
  0x5f, 0x36, 0x2f, 0x63, 0x6f, 0x6e, 0x76, 0x31, 0x64, 0x5f, 0x31, 0x33, 0x2f, 0x52, 0x65, 0x6c, 
  0x75, 0x3b, 0x73, 0x65, 0x71, 0x75, 0x65, 0x6e, 0x74, 0x69, 0x61, 0x6c, 0x5f, 0x36, 0x2f, 0x63, 
  0x6f, 0x6e, 0x76, 0x31, 0x64, 0x5f, 0x31, 0x33, 0x2f, 0x42, 0x69, 0x61, 0x73, 0x41, 0x64, 0x64, 
  0x3b, 0x73, 0x65, 0x71, 0x75, 0x65, 0x6e, 0x74, 0x69, 0x61, 0x6c, 0x5f, 0x36, 0x2f, 0x63, 0x6f, 
  0x6e, 0x76, 0x31, 0x64, 0x5f, 0x31, 0x33, 0x2f, 0x42, 0x69, 0x61, 0x73, 0x41, 0x64, 0x64, 0x2f, 
  0x52, 0x65, 0x61, 0x64, 0x56, 0x61, 0x72, 0x69, 0x61, 0x62, 0x6c, 0x65, 0x4f, 0x70, 0x2f, 0x72, 
  0x65, 0x73, 0x6f, 0x75, 0x72, 0x63, 0x65, 0x3b, 0x73, 0x65, 0x71, 0x75, 0x65, 0x6e, 0x74, 0x69, 
  0x61, 0x6c, 0x5f, 0x36, 0x2f, 0x62, 0x61, 0x74, 0x63, 0x68, 0x5f, 0x6e, 0x6f, 0x72, 0x6d, 0x61, 
  0x6c, 0x69, 0x7a, 0x61, 0x74, 0x69, 0x6f, 0x6e, 0x5f, 0x31, 0x30, 0x2f, 0x62, 0x61, 0x74, 0x63, 
  0x68, 0x6e, 0x6f, 0x72, 0x6d, 0x2f, 0x6d, 0x75, 0x6c, 0x3b, 0x73, 0x65, 0x71, 0x75, 0x65, 0x6e, 
  0x74, 0x69, 0x61, 0x6c, 0x5f, 0x36, 0x2f, 0x62, 0x61, 0x74, 0x63, 0x68, 0x5f, 0x6e, 0x6f, 0x72, 
  0x6d, 0x61, 0x6c, 0x69, 0x7a, 0x61, 0x74, 0x69, 0x6f, 0x6e, 0x5f, 0x31, 0x30, 0x2f, 0x62, 0x61, 
  0x74, 0x63, 0x68, 0x6e, 0x6f, 0x72, 0x6d, 0x2f, 0x73, 0x75, 0x62, 0x31, 0x00, 0x00, 0x00, 0x00, 
  0xf8, 0xcb, 0xff, 0xff, 0x08, 0x00, 0x00, 0x00, 0x0c, 0x00, 0x00, 0x00, 0x01, 0x00, 0x00, 0x00, 
  0x07, 0xa9, 0x51, 0x3c, 0x01, 0x00, 0x00, 0x00, 0xbc, 0xff, 0xff, 0xff, 0xff, 0xff, 0xff, 0xff, 
  0x00, 0x00, 0x00, 0x00, 0x8e, 0xf0, 0xff, 0xff, 0x00, 0x00, 0x00, 0x0b, 0x04, 0x00, 0x00, 0x00, 
  0x18, 0x00, 0x00, 0x00, 0x0c, 0x00, 0x00, 0x00, 0x04, 0x00, 0x00, 0x00, 0xec, 0xc7, 0xff, 0xff, 
  0x01, 0x00, 0x00, 0x00, 0x25, 0x00, 0x00, 0x00, 0x02, 0x00, 0x00, 0x00, 0x24, 0x00, 0x00, 0x00, 
  0x10, 0x00, 0x00, 0x00, 0x98, 0xef, 0xff, 0xff, 0x00, 0x00, 0x00, 0x09, 0x14, 0x00, 0x00, 0x00, 
  0x26, 0x00, 0x00, 0x00, 0x34, 0x00, 0x00, 0x00, 0x98, 0x01, 0x00, 0x00, 0x18, 0x00, 0x00, 0x00, 
  0x04, 0x00, 0x00, 0x00, 0x01, 0x00, 0x00, 0x00, 0x01, 0x00, 0x00, 0x00, 0x36, 0x00, 0x00, 0x00, 
  0x10, 0x00, 0x00, 0x00, 0x04, 0x00, 0x00, 0x00, 0xff, 0xff, 0xff, 0xff, 0x01, 0x00, 0x00, 0x00, 
  0x36, 0x00, 0x00, 0x00, 0x10, 0x00, 0x00, 0x00, 0x63, 0x01, 0x00, 0x00, 0x73, 0x65, 0x71, 0x75, 
  0x65, 0x6e, 0x74, 0x69, 0x61, 0x6c, 0x5f, 0x36, 0x2f, 0x62, 0x61, 0x74, 0x63, 0x68, 0x5f, 0x6e, 
  0x6f, 0x72, 0x6d, 0x61, 0x6c, 0x69, 0x7a, 0x61, 0x74, 0x69, 0x6f, 0x6e, 0x5f, 0x31, 0x30, 0x2f, 
  0x62, 0x61, 0x74, 0x63, 0x68, 0x6e, 0x6f, 0x72, 0x6d, 0x2f, 0x61, 0x64, 0x64, 0x5f, 0x31, 0x3b, 
  0x73, 0x65, 0x71, 0x75, 0x65, 0x6e, 0x74, 0x69, 0x61, 0x6c, 0x5f, 0x36, 0x2f, 0x63, 0x6f, 0x6e, 
  0x76, 0x31, 0x64, 0x5f, 0x31, 0x33, 0x2f, 0x63, 0x6f, 0x6e, 0x76, 0x31, 0x64, 0x2f, 0x53, 0x71, 
  0x75, 0x65, 0x65, 0x7a, 0x65, 0x3b, 0x73, 0x65, 0x71, 0x75, 0x65, 0x6e, 0x74, 0x69, 0x61, 0x6c, 
  0x5f, 0x36, 0x2f, 0x62, 0x61, 0x74, 0x63, 0x68, 0x5f, 0x6e, 0x6f, 0x72, 0x6d, 0x61, 0x6c, 0x69, 
  0x7a, 0x61, 0x74, 0x69, 0x6f, 0x6e, 0x5f, 0x31, 0x30, 0x2f, 0x62, 0x61, 0x74, 0x63, 0x68, 0x6e, 
  0x6f, 0x72, 0x6d, 0x2f, 0x6d, 0x75, 0x6c, 0x5f, 0x31, 0x3b, 0x73, 0x65, 0x71, 0x75, 0x65, 0x6e, 
  0x74, 0x69, 0x61, 0x6c, 0x5f, 0x36, 0x2f, 0x63, 0x6f, 0x6e, 0x76, 0x31, 0x64, 0x5f, 0x31, 0x33, 
  0x2f, 0x52, 0x65, 0x6c, 0x75, 0x3b, 0x73, 0x65, 0x71, 0x75, 0x65, 0x6e, 0x74, 0x69, 0x61, 0x6c, 
  0x5f, 0x36, 0x2f, 0x63, 0x6f, 0x6e, 0x76, 0x31, 0x64, 0x5f, 0x31, 0x33, 0x2f, 0x42, 0x69, 0x61, 
  0x73, 0x41, 0x64, 0x64, 0x3b, 0x73, 0x65, 0x71, 0x75, 0x65, 0x6e, 0x74, 0x69, 0x61, 0x6c, 0x5f, 
  0x36, 0x2f, 0x63, 0x6f, 0x6e, 0x76, 0x31, 0x64, 0x5f, 0x31, 0x33, 0x2f, 0x42, 0x69, 0x61, 0x73, 
  0x41, 0x64, 0x64, 0x2f, 0x52, 0x65, 0x61, 0x64, 0x56, 0x61, 0x72, 0x69, 0x61, 0x62, 0x6c, 0x65, 
  0x4f, 0x70, 0x2f, 0x72, 0x65, 0x73, 0x6f, 0x75, 0x72, 0x63, 0x65, 0x3b, 0x73, 0x65, 0x71, 0x75, 
  0x65, 0x6e, 0x74, 0x69, 0x61, 0x6c, 0x5f, 0x36, 0x2f, 0x62, 0x61, 0x74, 0x63, 0x68, 0x5f, 0x6e, 
  0x6f, 0x72, 0x6d, 0x61, 0x6c, 0x69, 0x7a, 0x61, 0x74, 0x69, 0x6f, 0x6e, 0x5f, 0x31, 0x30, 0x2f, 
  0x62, 0x61, 0x74, 0x63, 0x68, 0x6e, 0x6f, 0x72, 0x6d, 0x2f, 0x6d, 0x75, 0x6c, 0x3b, 0x73, 0x65, 
  0x71, 0x75, 0x65, 0x6e, 0x74, 0x69, 0x61, 0x6c, 0x5f, 0x36, 0x2f, 0x62, 0x61, 0x74, 0x63, 0x68, 
  0x5f, 0x6e, 0x6f, 0x72, 0x6d, 0x61, 0x6c, 0x69, 0x7a, 0x61, 0x74, 0x69, 0x6f, 0x6e, 0x5f, 0x31, 
  0x30, 0x2f, 0x62, 0x61, 0x74, 0x63, 0x68, 0x6e, 0x6f, 0x72, 0x6d, 0x2f, 0x73, 0x75, 0x62, 0x00, 
  0xf8, 0xcd, 0xff, 0xff, 0x08, 0x00, 0x00, 0x00, 0x0c, 0x00, 0x00, 0x00, 0x01, 0x00, 0x00, 0x00, 
  0x07, 0xa9, 0x51, 0x3c, 0x01, 0x00, 0x00, 0x00, 0xbc, 0xff, 0xff, 0xff, 0xff, 0xff, 0xff, 0xff, 
  0x8a, 0xf2, 0xff, 0xff, 0x00, 0x00, 0x00, 0x15, 0x03, 0x00, 0x00, 0x00, 0x18, 0x00, 0x00, 0x00, 
  0x0c, 0x00, 0x00, 0x00, 0x04, 0x00, 0x00, 0x00, 0xe8, 0xc9, 0xff, 0xff, 0x01, 0x00, 0x00, 0x00, 
  0x24, 0x00, 0x00, 0x00, 0x02, 0x00, 0x00, 0x00, 0x23, 0x00, 0x00, 0x00, 0x0f, 0x00, 0x00, 0x00, 
  0x94, 0xf1, 0xff, 0xff, 0x00, 0x00, 0x00, 0x09, 0x14, 0x00, 0x00, 0x00, 0x25, 0x00, 0x00, 0x00, 
  0x34, 0x00, 0x00, 0x00, 0x34, 0x01, 0x00, 0x00, 0x18, 0x00, 0x00, 0x00, 0x04, 0x00, 0x00, 0x00, 
  0x01, 0x00, 0x00, 0x00, 0x01, 0x00, 0x00, 0x00, 0x36, 0x00, 0x00, 0x00, 0x10, 0x00, 0x00, 0x00, 
  0x04, 0x00, 0x00, 0x00, 0xff, 0xff, 0xff, 0xff, 0x01, 0x00, 0x00, 0x00, 0x36, 0x00, 0x00, 0x00, 
  0x10, 0x00, 0x00, 0x00, 0xfd, 0x00, 0x00, 0x00, 0x73, 0x65, 0x71, 0x75, 0x65, 0x6e, 0x74, 0x69, 
  0x61, 0x6c, 0x5f, 0x36, 0x2f, 0x62, 0x61, 0x74, 0x63, 0x68, 0x5f, 0x6e, 0x6f, 0x72, 0x6d, 0x61, 
  0x6c, 0x69, 0x7a, 0x61, 0x74, 0x69, 0x6f, 0x6e, 0x5f, 0x31, 0x30, 0x2f, 0x62, 0x61, 0x74, 0x63, 
  0x68, 0x6e, 0x6f, 0x72, 0x6d, 0x2f, 0x6d, 0x75, 0x6c, 0x5f, 0x31, 0x3b, 0x73, 0x65, 0x71, 0x75, 
  0x65, 0x6e, 0x74, 0x69, 0x61, 0x6c, 0x5f, 0x36, 0x2f, 0x63, 0x6f, 0x6e, 0x76, 0x31, 0x64, 0x5f, 
  0x31, 0x33, 0x2f, 0x63, 0x6f, 0x6e, 0x76, 0x31, 0x64, 0x2f, 0x53, 0x71, 0x75, 0x65, 0x65, 0x7a, 
  0x65, 0x3b, 0x73, 0x65, 0x71, 0x75, 0x65, 0x6e, 0x74, 0x69, 0x61, 0x6c, 0x5f, 0x36, 0x2f, 0x63, 
  0x6f, 0x6e, 0x76, 0x31, 0x64, 0x5f, 0x31, 0x33, 0x2f, 0x52, 0x65, 0x6c, 0x75, 0x3b, 0x73, 0x65, 
  0x71, 0x75, 0x65, 0x6e, 0x74, 0x69, 0x61, 0x6c, 0x5f, 0x36, 0x2f, 0x63, 0x6f, 0x6e, 0x76, 0x31, 
  0x64, 0x5f, 0x31, 0x33, 0x2f, 0x42, 0x69, 0x61, 0x73, 0x41, 0x64, 0x64, 0x3b, 0x73, 0x65, 0x71, 
  0x75, 0x65, 0x6e, 0x74, 0x69, 0x61, 0x6c, 0x5f, 0x36, 0x2f, 0x63, 0x6f, 0x6e, 0x76, 0x31, 0x64, 
  0x5f, 0x31, 0x33, 0x2f, 0x42, 0x69, 0x61, 0x73, 0x41, 0x64, 0x64, 0x2f, 0x52, 0x65, 0x61, 0x64, 
  0x56, 0x61, 0x72, 0x69, 0x61, 0x62, 0x6c, 0x65, 0x4f, 0x70, 0x2f, 0x72, 0x65, 0x73, 0x6f, 0x75, 
  0x72, 0x63, 0x65, 0x3b, 0x73, 0x65, 0x71, 0x75, 0x65, 0x6e, 0x74, 0x69, 0x61, 0x6c, 0x5f, 0x36, 
  0x2f, 0x62, 0x61, 0x74, 0x63, 0x68, 0x5f, 0x6e, 0x6f, 0x72, 0x6d, 0x61, 0x6c, 0x69, 0x7a, 0x61, 
  0x74, 0x69, 0x6f, 0x6e, 0x5f, 0x31, 0x30, 0x2f, 0x62, 0x61, 0x74, 0x63, 0x68, 0x6e, 0x6f, 0x72, 
  0x6d, 0x2f, 0x6d, 0x75, 0x6c, 0x00, 0x00, 0x00, 0x90, 0xcf, 0xff, 0xff, 0x08, 0x00, 0x00, 0x00, 
  0x0c, 0x00, 0x00, 0x00, 0x01, 0x00, 0x00, 0x00, 0xd4, 0xaa, 0x4b, 0x3c, 0x01, 0x00, 0x00, 0x00, 
  0x80, 0xff, 0xff, 0xff, 0xff, 0xff, 0xff, 0xff, 0x22, 0xf4, 0xff, 0xff, 0x00, 0x00, 0x00, 0x01, 
  0x02, 0x00, 0x00, 0x00, 0x24, 0x00, 0x00, 0x00, 0x18, 0x00, 0x00, 0x00, 0x04, 0x00, 0x00, 0x00, 
  0xa4, 0xf5, 0xff, 0xff, 0x01, 0x00, 0x00, 0x00, 0x01, 0x00, 0x00, 0x00, 0x00, 0x00, 0x01, 0x01, 
  0x01, 0x00, 0x00, 0x00, 0x23, 0x00, 0x00, 0x00, 0x03, 0x00, 0x00, 0x00, 0x22, 0x00, 0x00, 0x00, 
  0x0d, 0x00, 0x00, 0x00, 0x0e, 0x00, 0x00, 0x00, 0x3c, 0xf3, 0xff, 0xff, 0x00, 0x00, 0x00, 0x09, 
  0x14, 0x00, 0x00, 0x00, 0x24, 0x00, 0x00, 0x00, 0x34, 0x00, 0x00, 0x00, 0xec, 0x00, 0x00, 0x00, 
  0x18, 0x00, 0x00, 0x00, 0x04, 0x00, 0x00, 0x00, 0x01, 0x00, 0x00, 0x00, 0x01, 0x00, 0x00, 0x00, 
  0x36, 0x00, 0x00, 0x00, 0x10, 0x00, 0x00, 0x00, 0x04, 0x00, 0x00, 0x00, 0xff, 0xff, 0xff, 0xff, 
  0x01, 0x00, 0x00, 0x00, 0x36, 0x00, 0x00, 0x00, 0x10, 0x00, 0x00, 0x00, 0xb5, 0x00, 0x00, 0x00, 
  0x73, 0x65, 0x71, 0x75, 0x65, 0x6e, 0x74, 0x69, 0x61, 0x6c, 0x5f, 0x36, 0x2f, 0x63, 0x6f, 0x6e, 
  0x76, 0x31, 0x64, 0x5f, 0x31, 0x33, 0x2f, 0x52, 0x65, 0x6c, 0x75, 0x3b, 0x73, 0x65, 0x71, 0x75, 
  0x65, 0x6e, 0x74, 0x69, 0x61, 0x6c, 0x5f, 0x36, 0x2f, 0x63, 0x6f, 0x6e, 0x76, 0x31, 0x64, 0x5f, 
  0x31, 0x33, 0x2f, 0x42, 0x69, 0x61, 0x73, 0x41, 0x64, 0x64, 0x3b, 0x73, 0x65, 0x71, 0x75, 0x65, 
  0x6e, 0x74, 0x69, 0x61, 0x6c, 0x5f, 0x36, 0x2f, 0x63, 0x6f, 0x6e, 0x76, 0x31, 0x64, 0x5f, 0x31, 
  0x33, 0x2f, 0x63, 0x6f, 0x6e, 0x76, 0x31, 0x64, 0x2f, 0x53, 0x71, 0x75, 0x65, 0x65, 0x7a, 0x65, 
  0x3b, 0x73, 0x65, 0x71, 0x75, 0x65, 0x6e, 0x74, 0x69, 0x61, 0x6c, 0x5f, 0x36, 0x2f, 0x63, 0x6f, 
  0x6e, 0x76, 0x31, 0x64, 0x5f, 0x31, 0x33, 0x2f, 0x42, 0x69, 0x61, 0x73, 0x41, 0x64, 0x64, 0x2f, 
  0x52, 0x65, 0x61, 0x64, 0x56, 0x61, 0x72, 0x69, 0x61, 0x62, 0x6c, 0x65, 0x4f, 0x70, 0x2f, 0x72, 
  0x65, 0x73, 0x6f, 0x75, 0x72, 0x63, 0x65, 0x3b, 0x73, 0x65, 0x71, 0x75, 0x65, 0x6e, 0x74, 0x69, 
  0x61, 0x6c, 0x5f, 0x36, 0x2f, 0x63, 0x6f, 0x6e, 0x76, 0x31, 0x64, 0x5f, 0x31, 0x33, 0x2f, 0x63, 
  0x6f, 0x6e, 0x76, 0x31, 0x64, 0x00, 0x00, 0x00, 0xf0, 0xd0, 0xff, 0xff, 0x08, 0x00, 0x00, 0x00, 
  0x0c, 0x00, 0x00, 0x00, 0x01, 0x00, 0x00, 0x00, 0x52, 0xa7, 0x90, 0x3b, 0x01, 0x00, 0x00, 0x00, 
  0x80, 0xff, 0xff, 0xff, 0xff, 0xff, 0xff, 0xff, 0x00, 0x00, 0x00, 0x00, 0x86, 0xf5, 0xff, 0xff, 
  0x00, 0x00, 0x00, 0x34, 0x01, 0x00, 0x00, 0x00, 0x18, 0x00, 0x00, 0x00, 0x0c, 0x00, 0x00, 0x00, 
  0x04, 0x00, 0x00, 0x00, 0xe4, 0xcc, 0xff, 0xff, 0x01, 0x00, 0x00, 0x00, 0x22, 0x00, 0x00, 0x00, 
  0x02, 0x00, 0x00, 0x00, 0x21, 0x00, 0x00, 0x00, 0x01, 0x00, 0x00, 0x00, 0x90, 0xf4, 0xff, 0xff, 
  0x00, 0x00, 0x00, 0x09, 0x14, 0x00, 0x00, 0x00, 0x23, 0x00, 0x00, 0x00, 0x34, 0x00, 0x00, 0x00, 
  0x60, 0x00, 0x00, 0x00, 0x18, 0x00, 0x00, 0x00, 0x04, 0x00, 0x00, 0x00, 0x01, 0x00, 0x00, 0x00, 
  0x01, 0x00, 0x00, 0x00, 0x3a, 0x00, 0x00, 0x00, 0x08, 0x00, 0x00, 0x00, 0x04, 0x00, 0x00, 0x00, 
  0xff, 0xff, 0xff, 0xff, 0x01, 0x00, 0x00, 0x00, 0x3a, 0x00, 0x00, 0x00, 0x08, 0x00, 0x00, 0x00, 
  0x28, 0x00, 0x00, 0x00, 0x73, 0x65, 0x71, 0x75, 0x65, 0x6e, 0x74, 0x69, 0x61, 0x6c, 0x5f, 0x36, 
  0x2f, 0x63, 0x6f, 0x6e, 0x76, 0x31, 0x64, 0x5f, 0x31, 0x33, 0x2f, 0x63, 0x6f, 0x6e, 0x76, 0x31, 
  0x64, 0x2f, 0x45, 0x78, 0x70, 0x61, 0x6e, 0x64, 0x44, 0x69, 0x6d, 0x73, 0x00, 0x00, 0x00, 0x00, 
  0xb8, 0xd1, 0xff, 0xff, 0x08, 0x00, 0x00, 0x00, 0x0c, 0x00, 0x00, 0x00, 0x01, 0x00, 0x00, 0x00, 
  0xdc, 0xf5, 0x67, 0x3c, 0x01, 0x00, 0x00, 0x00, 0x08, 0x00, 0x00, 0x00, 0x00, 0x00, 0x00, 0x00, 
  0x00, 0x00, 0x00, 0x00, 0x8e, 0xfd, 0xff, 0xff, 0x05, 0x00, 0x00, 0x00, 0x10, 0x00, 0x00, 0x00, 
  0x04, 0x00, 0x00, 0x00, 0x01, 0x00, 0x00, 0x00, 0x21, 0x00, 0x00, 0x00, 0x02, 0x00, 0x00, 0x00, 
  0x20, 0x00, 0x00, 0x00, 0x04, 0x00, 0x00, 0x00, 0x4c, 0xf5, 0xff, 0xff, 0x00, 0x00, 0x00, 0x09, 
  0x14, 0x00, 0x00, 0x00, 0x22, 0x00, 0x00, 0x00, 0x2c, 0x00, 0x00, 0x00, 0x54, 0x00, 0x00, 0x00, 
  0x14, 0x00, 0x00, 0x00, 0x03, 0x00, 0x00, 0x00, 0x01, 0x00, 0x00, 0x00, 0x3a, 0x00, 0x00, 0x00, 
  0x08, 0x00, 0x00, 0x00, 0x03, 0x00, 0x00, 0x00, 0xff, 0xff, 0xff, 0xff, 0x3a, 0x00, 0x00, 0x00, 
  0x08, 0x00, 0x00, 0x00, 0x25, 0x00, 0x00, 0x00, 0x73, 0x65, 0x71, 0x75, 0x65, 0x6e, 0x74, 0x69, 
  0x61, 0x6c, 0x5f, 0x36, 0x2f, 0x6d, 0x61, 0x78, 0x5f, 0x70, 0x6f, 0x6f, 0x6c, 0x69, 0x6e, 0x67, 
  0x31, 0x64, 0x5f, 0x39, 0x2f, 0x53, 0x71, 0x75, 0x65, 0x65, 0x7a, 0x65, 0x31, 0x00, 0x00, 0x00, 
  0x68, 0xd2, 0xff, 0xff, 0x08, 0x00, 0x00, 0x00, 0x0c, 0x00, 0x00, 0x00, 0x01, 0x00, 0x00, 0x00, 
  0xdc, 0xf5, 0x67, 0x3c, 0x01, 0x00, 0x00, 0x00, 0x08, 0x00, 0x00, 0x00, 0x00, 0x00, 0x00, 0x00, 
  0x00, 0x00, 0x0e, 0x00, 0x1a, 0x00, 0x08, 0x00, 0x0c, 0x00, 0x10, 0x00, 0x07, 0x00, 0x14, 0x00, 
  0x0e, 0x00, 0x00, 0x00, 0x00, 0x00, 0x00, 0x05, 0x06, 0x00, 0x00, 0x00, 0x3c, 0x00, 0x00, 0x00, 
  0x30, 0x00, 0x00, 0x00, 0x14, 0x00, 0x00, 0x00, 0x00, 0x00, 0x0e, 0x00, 0x18, 0x00, 0x17, 0x00, 
  0x10, 0x00, 0x0c, 0x00, 0x08, 0x00, 0x04, 0x00, 0x0e, 0x00, 0x00, 0x00, 0x02, 0x00, 0x00, 0x00, 
  0x01, 0x00, 0x00, 0x00, 0x02, 0x00, 0x00, 0x00, 0x01, 0x00, 0x00, 0x00, 0x00, 0x00, 0x00, 0x01, 
  0x01, 0x00, 0x00, 0x00, 0x20, 0x00, 0x00, 0x00, 0x01, 0x00, 0x00, 0x00, 0x1f, 0x00, 0x00, 0x00, 
  0x50, 0xf6, 0xff, 0xff, 0x11, 0x00, 0x00, 0x00, 0x00, 0x00, 0x00, 0x11, 0x02, 0x00, 0x00, 0x00, 
  0x44, 0xf6, 0xff, 0xff, 0x00, 0x00, 0x00, 0x09, 0x14, 0x00, 0x00, 0x00, 0x21, 0x00, 0x00, 0x00, 
  0x34, 0x00, 0x00, 0x00, 0x5c, 0x00, 0x00, 0x00, 0x18, 0x00, 0x00, 0x00, 0x04, 0x00, 0x00, 0x00, 
  0x01, 0x00, 0x00, 0x00, 0x3a, 0x00, 0x00, 0x00, 0x01, 0x00, 0x00, 0x00, 0x08, 0x00, 0x00, 0x00, 
  0x04, 0x00, 0x00, 0x00, 0xff, 0xff, 0xff, 0xff, 0x3a, 0x00, 0x00, 0x00, 0x01, 0x00, 0x00, 0x00, 
  0x08, 0x00, 0x00, 0x00, 0x24, 0x00, 0x00, 0x00, 0x73, 0x65, 0x71, 0x75, 0x65, 0x6e, 0x74, 0x69, 
  0x61, 0x6c, 0x5f, 0x36, 0x2f, 0x6d, 0x61, 0x78, 0x5f, 0x70, 0x6f, 0x6f, 0x6c, 0x69, 0x6e, 0x67, 
  0x31, 0x64, 0x5f, 0x39, 0x2f, 0x4d, 0x61, 0x78, 0x50, 0x6f, 0x6f, 0x6c, 0x00, 0x00, 0x00, 0x00, 
  0x68, 0xd3, 0xff, 0xff, 0x08, 0x00, 0x00, 0x00, 0x0c, 0x00, 0x00, 0x00, 0x01, 0x00, 0x00, 0x00, 
  0xdc, 0xf5, 0x67, 0x3c, 0x01, 0x00, 0x00, 0x00, 0x08, 0x00, 0x00, 0x00, 0x00, 0x00, 0x00, 0x00, 
  0xfa, 0xf7, 0xff, 0xff, 0x00, 0x00, 0x00, 0x34, 0x01, 0x00, 0x00, 0x00, 0x18, 0x00, 0x00, 0x00, 
  0x0c, 0x00, 0x00, 0x00, 0x04, 0x00, 0x00, 0x00, 0x58, 0xcf, 0xff, 0xff, 0x01, 0x00, 0x00, 0x00, 
  0x1f, 0x00, 0x00, 0x00, 0x02, 0x00, 0x00, 0x00, 0x1e, 0x00, 0x00, 0x00, 0x03, 0x00, 0x00, 0x00, 
  0x04, 0xf7, 0xff, 0xff, 0x00, 0x00, 0x00, 0x09, 0x14, 0x00, 0x00, 0x00, 0x20, 0x00, 0x00, 0x00, 
  0x34, 0x00, 0x00, 0x00, 0x5c, 0x00, 0x00, 0x00, 0x18, 0x00, 0x00, 0x00, 0x04, 0x00, 0x00, 0x00, 
  0x01, 0x00, 0x00, 0x00, 0x75, 0x00, 0x00, 0x00, 0x01, 0x00, 0x00, 0x00, 0x08, 0x00, 0x00, 0x00, 
  0x04, 0x00, 0x00, 0x00, 0xff, 0xff, 0xff, 0xff, 0x75, 0x00, 0x00, 0x00, 0x01, 0x00, 0x00, 0x00, 
  0x08, 0x00, 0x00, 0x00, 0x27, 0x00, 0x00, 0x00, 0x73, 0x65, 0x71, 0x75, 0x65, 0x6e, 0x74, 0x69, 
  0x61, 0x6c, 0x5f, 0x36, 0x2f, 0x6d, 0x61, 0x78, 0x5f, 0x70, 0x6f, 0x6f, 0x6c, 0x69, 0x6e, 0x67, 
  0x31, 0x64, 0x5f, 0x39, 0x2f, 0x45, 0x78, 0x70, 0x61, 0x6e, 0x64, 0x44, 0x69, 0x6d, 0x73, 0x00, 
  0x28, 0xd4, 0xff, 0xff, 0x08, 0x00, 0x00, 0x00, 0x0c, 0x00, 0x00, 0x00, 0x01, 0x00, 0x00, 0x00, 
  0xdc, 0xf5, 0x67, 0x3c, 0x01, 0x00, 0x00, 0x00, 0x08, 0x00, 0x00, 0x00, 0x00, 0x00, 0x00, 0x00, 
  0x00, 0x00, 0x00, 0x00, 0x00, 0x00, 0x0a, 0x00, 0x10, 0x00, 0x04, 0x00, 0x08, 0x00, 0x0c, 0x00, 
  0x0a, 0x00, 0x00, 0x00, 0x05, 0x00, 0x00, 0x00, 0x10, 0x00, 0x00, 0x00, 0x04, 0x00, 0x00, 0x00, 
  0x01, 0x00, 0x00, 0x00, 0x1e, 0x00, 0x00, 0x00, 0x02, 0x00, 0x00, 0x00, 0x1d, 0x00, 0x00, 0x00, 
  0x02, 0x00, 0x00, 0x00, 0xe4, 0xf7, 0xff, 0xff, 0x16, 0x00, 0x00, 0x00, 0x00, 0x00, 0x00, 0x16, 
  0x01, 0x00, 0x00, 0x00, 0xd8, 0xf7, 0xff, 0xff, 0x00, 0x00, 0x00, 0x09, 0x14, 0x00, 0x00, 0x00, 
  0x1f, 0x00, 0x00, 0x00, 0x2c, 0x00, 0x00, 0x00, 0x90, 0x01, 0x00, 0x00, 0x14, 0x00, 0x00, 0x00, 
  0x03, 0x00, 0x00, 0x00, 0x01, 0x00, 0x00, 0x00, 0x75, 0x00, 0x00, 0x00, 0x08, 0x00, 0x00, 0x00, 
  0x03, 0x00, 0x00, 0x00, 0xff, 0xff, 0xff, 0xff, 0x75, 0x00, 0x00, 0x00, 0x08, 0x00, 0x00, 0x00, 
  0x60, 0x01, 0x00, 0x00, 0x73, 0x65, 0x71, 0x75, 0x65, 0x6e, 0x74, 0x69, 0x61, 0x6c, 0x5f, 0x36, 
  0x2f, 0x62, 0x61, 0x74, 0x63, 0x68, 0x5f, 0x6e, 0x6f, 0x72, 0x6d, 0x61, 0x6c, 0x69, 0x7a, 0x61, 
  0x74, 0x69, 0x6f, 0x6e, 0x5f, 0x39, 0x2f, 0x62, 0x61, 0x74, 0x63, 0x68, 0x6e, 0x6f, 0x72, 0x6d, 
  0x2f, 0x61, 0x64, 0x64, 0x5f, 0x31, 0x3b, 0x73, 0x65, 0x71, 0x75, 0x65, 0x6e, 0x74, 0x69, 0x61, 
  0x6c, 0x5f, 0x36, 0x2f, 0x63, 0x6f, 0x6e, 0x76, 0x31, 0x64, 0x5f, 0x31, 0x32, 0x2f, 0x63, 0x6f, 
  0x6e, 0x76, 0x31, 0x64, 0x2f, 0x53, 0x71, 0x75, 0x65, 0x65, 0x7a, 0x65, 0x3b, 0x73, 0x65, 0x71, 
  0x75, 0x65, 0x6e, 0x74, 0x69, 0x61, 0x6c, 0x5f, 0x36, 0x2f, 0x62, 0x61, 0x74, 0x63, 0x68, 0x5f, 
  0x6e, 0x6f, 0x72, 0x6d, 0x61, 0x6c, 0x69, 0x7a, 0x61, 0x74, 0x69, 0x6f, 0x6e, 0x5f, 0x39, 0x2f, 
  0x62, 0x61, 0x74, 0x63, 0x68, 0x6e, 0x6f, 0x72, 0x6d, 0x2f, 0x6d, 0x75, 0x6c, 0x5f, 0x31, 0x3b, 
  0x73, 0x65, 0x71, 0x75, 0x65, 0x6e, 0x74, 0x69, 0x61, 0x6c, 0x5f, 0x36, 0x2f, 0x63, 0x6f, 0x6e, 
  0x76, 0x31, 0x64, 0x5f, 0x31, 0x32, 0x2f, 0x52, 0x65, 0x6c, 0x75, 0x3b, 0x73, 0x65, 0x71, 0x75, 
  0x65, 0x6e, 0x74, 0x69, 0x61, 0x6c, 0x5f, 0x36, 0x2f, 0x63, 0x6f, 0x6e, 0x76, 0x31, 0x64, 0x5f, 
  0x31, 0x32, 0x2f, 0x42, 0x69, 0x61, 0x73, 0x41, 0x64, 0x64, 0x3b, 0x73, 0x65, 0x71, 0x75, 0x65, 
  0x6e, 0x74, 0x69, 0x61, 0x6c, 0x5f, 0x36, 0x2f, 0x63, 0x6f, 0x6e, 0x76, 0x31, 0x64, 0x5f, 0x31, 
  0x32, 0x2f, 0x42, 0x69, 0x61, 0x73, 0x41, 0x64, 0x64, 0x2f, 0x52, 0x65, 0x61, 0x64, 0x56, 0x61, 
  0x72, 0x69, 0x61, 0x62, 0x6c, 0x65, 0x4f, 0x70, 0x2f, 0x72, 0x65, 0x73, 0x6f, 0x75, 0x72, 0x63, 
  0x65, 0x3b, 0x73, 0x65, 0x71, 0x75, 0x65, 0x6e, 0x74, 0x69, 0x61, 0x6c, 0x5f, 0x36, 0x2f, 0x62, 
  0x61, 0x74, 0x63, 0x68, 0x5f, 0x6e, 0x6f, 0x72, 0x6d, 0x61, 0x6c, 0x69, 0x7a, 0x61, 0x74, 0x69, 
  0x6f, 0x6e, 0x5f, 0x39, 0x2f, 0x62, 0x61, 0x74, 0x63, 0x68, 0x6e, 0x6f, 0x72, 0x6d, 0x2f, 0x6d, 
  0x75, 0x6c, 0x3b, 0x73, 0x65, 0x71, 0x75, 0x65, 0x6e, 0x74, 0x69, 0x61, 0x6c, 0x5f, 0x36, 0x2f, 
  0x62, 0x61, 0x74, 0x63, 0x68, 0x5f, 0x6e, 0x6f, 0x72, 0x6d, 0x61, 0x6c, 0x69, 0x7a, 0x61, 0x74, 
  0x69, 0x6f, 0x6e, 0x5f, 0x39, 0x2f, 0x62, 0x61, 0x74, 0x63, 0x68, 0x6e, 0x6f, 0x72, 0x6d, 0x2f, 
  0x73, 0x75, 0x62, 0x31, 0x00, 0x00, 0x00, 0x00, 0x30, 0xd6, 0xff, 0xff, 0x08, 0x00, 0x00, 0x00, 
  0x0c, 0x00, 0x00, 0x00, 0x01, 0x00, 0x00, 0x00, 0xdc, 0xf5, 0x67, 0x3c, 0x01, 0x00, 0x00, 0x00, 
  0x08, 0x00, 0x00, 0x00, 0x00, 0x00, 0x00, 0x00, 0x00, 0x00, 0x00, 0x00, 0xc6, 0xfa, 0xff, 0xff, 
  0x00, 0x00, 0x00, 0x0b, 0x04, 0x00, 0x00, 0x00, 0x18, 0x00, 0x00, 0x00, 0x0c, 0x00, 0x00, 0x00, 
  0x04, 0x00, 0x00, 0x00, 0x24, 0xd2, 0xff, 0xff, 0x01, 0x00, 0x00, 0x00, 0x1d, 0x00, 0x00, 0x00, 
  0x02, 0x00, 0x00, 0x00, 0x1c, 0x00, 0x00, 0x00, 0x0c, 0x00, 0x00, 0x00, 0x00, 0x00, 0x0a, 0x00, 
  0x08, 0x00, 0x00, 0x00, 0x00, 0x00, 0x04, 0x00, 0x0a, 0x00, 0x00, 0x00, 0x02, 0x00, 0x00, 0x00, 
  0xe4, 0xf9, 0xff, 0xff, 0x00, 0x00, 0x00, 0x09, 0x14, 0x00, 0x00, 0x00, 0x1e, 0x00, 0x00, 0x00, 
  0x34, 0x00, 0x00, 0x00, 0x94, 0x01, 0x00, 0x00, 0x18, 0x00, 0x00, 0x00, 0x04, 0x00, 0x00, 0x00, 
  0x01, 0x00, 0x00, 0x00, 0x01, 0x00, 0x00, 0x00, 0x75, 0x00, 0x00, 0x00, 0x08, 0x00, 0x00, 0x00, 
  0x04, 0x00, 0x00, 0x00, 0xff, 0xff, 0xff, 0xff, 0x01, 0x00, 0x00, 0x00, 0x75, 0x00, 0x00, 0x00, 
  0x08, 0x00, 0x00, 0x00, 0x5f, 0x01, 0x00, 0x00, 0x73, 0x65, 0x71, 0x75, 0x65, 0x6e, 0x74, 0x69, 
  0x61, 0x6c, 0x5f, 0x36, 0x2f, 0x62, 0x61, 0x74, 0x63, 0x68, 0x5f, 0x6e, 0x6f, 0x72, 0x6d, 0x61, 
  0x6c, 0x69, 0x7a, 0x61, 0x74, 0x69, 0x6f, 0x6e, 0x5f, 0x39, 0x2f, 0x62, 0x61, 0x74, 0x63, 0x68, 
  0x6e, 0x6f, 0x72, 0x6d, 0x2f, 0x61, 0x64, 0x64, 0x5f, 0x31, 0x3b, 0x73, 0x65, 0x71, 0x75, 0x65, 
  0x6e, 0x74, 0x69, 0x61, 0x6c, 0x5f, 0x36, 0x2f, 0x63, 0x6f, 0x6e, 0x76, 0x31, 0x64, 0x5f, 0x31, 
  0x32, 0x2f, 0x63, 0x6f, 0x6e, 0x76, 0x31, 0x64, 0x2f, 0x53, 0x71, 0x75, 0x65, 0x65, 0x7a, 0x65, 
  0x3b, 0x73, 0x65, 0x71, 0x75, 0x65, 0x6e, 0x74, 0x69, 0x61, 0x6c, 0x5f, 0x36, 0x2f, 0x62, 0x61, 
  0x74, 0x63, 0x68, 0x5f, 0x6e, 0x6f, 0x72, 0x6d, 0x61, 0x6c, 0x69, 0x7a, 0x61, 0x74, 0x69, 0x6f, 
  0x6e, 0x5f, 0x39, 0x2f, 0x62, 0x61, 0x74, 0x63, 0x68, 0x6e, 0x6f, 0x72, 0x6d, 0x2f, 0x6d, 0x75, 
  0x6c, 0x5f, 0x31, 0x3b, 0x73, 0x65, 0x71, 0x75, 0x65, 0x6e, 0x74, 0x69, 0x61, 0x6c, 0x5f, 0x36, 
  0x2f, 0x63, 0x6f, 0x6e, 0x76, 0x31, 0x64, 0x5f, 0x31, 0x32, 0x2f, 0x52, 0x65, 0x6c, 0x75, 0x3b, 
  0x73, 0x65, 0x71, 0x75, 0x65, 0x6e, 0x74, 0x69, 0x61, 0x6c, 0x5f, 0x36, 0x2f, 0x63, 0x6f, 0x6e, 
  0x76, 0x31, 0x64, 0x5f, 0x31, 0x32, 0x2f, 0x42, 0x69, 0x61, 0x73, 0x41, 0x64, 0x64, 0x3b, 0x73, 
  0x65, 0x71, 0x75, 0x65, 0x6e, 0x74, 0x69, 0x61, 0x6c, 0x5f, 0x36, 0x2f, 0x63, 0x6f, 0x6e, 0x76, 
  0x31, 0x64, 0x5f, 0x31, 0x32, 0x2f, 0x42, 0x69, 0x61, 0x73, 0x41, 0x64, 0x64, 0x2f, 0x52, 0x65, 
  0x61, 0x64, 0x56, 0x61, 0x72, 0x69, 0x61, 0x62, 0x6c, 0x65, 0x4f, 0x70, 0x2f, 0x72, 0x65, 0x73, 
  0x6f, 0x75, 0x72, 0x63, 0x65, 0x3b, 0x73, 0x65, 0x71, 0x75, 0x65, 0x6e, 0x74, 0x69, 0x61, 0x6c, 
  0x5f, 0x36, 0x2f, 0x62, 0x61, 0x74, 0x63, 0x68, 0x5f, 0x6e, 0x6f, 0x72, 0x6d, 0x61, 0x6c, 0x69, 
  0x7a, 0x61, 0x74, 0x69, 0x6f, 0x6e, 0x5f, 0x39, 0x2f, 0x62, 0x61, 0x74, 0x63, 0x68, 0x6e, 0x6f, 
  0x72, 0x6d, 0x2f, 0x6d, 0x75, 0x6c, 0x3b, 0x73, 0x65, 0x71, 0x75, 0x65, 0x6e, 0x74, 0x69, 0x61, 
  0x6c, 0x5f, 0x36, 0x2f, 0x62, 0x61, 0x74, 0x63, 0x68, 0x5f, 0x6e, 0x6f, 0x72, 0x6d, 0x61, 0x6c, 
  0x69, 0x7a, 0x61, 0x74, 0x69, 0x6f, 0x6e, 0x5f, 0x39, 0x2f, 0x62, 0x61, 0x74, 0x63, 0x68, 0x6e, 
  0x6f, 0x72, 0x6d, 0x2f, 0x73, 0x75, 0x62, 0x00, 0x40, 0xd8, 0xff, 0xff, 0x08, 0x00, 0x00, 0x00, 
  0x0c, 0x00, 0x00, 0x00, 0x01, 0x00, 0x00, 0x00, 0xdc, 0xf5, 0x67, 0x3c, 0x01, 0x00, 0x00, 0x00, 
  0x08, 0x00, 0x00, 0x00, 0x00, 0x00, 0x00, 0x00, 0x00, 0x00, 0x00, 0x00, 0xd6, 0xfc, 0xff, 0xff, 
  0x00, 0x00, 0x00, 0x15, 0x03, 0x00, 0x00, 0x00, 0x18, 0x00, 0x00, 0x00, 0x0c, 0x00, 0x00, 0x00, 
  0x04, 0x00, 0x00, 0x00, 0x34, 0xd4, 0xff, 0xff, 0x01, 0x00, 0x00, 0x00, 0x1c, 0x00, 0x00, 0x00, 
  0x02, 0x00, 0x00, 0x00, 0x1b, 0x00, 0x00, 0x00, 0x0b, 0x00, 0x00, 0x00, 0xfc, 0xfb, 0xff, 0xff, 
  0x12, 0x00, 0x00, 0x00, 0x00, 0x00, 0x00, 0x12, 0x02, 0x00, 0x00, 0x00, 0xf0, 0xfb, 0xff, 0xff, 
  0x00, 0x00, 0x00, 0x09, 0x14, 0x00, 0x00, 0x00, 0x1d, 0x00, 0x00, 0x00, 0x34, 0x00, 0x00, 0x00, 
  0x30, 0x01, 0x00, 0x00, 0x18, 0x00, 0x00, 0x00, 0x04, 0x00, 0x00, 0x00, 0x01, 0x00, 0x00, 0x00, 
  0x01, 0x00, 0x00, 0x00, 0x75, 0x00, 0x00, 0x00, 0x08, 0x00, 0x00, 0x00, 0x04, 0x00, 0x00, 0x00, 
  0xff, 0xff, 0xff, 0xff, 0x01, 0x00, 0x00, 0x00, 0x75, 0x00, 0x00, 0x00, 0x08, 0x00, 0x00, 0x00, 
  0xfb, 0x00, 0x00, 0x00, 0x73, 0x65, 0x71, 0x75, 0x65, 0x6e, 0x74, 0x69, 0x61, 0x6c, 0x5f, 0x36, 
  0x2f, 0x62, 0x61, 0x74, 0x63, 0x68, 0x5f, 0x6e, 0x6f, 0x72, 0x6d, 0x61, 0x6c, 0x69, 0x7a, 0x61, 
  0x74, 0x69, 0x6f, 0x6e, 0x5f, 0x39, 0x2f, 0x62, 0x61, 0x74, 0x63, 0x68, 0x6e, 0x6f, 0x72, 0x6d, 
  0x2f, 0x6d, 0x75, 0x6c, 0x5f, 0x31, 0x3b, 0x73, 0x65, 0x71, 0x75, 0x65, 0x6e, 0x74, 0x69, 0x61, 
  0x6c, 0x5f, 0x36, 0x2f, 0x63, 0x6f, 0x6e, 0x76, 0x31, 0x64, 0x5f, 0x31, 0x32, 0x2f, 0x63, 0x6f, 
  0x6e, 0x76, 0x31, 0x64, 0x2f, 0x53, 0x71, 0x75, 0x65, 0x65, 0x7a, 0x65, 0x3b, 0x73, 0x65, 0x71, 
  0x75, 0x65, 0x6e, 0x74, 0x69, 0x61, 0x6c, 0x5f, 0x36, 0x2f, 0x63, 0x6f, 0x6e, 0x76, 0x31, 0x64, 
  0x5f, 0x31, 0x32, 0x2f, 0x52, 0x65, 0x6c, 0x75, 0x3b, 0x73, 0x65, 0x71, 0x75, 0x65, 0x6e, 0x74, 
  0x69, 0x61, 0x6c, 0x5f, 0x36, 0x2f, 0x63, 0x6f, 0x6e, 0x76, 0x31, 0x64, 0x5f, 0x31, 0x32, 0x2f, 
  0x42, 0x69, 0x61, 0x73, 0x41, 0x64, 0x64, 0x3b, 0x73, 0x65, 0x71, 0x75, 0x65, 0x6e, 0x74, 0x69, 
  0x61, 0x6c, 0x5f, 0x36, 0x2f, 0x63, 0x6f, 0x6e, 0x76, 0x31, 0x64, 0x5f, 0x31, 0x32, 0x2f, 0x42, 
  0x69, 0x61, 0x73, 0x41, 0x64, 0x64, 0x2f, 0x52, 0x65, 0x61, 0x64, 0x56, 0x61, 0x72, 0x69, 0x61, 
  0x62, 0x6c, 0x65, 0x4f, 0x70, 0x2f, 0x72, 0x65, 0x73, 0x6f, 0x75, 0x72, 0x63, 0x65, 0x3b, 0x73, 
  0x65, 0x71, 0x75, 0x65, 0x6e, 0x74, 0x69, 0x61, 0x6c, 0x5f, 0x36, 0x2f, 0x62, 0x61, 0x74, 0x63, 
  0x68, 0x5f, 0x6e, 0x6f, 0x72, 0x6d, 0x61, 0x6c, 0x69, 0x7a, 0x61, 0x74, 0x69, 0x6f, 0x6e, 0x5f, 
  0x39, 0x2f, 0x62, 0x61, 0x74, 0x63, 0x68, 0x6e, 0x6f, 0x72, 0x6d, 0x2f, 0x6d, 0x75, 0x6c, 0x00, 
  0xe8, 0xd9, 0xff, 0xff, 0x08, 0x00, 0x00, 0x00, 0x0c, 0x00, 0x00, 0x00, 0x01, 0x00, 0x00, 0x00, 
  0x73, 0x4a, 0xaa, 0x3c, 0x01, 0x00, 0x00, 0x00, 0x80, 0xff, 0xff, 0xff, 0xff, 0xff, 0xff, 0xff, 
  0x00, 0x00, 0x00, 0x00, 0x7e, 0xfe, 0xff, 0xff, 0x00, 0x00, 0x00, 0x01, 0x02, 0x00, 0x00, 0x00, 
  0x30, 0x00, 0x00, 0x00, 0x24, 0x00, 0x00, 0x00, 0x10, 0x00, 0x00, 0x00, 0x0c, 0x00, 0x10, 0x00, 
  0x0e, 0x00, 0x04, 0x00, 0x08, 0x00, 0x0f, 0x00, 0x0c, 0x00, 0x00, 0x00, 0x01, 0x00, 0x00, 0x00, 
  0x01, 0x00, 0x00, 0x00, 0x00, 0x00, 0x01, 0x01, 0x01, 0x00, 0x00, 0x00, 0x1b, 0x00, 0x00, 0x00, 
  0x03, 0x00, 0x00, 0x00, 0x1a, 0x00, 0x00, 0x00, 0x09, 0x00, 0x00, 0x00, 0x0a, 0x00, 0x00, 0x00, 
  0xc0, 0xfd, 0xff, 0xff, 0x03, 0x00, 0x00, 0x00, 0x00, 0x00, 0x00, 0x03, 0x03, 0x00, 0x00, 0x00, 
  0xb4, 0xfd, 0xff, 0xff, 0x00, 0x00, 0x00, 0x09, 0x14, 0x00, 0x00, 0x00, 0x1c, 0x00, 0x00, 0x00, 
  0x34, 0x00, 0x00, 0x00, 0xec, 0x00, 0x00, 0x00, 0x18, 0x00, 0x00, 0x00, 0x04, 0x00, 0x00, 0x00, 
  0x01, 0x00, 0x00, 0x00, 0x01, 0x00, 0x00, 0x00, 0x75, 0x00, 0x00, 0x00, 0x08, 0x00, 0x00, 0x00, 
  0x04, 0x00, 0x00, 0x00, 0xff, 0xff, 0xff, 0xff, 0x01, 0x00, 0x00, 0x00, 0x75, 0x00, 0x00, 0x00, 
  0x08, 0x00, 0x00, 0x00, 0xb5, 0x00, 0x00, 0x00, 0x73, 0x65, 0x71, 0x75, 0x65, 0x6e, 0x74, 0x69, 
  0x61, 0x6c, 0x5f, 0x36, 0x2f, 0x63, 0x6f, 0x6e, 0x76, 0x31, 0x64, 0x5f, 0x31, 0x32, 0x2f, 0x52, 
  0x65, 0x6c, 0x75, 0x3b, 0x73, 0x65, 0x71, 0x75, 0x65, 0x6e, 0x74, 0x69, 0x61, 0x6c, 0x5f, 0x36, 
  0x2f, 0x63, 0x6f, 0x6e, 0x76, 0x31, 0x64, 0x5f, 0x31, 0x32, 0x2f, 0x42, 0x69, 0x61, 0x73, 0x41, 
  0x64, 0x64, 0x3b, 0x73, 0x65, 0x71, 0x75, 0x65, 0x6e, 0x74, 0x69, 0x61, 0x6c, 0x5f, 0x36, 0x2f, 
  0x63, 0x6f, 0x6e, 0x76, 0x31, 0x64, 0x5f, 0x31, 0x32, 0x2f, 0x63, 0x6f, 0x6e, 0x76, 0x31, 0x64, 
  0x2f, 0x53, 0x71, 0x75, 0x65, 0x65, 0x7a, 0x65, 0x3b, 0x73, 0x65, 0x71, 0x75, 0x65, 0x6e, 0x74, 
  0x69, 0x61, 0x6c, 0x5f, 0x36, 0x2f, 0x63, 0x6f, 0x6e, 0x76, 0x31, 0x64, 0x5f, 0x31, 0x32, 0x2f, 
  0x42, 0x69, 0x61, 0x73, 0x41, 0x64, 0x64, 0x2f, 0x52, 0x65, 0x61, 0x64, 0x56, 0x61, 0x72, 0x69, 
  0x61, 0x62, 0x6c, 0x65, 0x4f, 0x70, 0x2f, 0x72, 0x65, 0x73, 0x6f, 0x75, 0x72, 0x63, 0x65, 0x3b, 
  0x73, 0x65, 0x71, 0x75, 0x65, 0x6e, 0x74, 0x69, 0x61, 0x6c, 0x5f, 0x36, 0x2f, 0x63, 0x6f, 0x6e, 
  0x76, 0x31, 0x64, 0x5f, 0x31, 0x32, 0x2f, 0x63, 0x6f, 0x6e, 0x76, 0x31, 0x64, 0x00, 0x00, 0x00, 
  0x68, 0xdb, 0xff, 0xff, 0x08, 0x00, 0x00, 0x00, 0x0c, 0x00, 0x00, 0x00, 0x01, 0x00, 0x00, 0x00, 
  0x71, 0xd8, 0x2b, 0x3b, 0x01, 0x00, 0x00, 0x00, 0x80, 0xff, 0xff, 0xff, 0xff, 0xff, 0xff, 0xff, 
  0x00, 0x00, 0x00, 0x00, 0x00, 0x00, 0x0e, 0x00, 0x18, 0x00, 0x08, 0x00, 0x0c, 0x00, 0x10, 0x00, 
  0x07, 0x00, 0x14, 0x00, 0x0e, 0x00, 0x00, 0x00, 0x00, 0x00, 0x00, 0x34, 0x01, 0x00, 0x00, 0x00, 
  0x18, 0x00, 0x00, 0x00, 0x0c, 0x00, 0x00, 0x00, 0x04, 0x00, 0x00, 0x00, 0x6c, 0xd7, 0xff, 0xff, 
  0x01, 0x00, 0x00, 0x00, 0x1a, 0x00, 0x00, 0x00, 0x02, 0x00, 0x00, 0x00, 0x19, 0x00, 0x00, 0x00, 
  0x01, 0x00, 0x00, 0x00, 0x34, 0xff, 0xff, 0xff, 0x46, 0x00, 0x00, 0x00, 0x00, 0x00, 0x00, 0x46, 
  0x01, 0x00, 0x00, 0x00, 0x28, 0xff, 0xff, 0xff, 0x00, 0x00, 0x00, 0x09, 0x14, 0x00, 0x00, 0x00, 
  0x1b, 0x00, 0x00, 0x00, 0x34, 0x00, 0x00, 0x00, 0x60, 0x00, 0x00, 0x00, 0x18, 0x00, 0x00, 0x00, 
  0x04, 0x00, 0x00, 0x00, 0x01, 0x00, 0x00, 0x00, 0x01, 0x00, 0x00, 0x00, 0x77, 0x00, 0x00, 0x00, 
  0x06, 0x00, 0x00, 0x00, 0x04, 0x00, 0x00, 0x00, 0xff, 0xff, 0xff, 0xff, 0x01, 0x00, 0x00, 0x00, 
  0x77, 0x00, 0x00, 0x00, 0x06, 0x00, 0x00, 0x00, 0x28, 0x00, 0x00, 0x00, 0x73, 0x65, 0x71, 0x75, 
  0x65, 0x6e, 0x74, 0x69, 0x61, 0x6c, 0x5f, 0x36, 0x2f, 0x63, 0x6f, 0x6e, 0x76, 0x31, 0x64, 0x5f, 
  0x31, 0x32, 0x2f, 0x63, 0x6f, 0x6e, 0x76, 0x31, 0x64, 0x2f, 0x45, 0x78, 0x70, 0x61, 0x6e, 0x64, 
  0x44, 0x69, 0x6d, 0x73, 0x00, 0x00, 0x00, 0x00, 0x50, 0xdc, 0xff, 0xff, 0x08, 0x00, 0x00, 0x00, 
  0x0c, 0x00, 0x00, 0x00, 0x01, 0x00, 0x00, 0x00, 0x81, 0x80, 0x80, 0x3b, 0x01, 0x00, 0x00, 0x00, 
  0x80, 0xff, 0xff, 0xff, 0xff, 0xff, 0xff, 0xff, 0x00, 0x00, 0x0a, 0x00, 0x0c, 0x00, 0x00, 0x00, 
  0x04, 0x00, 0x08, 0x00, 0x0a, 0x00, 0x00, 0x00, 0x10, 0x00, 0x00, 0x00, 0x04, 0x00, 0x00, 0x00, 
  0x01, 0x00, 0x00, 0x00, 0x19, 0x00, 0x00, 0x00, 0x01, 0x00, 0x00, 0x00, 0x00, 0x00, 0x00, 0x00, 
  0x0c, 0x00, 0x10, 0x00, 0x0b, 0x00, 0x00, 0x00, 0x0c, 0x00, 0x04, 0x00, 0x0c, 0x00, 0x00, 0x00, 
  0x72, 0x00, 0x00, 0x00, 0x00, 0x00, 0x00, 0x72, 0x01, 0x00, 0x00, 0x00, 0x14, 0x00, 0x1c, 0x00, 
  0x08, 0x00, 0x07, 0x00, 0x0c, 0x00, 0x10, 0x00, 0x14, 0x00, 0x00, 0x00, 0x00, 0x00, 0x18, 0x00, 
  0x14, 0x00, 0x00, 0x00, 0x00, 0x00, 0x00, 0x09, 0x14, 0x00, 0x00, 0x00, 0x1a, 0x00, 0x00, 0x00, 
  0x2c, 0x00, 0x00, 0x00, 0x3c, 0x00, 0x00, 0x00, 0x14, 0x00, 0x00, 0x00, 0x03, 0x00, 0x00, 0x00, 
  0x01, 0x00, 0x00, 0x00, 0x77, 0x00, 0x00, 0x00, 0x06, 0x00, 0x00, 0x00, 0x03, 0x00, 0x00, 0x00, 
  0xff, 0xff, 0xff, 0xff, 0x77, 0x00, 0x00, 0x00, 0x06, 0x00, 0x00, 0x00, 0x0c, 0x00, 0x00, 0x00, 
  0x74, 0x66, 0x6c, 0x2e, 0x71, 0x75, 0x61, 0x6e, 0x74, 0x69, 0x7a, 0x65, 0x00, 0x00, 0x00, 0x00, 
  0x18, 0xdd, 0xff, 0xff, 0x08, 0x00, 0x00, 0x00, 0x0c, 0x00, 0x00, 0x00, 0x01, 0x00, 0x00, 0x00, 
  0x81, 0x80, 0x80, 0x3b, 0x01, 0x00, 0x00, 0x00, 0x80, 0xff, 0xff, 0xff, 0xff, 0xff, 0xff, 0xff, 
  0x00, 0x00, 0x00, 0x00, 0xd2, 0xd9, 0xff, 0xff, 0x04, 0x00, 0x00, 0x00, 0x0c, 0x00, 0x00, 0x00, 
  0x4e, 0x01, 0x00, 0x00, 0xd6, 0xfe, 0xff, 0xff, 0xbe, 0xff, 0xff, 0xff, 0xd2, 0xd9, 0xff, 0xff, 
  0x00, 0x00, 0x00, 0x02, 0x10, 0x00, 0x00, 0x00, 0x19, 0x00, 0x00, 0x00, 0x10, 0x00, 0x00, 0x00, 
  0x48, 0x00, 0x00, 0x00, 0x01, 0x00, 0x00, 0x00, 0x03, 0x00, 0x00, 0x00, 0x35, 0x00, 0x00, 0x00, 
  0x73, 0x65, 0x71, 0x75, 0x65, 0x6e, 0x74, 0x69, 0x61, 0x6c, 0x5f, 0x36, 0x2f, 0x64, 0x65, 0x6e, 
  0x73, 0x65, 0x5f, 0x31, 0x30, 0x2f, 0x42, 0x69, 0x61, 0x73, 0x41, 0x64, 0x64, 0x2f, 0x52, 0x65, 
  0x61, 0x64, 0x56, 0x61, 0x72, 0x69, 0x61, 0x62, 0x6c, 0x65, 0x4f, 0x70, 0x2f, 0x72, 0x65, 0x73, 
  0x6f, 0x75, 0x72, 0x63, 0x65, 0x00, 0x00, 0x00, 0xb0, 0xdd, 0xff, 0xff, 0x08, 0x00, 0x00, 0x00, 
  0x0c, 0x00, 0x00, 0x00, 0x01, 0x00, 0x00, 0x00, 0xe2, 0xc8, 0xaa, 0x38, 0x01, 0x00, 0x00, 0x00, 
  0x00, 0x00, 0x00, 0x00, 0x00, 0x00, 0x00, 0x00, 0x00, 0x00, 0x00, 0x00, 0x6a, 0xda, 0xff, 0xff, 
  0x04, 0x00, 0x00, 0x00, 0x30, 0x00, 0x00, 0x00, 0x39, 0x39, 0xa4, 0xde, 0x1e, 0xa8, 0x03, 0xac, 
  0x25, 0x8a, 0xc3, 0xdc, 0x44, 0x05, 0xfa, 0x05, 0x8b, 0xe3, 0x98, 0x3b, 0xde, 0xd4, 0xa9, 0x37, 
  0x39, 0x4c, 0x67, 0xca, 0xbe, 0x0c, 0x04, 0x51, 0xb1, 0x81, 0xd9, 0xaa, 0x31, 0xde, 0x68, 0x99, 
  0x9e, 0x5e, 0xe5, 0xfd, 0x3d, 0x2a, 0x96, 0x5d, 0x8e, 0xda, 0xff, 0xff, 0x00, 0x00, 0x00, 0x09, 
  0x10, 0x00, 0x00, 0x00, 0x18, 0x00, 0x00, 0x00, 0x14, 0x00, 0x00, 0x00, 0x34, 0x00, 0x00, 0x00, 
  0x02, 0x00, 0x00, 0x00, 0x03, 0x00, 0x00, 0x00, 0x10, 0x00, 0x00, 0x00, 0x1c, 0x00, 0x00, 0x00, 
  0x73, 0x65, 0x71, 0x75, 0x65, 0x6e, 0x74, 0x69, 0x61, 0x6c, 0x5f, 0x36, 0x2f, 0x64, 0x65, 0x6e, 
  0x73, 0x65, 0x5f, 0x31, 0x30, 0x2f, 0x4d, 0x61, 0x74, 0x4d, 0x75, 0x6c, 0x00, 0x00, 0x00, 0x00, 
  0x58, 0xde, 0xff, 0xff, 0x08, 0x00, 0x00, 0x00, 0x0c, 0x00, 0x00, 0x00, 0x01, 0x00, 0x00, 0x00, 
  0x6b, 0x2d, 0xb5, 0x3b, 0x01, 0x00, 0x00, 0x00, 0x00, 0x00, 0x00, 0x00, 0x00, 0x00, 0x00, 0x00, 
  0x0e, 0xdb, 0xff, 0xff, 0x04, 0x00, 0x00, 0x00, 0x40, 0x00, 0x00, 0x00, 0x49, 0x07, 0x00, 0x00, 
  0x64, 0x07, 0x00, 0x00, 0xe2, 0x02, 0x00, 0x00, 0x8e, 0x01, 0x00, 0x00, 0x6c, 0x02, 0x00, 0x00, 
  0x4d, 0x01, 0x00, 0x00, 0xec, 0x03, 0x00, 0x00, 0x01, 0x03, 0x00, 0x00, 0x9e, 0x06, 0x00, 0x00, 
  0x48, 0x07, 0x00, 0x00, 0xea, 0x00, 0x00, 0x00, 0x2a, 0x03, 0x00, 0x00, 0xd6, 0x06, 0x00, 0x00, 
  0x9f, 0x02, 0x00, 0x00, 0xfa, 0xfe, 0xff, 0xff, 0x77, 0x02, 0x00, 0x00, 0x42, 0xdb, 0xff, 0xff, 
  0x00, 0x00, 0x00, 0x02, 0x10, 0x00, 0x00, 0x00, 0x17, 0x00, 0x00, 0x00, 0x10, 0x00, 0x00, 0x00, 
  0x48, 0x00, 0x00, 0x00, 0x01, 0x00, 0x00, 0x00, 0x10, 0x00, 0x00, 0x00, 0x34, 0x00, 0x00, 0x00, 
  0x73, 0x65, 0x71, 0x75, 0x65, 0x6e, 0x74, 0x69, 0x61, 0x6c, 0x5f, 0x36, 0x2f, 0x64, 0x65, 0x6e, 
  0x73, 0x65, 0x5f, 0x39, 0x2f, 0x42, 0x69, 0x61, 0x73, 0x41, 0x64, 0x64, 0x2f, 0x52, 0x65, 0x61, 
  0x64, 0x56, 0x61, 0x72, 0x69, 0x61, 0x62, 0x6c, 0x65, 0x4f, 0x70, 0x2f, 0x72, 0x65, 0x73, 0x6f, 
  0x75, 0x72, 0x63, 0x65, 0x00, 0x00, 0x00, 0x00, 0x20, 0xdf, 0xff, 0xff, 0x08, 0x00, 0x00, 0x00, 
  0x0c, 0x00, 0x00, 0x00, 0x01, 0x00, 0x00, 0x00, 0xe9, 0x9f, 0x2c, 0x38, 0x01, 0x00, 0x00, 0x00, 
  0x00, 0x00, 0x00, 0x00, 0x00, 0x00, 0x00, 0x00, 0xd6, 0xdb, 0xff, 0xff, 0x04, 0x00, 0x00, 0x00, 
  0x00, 0x02, 0x00, 0x00, 0x9c, 0xfe, 0x15, 0x46, 0x88, 0xba, 0x1d, 0x98, 0x30, 0xa2, 0xdf, 0xf2, 
  0xcf, 0xd0, 0x3f, 0xec, 0xa8, 0x70, 0xea, 0xa8, 0x52, 0x54, 0x11, 0xd7, 0x0d, 0x94, 0xfa, 0x69, 
  0x32, 0x7d, 0x59, 0x67, 0xa6, 0x6f, 0xc9, 0x9c, 0xb3, 0x6f, 0x81, 0x00, 0xab, 0x10, 0xca, 0x02, 
  0x9b, 0xa9, 0x11, 0xb1, 0xd0, 0x0e, 0x0f, 0x41, 0x32, 0xfb, 0xc5, 0x38, 0x4e, 0xce, 0xb6, 0x26, 
  0xbc, 0x39, 0x66, 0x46, 0x16, 0x29, 0xd4, 0x3f, 0xed, 0x47, 0x7e, 0x54, 0xc4, 0x31, 0xea, 0xdd, 
  0xce, 0xf6, 0xd0, 0xa8, 0xab, 0x25, 0xce, 0xd7, 0x88, 0xa7, 0xfc, 0xbb, 0x2d, 0xee, 0x31, 0x3c, 
  0x97, 0xb6, 0x92, 0xec, 0xad, 0xd7, 0xda, 0xe0, 0x7d, 0xaf, 0xd2, 0xc5, 0x5c, 0x99, 0x37, 0x28, 
  0xde, 0x13, 0x25, 0x42, 0x0d, 0xb4, 0x04, 0x58, 0x6b, 0x4c, 0xb4, 0x42, 0xf0, 0xc5, 0x63, 0xf5, 
  0xd4, 0xe2, 0x4d, 0xe2, 0x52, 0x74, 0x50, 0x2f, 0xe6, 0xcb, 0x3a, 0xb1, 0x4c, 0x54, 0xf7, 0x22, 
  0x65, 0x2f, 0xc1, 0xc8, 0x1b, 0xbe, 0xe8, 0x1e, 0xad, 0x4b, 0x25, 0x9b, 0xb2, 0xff, 0x24, 0x3d, 
  0xef, 0x21, 0xa6, 0x15, 0x4e, 0xac, 0x04, 0xa9, 0x2c, 0x32, 0x11, 0x39, 0xb5, 0xd8, 0xfc, 0xa4, 
  0x24, 0xaf, 0xb9, 0x37, 0xce, 0x8f, 0xda, 0x45, 0x03, 0x27, 0x12, 0x12, 0x62, 0x06, 0xa6, 0xae, 
  0x8f, 0xe4, 0xd2, 0xfe, 0x65, 0x42, 0x38, 0x2c, 0x44, 0x93, 0x0b, 0xe7, 0xd1, 0x13, 0xa1, 0xc0, 
  0x40, 0x26, 0xf1, 0xf3, 0xfe, 0x0c, 0x66, 0xd5, 0xd3, 0x32, 0xee, 0xfa, 0x00, 0xbe, 0x3a, 0x04, 
  0x1b, 0xf9, 0xc2, 0xd5, 0xcb, 0x06, 0x08, 0x9b, 0x2b, 0x53, 0x37, 0xf1, 0x6a, 0xe3, 0x3a, 0xf7, 
  0x35, 0x50, 0xcb, 0x14, 0x21, 0x1a, 0xbf, 0xd9, 0x6c, 0x1c, 0x3f, 0xfe, 0xd5, 0x47, 0x35, 0xa3, 
  0xdc, 0x99, 0x2e, 0x94, 0xd5, 0xcd, 0xaf, 0xc7, 0xbe, 0x24, 0x19, 0xe4, 0xcb, 0xea, 0x13, 0x08, 
  0x36, 0xbb, 0xe9, 0xfa, 0xff, 0x90, 0xb1, 0x59, 0xe4, 0x72, 0xb7, 0x55, 0x3c, 0xc1, 0x37, 0xe7, 
  0x67, 0x92, 0xaa, 0xef, 0x32, 0x06, 0x64, 0xe7, 0x7c, 0xad, 0x71, 0x3a, 0x2c, 0xdd, 0x92, 0xcd, 
  0xa8, 0x2d, 0x4f, 0xf6, 0xf3, 0xe6, 0x99, 0xe9, 0xc7, 0xd2, 0xc1, 0x19, 0x8f, 0x2f, 0x3f, 0x0f, 
  0x83, 0x0e, 0xa8, 0x03, 0x19, 0x2a, 0x3e, 0xa3, 0x62, 0xae, 0xf7, 0x5b, 0xf8, 0x4c, 0xba, 0x4a, 
  0xb0, 0x9d, 0x1e, 0x2f, 0x61, 0x84, 0x8d, 0x48, 0x1a, 0x28, 0x60, 0x2b, 0x64, 0x36, 0x6d, 0xc6, 
  0x18, 0x32, 0x54, 0xbf, 0x37, 0x25, 0x0d, 0x18, 0xe6, 0x2d, 0x21, 0x67, 0xb8, 0x57, 0x0b, 0x21, 
  0xa5, 0x6d, 0x6e, 0xd1, 0x4c, 0x05, 0xc2, 0xd8, 0x94, 0x9f, 0xd8, 0x9e, 0x8e, 0xb6, 0xdd, 0x26, 
  0xa9, 0x3e, 0x35, 0x50, 0x9c, 0x6a, 0x50, 0xf2, 0xbd, 0x3f, 0xce, 0xbf, 0x38, 0xca, 0x0a, 0xeb, 
  0x22, 0x10, 0x57, 0x95, 0x94, 0xf0, 0x63, 0xb2, 0xb5, 0x27, 0xaf, 0x0c, 0xa3, 0xd3, 0x05, 0xe9, 
  0xa7, 0x0c, 0xd6, 0x45, 0xdb, 0x51, 0x24, 0xb3, 0x12, 0x9b, 0x58, 0x44, 0x35, 0x12, 0x90, 0x13, 
  0x4d, 0x6e, 0xd0, 0x0d, 0x12, 0xe5, 0xd4, 0xf8, 0x40, 0x37, 0x89, 0x1d, 0x86, 0x0a, 0x9c, 0xf3, 
  0xa6, 0x0d, 0xb9, 0x37, 0x18, 0xcf, 0xb9, 0xa7, 0xf3, 0x70, 0x21, 0xec, 0x3f, 0x02, 0xb7, 0xf4, 
  0xd8, 0xe1, 0xcd, 0x34, 0xaf, 0x54, 0xb3, 0xb7, 0xdf, 0x44, 0xf2, 0x33, 0x02, 0x3b, 0x58, 0x31, 
  0xd0, 0x5e, 0x1f, 0xbf, 0xef, 0x44, 0xb2, 0x43, 0xb6, 0xfa, 0x59, 0x08, 0x13, 0x56, 0xdc, 0x20, 
  0x27, 0xb4, 0xa8, 0xab, 0xeb, 0x8a, 0x9e, 0xf9, 0xd6, 0x23, 0x34, 0x0d, 0x56, 0xca, 0x34, 0xb1, 
  0xb3, 0x9c, 0x52, 0xb6, 0xca, 0xdd, 0xff, 0xff, 0x00, 0x00, 0x00, 0x09, 0x10, 0x00, 0x00, 0x00, 
  0x16, 0x00, 0x00, 0x00, 0x14, 0x00, 0x00, 0x00, 0x30, 0x00, 0x00, 0x00, 0x02, 0x00, 0x00, 0x00, 
  0x10, 0x00, 0x00, 0x00, 0x20, 0x00, 0x00, 0x00, 0x1b, 0x00, 0x00, 0x00, 0x73, 0x65, 0x71, 0x75, 
  0x65, 0x6e, 0x74, 0x69, 0x61, 0x6c, 0x5f, 0x36, 0x2f, 0x64, 0x65, 0x6e, 0x73, 0x65, 0x5f, 0x39, 
  0x2f, 0x4d, 0x61, 0x74, 0x4d, 0x75, 0x6c, 0x00, 0x90, 0xe1, 0xff, 0xff, 0x08, 0x00, 0x00, 0x00, 
  0x0c, 0x00, 0x00, 0x00, 0x01, 0x00, 0x00, 0x00, 0x4e, 0x30, 0x62, 0x3b, 0x01, 0x00, 0x00, 0x00, 
  0x00, 0x00, 0x00, 0x00, 0x00, 0x00, 0x00, 0x00, 0x00, 0x00, 0x00, 0x00, 0x4a, 0xde, 0xff, 0xff, 
  0x04, 0x00, 0x00, 0x00, 0x20, 0x00, 0x00, 0x00, 0x9c, 0xc6, 0x9c, 0xb4, 0x88, 0xb5, 0x91, 0x8c, 
  0xaa, 0x9c, 0x88, 0x93, 0xb2, 0x9e, 0xe8, 0xa5, 0x87, 0xbc, 0xc0, 0xa2, 0x94, 0xb3, 0x80, 0xc7, 
  0xbd, 0x93, 0xa2, 0xb8, 0x8a, 0xd4, 0xd0, 0xc1, 0x5e, 0xde, 0xff, 0xff, 0x00, 0x00, 0x00, 0x09, 
  0x10, 0x00, 0x00, 0x00, 0x15, 0x00, 0x00, 0x00, 0x10, 0x00, 0x00, 0x00, 0x44, 0x00, 0x00, 0x00, 
  0x01, 0x00, 0x00, 0x00, 0x20, 0x00, 0x00, 0x00, 0x31, 0x00, 0x00, 0x00, 0x73, 0x65, 0x71, 0x75, 
  0x65, 0x6e, 0x74, 0x69, 0x61, 0x6c, 0x5f, 0x36, 0x2f, 0x62, 0x61, 0x74, 0x63, 0x68, 0x5f, 0x6e, 
  0x6f, 0x72, 0x6d, 0x61, 0x6c, 0x69, 0x7a, 0x61, 0x74, 0x69, 0x6f, 0x6e, 0x5f, 0x31, 0x31, 0x2f, 
  0x62, 0x61, 0x74, 0x63, 0x68, 0x6e, 0x6f, 0x72, 0x6d, 0x2f, 0x73, 0x75, 0x62, 0x00, 0x00, 0x00, 
  0x38, 0xe2, 0xff, 0xff, 0x08, 0x00, 0x00, 0x00, 0x0c, 0x00, 0x00, 0x00, 0x01, 0x00, 0x00, 0x00, 
  0x38, 0x1f, 0x68, 0x3b, 0x01, 0x00, 0x00, 0x00, 0x7f, 0x00, 0x00, 0x00, 0x00, 0x00, 0x00, 0x00, 
  0x00, 0x00, 0x00, 0x00, 0xf2, 0xde, 0xff, 0xff, 0x04, 0x00, 0x00, 0x00, 0x20, 0x00, 0x00, 0x00, 
  0x0b, 0x69, 0x18, 0x2c, 0x4f, 0xfc, 0x53, 0x4f, 0x29, 0x1d, 0xf3, 0x38, 0x0d, 0x23, 0x1c, 0x1e, 
  0x3d, 0x0f, 0x08, 0xf6, 0xfa, 0x42, 0x2d, 0x4c, 0xf4, 0x5d, 0x7f, 0x19, 0x37, 0x0e, 0xff, 0x18, 
  0x06, 0xdf, 0xff, 0xff, 0x00, 0x00, 0x00, 0x09, 0x10, 0x00, 0x00, 0x00, 0x14, 0x00, 0x00, 0x00, 
  0x10, 0x00, 0x00, 0x00, 0x44, 0x00, 0x00, 0x00, 0x01, 0x00, 0x00, 0x00, 0x20, 0x00, 0x00, 0x00, 
  0x31, 0x00, 0x00, 0x00, 0x73, 0x65, 0x71, 0x75, 0x65, 0x6e, 0x74, 0x69, 0x61, 0x6c, 0x5f, 0x36, 
  0x2f, 0x62, 0x61, 0x74, 0x63, 0x68, 0x5f, 0x6e, 0x6f, 0x72, 0x6d, 0x61, 0x6c, 0x69, 0x7a, 0x61, 
  0x74, 0x69, 0x6f, 0x6e, 0x5f, 0x31, 0x31, 0x2f, 0x62, 0x61, 0x74, 0x63, 0x68, 0x6e, 0x6f, 0x72, 
  0x6d, 0x2f, 0x6d, 0x75, 0x6c, 0x00, 0x00, 0x00, 0xe0, 0xe2, 0xff, 0xff, 0x08, 0x00, 0x00, 0x00, 
  0x0c, 0x00, 0x00, 0x00, 0x01, 0x00, 0x00, 0x00, 0x7d, 0x04, 0xe9, 0x3b, 0x01, 0x00, 0x00, 0x00, 
  0x80, 0xff, 0xff, 0xff, 0xff, 0xff, 0xff, 0xff, 0x96, 0xdf, 0xff, 0xff, 0x04, 0x00, 0x00, 0x00, 
  0x80, 0x00, 0x00, 0x00, 0x4a, 0x04, 0x00, 0x00, 0x98, 0x14, 0x00, 0x00, 0x19, 0x15, 0x00, 0x00, 
  0x1c, 0xfe, 0xff, 0xff, 0x1d, 0x0c, 0x00, 0x00, 0x78, 0x01, 0x00, 0x00, 0xb3, 0x02, 0x00, 0x00, 
  0x8b, 0x0a, 0x00, 0x00, 0x26, 0x05, 0x00, 0x00, 0x8d, 0x09, 0x00, 0x00, 0xae, 0x03, 0x00, 0x00, 
  0x44, 0x09, 0x00, 0x00, 0x32, 0xfe, 0xff, 0xff, 0x0c, 0x05, 0x00, 0x00, 0x32, 0xfa, 0xff, 0xff, 
  0x61, 0xfe, 0xff, 0xff, 0xd4, 0x12, 0x00, 0x00, 0x84, 0x0f, 0x00, 0x00, 0x21, 0x0f, 0x00, 0x00, 
  0xb6, 0x0b, 0x00, 0x00, 0x96, 0x09, 0x00, 0x00, 0xc4, 0x10, 0x00, 0x00, 0xc8, 0x09, 0x00, 0x00, 
  0x1a, 0x07, 0x00, 0x00, 0x98, 0x05, 0x00, 0x00, 0x24, 0x15, 0x00, 0x00, 0xff, 0x0a, 0x00, 0x00, 
  0xb0, 0x0e, 0x00, 0x00, 0x1c, 0x01, 0x00, 0x00, 0x95, 0x05, 0x00, 0x00, 0x04, 0x02, 0x00, 0x00, 
  0x5e, 0x0a, 0x00, 0x00, 0x0a, 0xe0, 0xff, 0xff, 0x00, 0x00, 0x00, 0x02, 0x10, 0x00, 0x00, 0x00, 
  0x13, 0x00, 0x00, 0x00, 0x10, 0x00, 0x00, 0x00, 0xac, 0x00, 0x00, 0x00, 0x01, 0x00, 0x00, 0x00, 
  0x20, 0x00, 0x00, 0x00, 0x99, 0x00, 0x00, 0x00, 0x73, 0x65, 0x71, 0x75, 0x65, 0x6e, 0x74, 0x69, 
  0x61, 0x6c, 0x5f, 0x36, 0x2f, 0x63, 0x6f, 0x6e, 0x76, 0x31, 0x64, 0x5f, 0x31, 0x34, 0x2f, 0x42, 
  0x69, 0x61, 0x73, 0x41, 0x64, 0x64, 0x3b, 0x73, 0x65, 0x71, 0x75, 0x65, 0x6e, 0x74, 0x69, 0x61, 
  0x6c, 0x5f, 0x36, 0x2f, 0x63, 0x6f, 0x6e, 0x76, 0x31, 0x64, 0x5f, 0x31, 0x34, 0x2f, 0x63, 0x6f, 
  0x6e, 0x76, 0x31, 0x64, 0x2f, 0x53, 0x71, 0x75, 0x65, 0x65, 0x7a, 0x65, 0x3b, 0x73, 0x65, 0x71, 
  0x75, 0x65, 0x6e, 0x74, 0x69, 0x61, 0x6c, 0x5f, 0x36, 0x2f, 0x63, 0x6f, 0x6e, 0x76, 0x31, 0x64, 
  0x5f, 0x31, 0x34, 0x2f, 0x42, 0x69, 0x61, 0x73, 0x41, 0x64, 0x64, 0x2f, 0x52, 0x65, 0x61, 0x64, 
  0x56, 0x61, 0x72, 0x69, 0x61, 0x62, 0x6c, 0x65, 0x4f, 0x70, 0x2f, 0x72, 0x65, 0x73, 0x6f, 0x75, 
  0x72, 0x63, 0x65, 0x3b, 0x73, 0x65, 0x71, 0x75, 0x65, 0x6e, 0x74, 0x69, 0x61, 0x6c, 0x5f, 0x36, 
  0x2f, 0x63, 0x6f, 0x6e, 0x76, 0x31, 0x64, 0x5f, 0x31, 0x34, 0x2f, 0x63, 0x6f, 0x6e, 0x76, 0x31, 
  0x64, 0x00, 0x00, 0x00, 0x4c, 0xe4, 0xff, 0xff, 0x08, 0x00, 0x00, 0x00, 0x88, 0x00, 0x00, 0x00, 
  0x20, 0x00, 0x00, 0x00, 0xe9, 0x38, 0xb0, 0x37, 0x5f, 0x9a, 0xab, 0x37, 0x7a, 0x66, 0x98, 0x37, 
  0xb7, 0xba, 0x87, 0x37, 0x44, 0x52, 0x9f, 0x37, 0x4f, 0x8e, 0x92, 0x37, 0xd8, 0x1d, 0xa1, 0x37, 
  0x8a, 0x9b, 0xb3, 0x37, 0x3f, 0x6f, 0xa6, 0x37, 0x4a, 0x6d, 0x8f, 0x37, 0x84, 0xba, 0x88, 0x37, 
  0xf6, 0xbd, 0x9c, 0x37, 0xdd, 0xe8, 0x96, 0x37, 0xd2, 0xc4, 0x9c, 0x37, 0xdb, 0x93, 0x8b, 0x37, 
  0x50, 0x72, 0x95, 0x37, 0xb8, 0x9f, 0x9e, 0x37, 0xa1, 0x21, 0x92, 0x37, 0x73, 0x10, 0xa3, 0x37, 
  0x24, 0x00, 0x91, 0x37, 0xd8, 0xac, 0xb5, 0x37, 0x6c, 0xa5, 0x9d, 0x37, 0x8e, 0x74, 0x93, 0x37, 
  0x3c, 0xfe, 0x91, 0x37, 0x76, 0x39, 0xa6, 0x37, 0x8f, 0x18, 0x9b, 0x37, 0x1b, 0x43, 0xb4, 0x37, 
  0x56, 0xa0, 0xa4, 0x37, 0x27, 0x8c, 0xa4, 0x37, 0x8b, 0x9f, 0xaa, 0x37, 0x22, 0x5e, 0xb4, 0x37, 
  0x7c, 0x0c, 0x9b, 0x37, 0x20, 0x00, 0x00, 0x00, 0x00, 0x00, 0x00, 0x00, 0x00, 0x00, 0x00, 0x00, 
  0x00, 0x00, 0x00, 0x00, 0x00, 0x00, 0x00, 0x00, 0x00, 0x00, 0x00, 0x00, 0x00, 0x00, 0x00, 0x00, 
  0x00, 0x00, 0x00, 0x00, 0x00, 0x00, 0x00, 0x00, 0x00, 0x00, 0x00, 0x00, 0x00, 0x00, 0x00, 0x00, 
  0x00, 0x00, 0x00, 0x00, 0x00, 0x00, 0x00, 0x00, 0x00, 0x00, 0x00, 0x00, 0x00, 0x00, 0x00, 0x00, 
  0x00, 0x00, 0x00, 0x00, 0x00, 0x00, 0x00, 0x00, 0x00, 0x00, 0x00, 0x00, 0x00, 0x00, 0x00, 0x00, 
  0x00, 0x00, 0x00, 0x00, 0x00, 0x00, 0x00, 0x00, 0x00, 0x00, 0x00, 0x00, 0x00, 0x00, 0x00, 0x00, 
  0x00, 0x00, 0x00, 0x00, 0x00, 0x00, 0x00, 0x00, 0x00, 0x00, 0x00, 0x00, 0x00, 0x00, 0x00, 0x00, 
  0x00, 0x00, 0x00, 0x00, 0x00, 0x00, 0x00, 0x00, 0x00, 0x00, 0x00, 0x00, 0x00, 0x00, 0x00, 0x00, 
  0x00, 0x00, 0x00, 0x00, 0x00, 0x00, 0x00, 0x00, 0x00, 0x00, 0x00, 0x00, 0x00, 0x00, 0x00, 0x00, 
  0x00, 0x00, 0x00, 0x00, 0x00, 0x00, 0x00, 0x00, 0x00, 0x00, 0x00, 0x00, 0x00, 0x00, 0x00, 0x00, 
  0x00, 0x00, 0x00, 0x00, 0x00, 0x00, 0x00, 0x00, 0x00, 0x00, 0x00, 0x00, 0x00, 0x00, 0x00, 0x00, 
  0x00, 0x00, 0x00, 0x00, 0x00, 0x00, 0x00, 0x00, 0x00, 0x00, 0x00, 0x00, 0x00, 0x00, 0x00, 0x00, 
  0x00, 0x00, 0x00, 0x00, 0x00, 0x00, 0x00, 0x00, 0x00, 0x00, 0x00, 0x00, 0x00, 0x00, 0x00, 0x00, 
  0x00, 0x00, 0x00, 0x00, 0x00, 0x00, 0x00, 0x00, 0x00, 0x00, 0x00, 0x00, 0x00, 0x00, 0x00, 0x00, 
  0x00, 0x00, 0x00, 0x00, 0x00, 0x00, 0x00, 0x00, 0x00, 0x00, 0x00, 0x00, 0x00, 0x00, 0x00, 0x00, 
  0x00, 0x00, 0x00, 0x00, 0x00, 0x00, 0x00, 0x00, 0x00, 0x00, 0x00, 0x00, 0x00, 0x00, 0x00, 0x00, 
  0x00, 0x00, 0x00, 0x00, 0x00, 0x00, 0x00, 0x00, 0x76, 0xe2, 0xff, 0xff, 0x04, 0x00, 0x00, 0x00, 
  0x00, 0x0e, 0x00, 0x00, 0x2c, 0x11, 0xc9, 0x39, 0xf1, 0x37, 0x18, 0x2a, 0x2f, 0xc2, 0xcb, 0x98, 
  0x09, 0x16, 0x0f, 0x17, 0xfe, 0xdc, 0xf4, 0xe5, 0x34, 0x0e, 0x32, 0xa2, 0x9b, 0xf0, 0x9f, 0xc1, 
  0xa3, 0x44, 0x0c, 0xe7, 0xaf, 0xe6, 0x15, 0xd3, 0xc9, 0x2c, 0xb1, 0xd5, 0xcf, 0xe0, 0xe4, 0xcf, 
  0x8e, 0xdd, 0xfe, 0xfd, 0xca, 0xf1, 0xc5, 0xe7, 0xab, 0xec, 0x0a, 0xe0, 0xf7, 0x0f, 0xbf, 0xb8, 
  0xdd, 0x45, 0x44, 0x1f, 0xd7, 0xd9, 0xc9, 0x45, 0xee, 0xd5, 0xe3, 0x4c, 0xbc, 0x87, 0x29, 0xda, 
  0x81, 0xb1, 0x37, 0x1e, 0x10, 0x4a, 0xe9, 0xfb, 0x1f, 0x32, 0xa7, 0xdf, 0xac, 0xfc, 0x2f, 0xd6, 
  0xb7, 0x31, 0xbd, 0x00, 0x0b, 0xd0, 0xf0, 0x30, 0x01, 0x2c, 0x06, 0xe6, 0xc8, 0xb3, 0x21, 0xe1, 
  0xe7, 0xd5, 0xf1, 0x0f, 0xd6, 0xf7, 0x3a, 0xeb, 0x52, 0x35, 0x08, 0xe3, 0xe6, 0xed, 0x1c, 0xa1, 
  0x3b, 0xd1, 0xb2, 0xcc, 0x2b, 0xc3, 0x1b, 0xf5, 0x44, 0xe6, 0x19, 0xde, 0x39, 0x1c, 0xcf, 0x17, 
  0x29, 0x0f, 0x29, 0xb9, 0xf3, 0x81, 0xc1, 0xe6, 0xea, 0x08, 0x27, 0x01, 0x06, 0x32, 0xa7, 0x84, 
  0x4f, 0x24, 0xf8, 0xfb, 0xe2, 0xc0, 0xf0, 0x0e, 0x39, 0xb7, 0xfc, 0xe1, 0xc2, 0xf1, 0x8a, 0xce, 
  0x28, 0x05, 0xd3, 0x18, 0xff, 0xd6, 0x07, 0xb6, 0x0d, 0xe0, 0x43, 0x13, 0xe7, 0x19, 0xa7, 0xba, 
  0xe9, 0xf5, 0xf6, 0xca, 0xa2, 0x25, 0xd5, 0xac, 0xe0, 0xd3, 0x10, 0xe2, 0xe1, 0xd1, 0x08, 0xa0, 
  0xf2, 0x3a, 0x0f, 0xde, 0xd7, 0x9f, 0x3c, 0xec, 0xcf, 0x48, 0x31, 0xbf, 0x0f, 0x3f, 0xae, 0x34, 
  0xbf, 0xe1, 0xfc, 0x18, 0xab, 0xa3, 0x0e, 0xca, 0xbd, 0x02, 0x52, 0xde, 0x06, 0xc7, 0x04, 0x3e, 
  0xd8, 0x7f, 0xda, 0xe8, 0x11, 0x0e, 0x8e, 0x41, 0x2d, 0x4a, 0x49, 0xc0, 0x32, 0x98, 0xac, 0xc7, 
  0x00, 0x1b, 0x1d, 0xaa, 0xf3, 0x34, 0xef, 0x70, 0xdc, 0x26, 0x13, 0xd0, 0x26, 0xfb, 0xce, 0xb8, 
  0xc2, 0x1f, 0xe6, 0x42, 0x08, 0xec, 0xf6, 0xe2, 0xe1, 0x09, 0xee, 0x05, 0xb6, 0x90, 0x03, 0x4e, 
  0x8a, 0x73, 0xbb, 0xc8, 0x2c, 0xdb, 0xd0, 0x52, 0x53, 0xfe, 0x54, 0x33, 0xd7, 0xa7, 0xc9, 0x23, 
  0xa8, 0x0d, 0xf1, 0x20, 0x40, 0xcf, 0xfb, 0x2d, 0xf3, 0xe1, 0x08, 0xc0, 0x27, 0xd8, 0xee, 0xd0, 
  0x3b, 0xf6, 0xfa, 0xac, 0xb5, 0xef, 0xec, 0x60, 0x15, 0xcd, 0x58, 0xde, 0xcb, 0xf4, 0x9b, 0xc1, 
  0x44, 0x48, 0x1d, 0xd3, 0x39, 0x3d, 0x6c, 0x63, 0x72, 0x1e, 0x28, 0x0f, 0xae, 0x1f, 0xf0, 0xe0, 
  0x97, 0x7a, 0xc5, 0xf9, 0xb2, 0x1f, 0x27, 0x31, 0x13, 0x47, 0xae, 0xc6, 0xc6, 0x0f, 0x25, 0x30, 
  0x25, 0xc2, 0x44, 0xd4, 0xc1, 0x54, 0xec, 0x50, 0x52, 0xb3, 0xea, 0xe4, 0xac, 0x0a, 0xc1, 0xdf, 
  0xce, 0xfa, 0x2a, 0x6e, 0xe4, 0xc4, 0x52, 0x64, 0xb6, 0x1c, 0x1c, 0xac, 0x51, 0xd0, 0x41, 0xf1, 
  0xcf, 0xed, 0xc6, 0xc0, 0xba, 0x8d, 0x27, 0xa8, 0xcd, 0xc6, 0x0d, 0xad, 0x07, 0xad, 0xfd, 0xa8, 
  0xd1, 0xee, 0x57, 0x45, 0x9f, 0xbf, 0x07, 0x40, 0xdd, 0x5b, 0x7a, 0x09, 0x99, 0xed, 0x39, 0xe1, 
  0xee, 0x1d, 0xcc, 0x7d, 0x41, 0x25, 0x73, 0x2e, 0x64, 0x35, 0x22, 0x2b, 0xf5, 0xd4, 0x48, 0x98, 
  0x7f, 0x45, 0x09, 0x56, 0xf7, 0x0c, 0x26, 0xfd, 0x07, 0x47, 0xf3, 0x0e, 0x4a, 0x35, 0xfe, 0x98, 
  0x09, 0x03, 0x06, 0xc2, 0x27, 0xe4, 0x36, 0xa5, 0x33, 0x41, 0x3c, 0x8e, 0x18, 0x2e, 0xb0, 0x34, 
  0x3f, 0xda, 0xfe, 0xcb, 0xf8, 0xe4, 0xc8, 0xec, 0x11, 0x4e, 0x0e, 0x0b, 0x2e, 0x2d, 0x20, 0xa3, 
  0x13, 0xc9, 0xca, 0xac, 0xbe, 0x10, 0x0f, 0xab, 0xa1, 0xc6, 0xff, 0xc5, 0x17, 0x1c, 0xf2, 0xf1, 
  0xbe, 0x14, 0xf2, 0x05, 0xf0, 0xb6, 0x3d, 0xfc, 0xb7, 0xe3, 0x2f, 0xc8, 0xdf, 0xa4, 0xcc, 0x03, 
  0xe9, 0xc9, 0x9b, 0x1f, 0xac, 0x1b, 0xd3, 0x54, 0xa5, 0x45, 0xcc, 0x49, 0x09, 0x07, 0xd8, 0x20, 
  0xad, 0x2f, 0xd8, 0x85, 0xbe, 0x13, 0xec, 0x4f, 0xb1, 0xb8, 0x81, 0x47, 0x1d, 0xe0, 0x0e, 0x58, 
  0xf4, 0xe8, 0xb7, 0x0d, 0xe2, 0x4b, 0xd7, 0xbe, 0xee, 0xa6, 0x07, 0x0e, 0x6a, 0x18, 0xba, 0x23, 
  0x6a, 0xa6, 0xd6, 0x29, 0x06, 0x4b, 0x4c, 0x9c, 0x3d, 0xe6, 0x0f, 0xce, 0x70, 0xed, 0x40, 0xfb, 
  0x36, 0x81, 0xb7, 0xe8, 0xcb, 0x7b, 0x26, 0x18, 0xe3, 0x28, 0xe1, 0x30, 0xd6, 0xc4, 0x12, 0x19, 
  0x59, 0xe7, 0x1f, 0x2a, 0x08, 0xde, 0x00, 0xb6, 0x4d, 0x23, 0x28, 0x42, 0x36, 0xd6, 0x25, 0xe5, 
  0x1c, 0xf9, 0x18, 0x18, 0xbb, 0xe3, 0xec, 0xa4, 0xc8, 0xbc, 0x38, 0xcc, 0x25, 0xef, 0x19, 0x58, 
  0x12, 0x18, 0xc9, 0x11, 0xe3, 0x1e, 0x2b, 0x36, 0x70, 0xc3, 0x31, 0x2b, 0x4c, 0x76, 0x10, 0x4d, 
  0xcd, 0x35, 0xaa, 0x5e, 0xca, 0x01, 0x1b, 0xe8, 0xe9, 0xf6, 0x0d, 0xfb, 0xbe, 0x57, 0x38, 0xba, 
  0x4c, 0x54, 0xcd, 0x62, 0xf1, 0x2d, 0xdc, 0xcb, 0xca, 0xc6, 0xd1, 0x99, 0x2a, 0x17, 0x4e, 0x90, 
  0x4f, 0xd5, 0x44, 0x5b, 0x38, 0xf8, 0x56, 0xd9, 0xb0, 0xde, 0x45, 0xc7, 0x09, 0xd8, 0xb9, 0x26, 
  0x07, 0x18, 0x44, 0xe0, 0x02, 0x30, 0xdd, 0xd3, 0x29, 0xf7, 0x1c, 0x9d, 0x02, 0x10, 0xf0, 0x26, 
  0x2a, 0xeb, 0x32, 0x45, 0x22, 0x13, 0x2f, 0x03, 0xdd, 0x09, 0xdd, 0xcf, 0x48, 0xe8, 0x01, 0xfe, 
  0x19, 0xf3, 0xf2, 0xcd, 0xf8, 0x46, 0xb3, 0x0a, 0x33, 0x43, 0xf4, 0xed, 0xc0, 0x1a, 0xfe, 0xed, 
  0x23, 0x09, 0xd1, 0xd1, 0xc7, 0xf9, 0xb2, 0x15, 0x35, 0xad, 0xc4, 0xcd, 0x32, 0xa4, 0xbb, 0xc8, 
  0xdf, 0x3c, 0xad, 0xef, 0xaa, 0xdc, 0x88, 0x7f, 0x8d, 0x28, 0x07, 0x5e, 0x21, 0x9d, 0xbe, 0x2c, 
  0xcc, 0x48, 0x35, 0xd8, 0xcc, 0x28, 0x31, 0xf3, 0xeb, 0xcb, 0x09, 0xff, 0xd1, 0x37, 0xfc, 0x1e, 
  0x19, 0x0e, 0x45, 0x2a, 0x21, 0x0e, 0xea, 0xca, 0x17, 0x12, 0xcf, 0xe6, 0x3b, 0xe8, 0x3a, 0xb1, 
  0x0d, 0x4c, 0x22, 0x45, 0xe1, 0xcd, 0x0a, 0xb1, 0xb1, 0x46, 0x2c, 0xbe, 0xf2, 0xb3, 0x18, 0x10, 
  0xf7, 0xbb, 0x04, 0xfb, 0xde, 0xc6, 0x23, 0x4f, 0xa9, 0x00, 0xc8, 0x3e, 0xf7, 0x2f, 0x21, 0xbf, 
  0xd8, 0xd8, 0xf6, 0xec, 0x31, 0x28, 0x2a, 0x52, 0x14, 0x4d, 0xe8, 0xc5, 0xe1, 0xfa, 0x00, 0xe5, 
  0x2e, 0xec, 0xda, 0xc6, 0x05, 0xf4, 0xc7, 0x71, 0xa2, 0x20, 0x27, 0xd0, 0xee, 0xc1, 0xbd, 0xdb, 
  0xe7, 0xc4, 0x1a, 0xc7, 0xd4, 0x69, 0x81, 0x6e, 0x93, 0x00, 0x1a, 0x21, 0x0a, 0x06, 0xf8, 0x0a, 
  0x1b, 0x43, 0xb4, 0x9e, 0xf2, 0x25, 0x2a, 0x31, 0x63, 0x24, 0xba, 0x15, 0xd9, 0xf0, 0x26, 0x13, 
  0xe8, 0x18, 0xbd, 0x4a, 0x4f, 0x51, 0xe0, 0x21, 0x1a, 0xbd, 0xe4, 0xc1, 0x14, 0x16, 0xea, 0xf4, 
  0xd2, 0xcb, 0xb1, 0x21, 0x29, 0x3d, 0xf0, 0xe5, 0xdb, 0xf8, 0x9b, 0xf7, 0x39, 0xd6, 0xd1, 0x33, 
  0x63, 0xc7, 0xf1, 0xd4, 0x13, 0x0c, 0xbd, 0x63, 0xeb, 0xba, 0xd5, 0xe9, 0x25, 0x3c, 0x4d, 0xc4, 
  0x59, 0xf1, 0xb8, 0xa1, 0x39, 0x1a, 0x9d, 0xfd, 0x3a, 0x11, 0xa1, 0x7c, 0xf5, 0x41, 0xcb, 0x55, 
  0xaf, 0x13, 0xff, 0x22, 0xb3, 0x37, 0xef, 0x01, 0xe2, 0x0c, 0x20, 0xe7, 0x3a, 0x25, 0x4a, 0xf3, 
  0xd5, 0xd0, 0x9b, 0x25, 0x02, 0xf2, 0x21, 0x31, 0x81, 0xf9, 0xfe, 0x06, 0xd1, 0xc3, 0xf7, 0x3f, 
  0xd2, 0xc7, 0x3e, 0x18, 0xc6, 0xbb, 0x91, 0x4e, 0x3a, 0xe5, 0x43, 0xc8, 0x94, 0xd1, 0xb4, 0x84, 
  0xbf, 0x03, 0x50, 0x0f, 0x92, 0xb2, 0xab, 0x01, 0xce, 0xb6, 0xfe, 0x12, 0x3b, 0x42, 0xa4, 0x97, 
  0x25, 0xe5, 0x59, 0x8b, 0x4c, 0xf6, 0x20, 0x68, 0xa0, 0xde, 0xab, 0xd8, 0xf9, 0xe9, 0x3b, 0xb8, 
  0xd9, 0x25, 0x42, 0xe7, 0xde, 0x9e, 0x20, 0xe4, 0x9b, 0xcd, 0xfe, 0x8e, 0x44, 0x33, 0xc8, 0x8e, 
  0x16, 0x49, 0x21, 0xc9, 0x16, 0x3d, 0xd9, 0xb3, 0xea, 0x42, 0x05, 0x51, 0xf0, 0xf5, 0x23, 0xa5, 
  0xfa, 0x1c, 0x5b, 0x29, 0xef, 0xbb, 0xcf, 0x69, 0x22, 0xde, 0xfa, 0xde, 0xe4, 0x19, 0x2c, 0x27, 
  0x81, 0x4e, 0x0b, 0x0c, 0x02, 0xae, 0xc3, 0x54, 0x9e, 0xed, 0x11, 0x25, 0x42, 0x32, 0xc6, 0x43, 
  0xae, 0x38, 0xb2, 0xd8, 0x35, 0x68, 0x16, 0x2a, 0xfa, 0xd7, 0xe5, 0x75, 0x67, 0xe1, 0xe2, 0x0a, 
  0x1c, 0xe7, 0xf8, 0xee, 0x08, 0x7f, 0xdb, 0x69, 0xe2, 0x11, 0x39, 0x48, 0x7e, 0x1e, 0x67, 0x24, 
  0xe6, 0xbb, 0x05, 0xe1, 0xf3, 0x6f, 0x28, 0x77, 0xf0, 0xa4, 0xe0, 0xda, 0x3f, 0xf0, 0xc7, 0xff, 
  0xe2, 0xc4, 0xdb, 0x4e, 0x00, 0x33, 0x5d, 0x2e, 0x30, 0x23, 0x68, 0xf1, 0x61, 0xb7, 0x1f, 0x47, 
  0xba, 0x74, 0xe9, 0xb0, 0xba, 0xfb, 0x73, 0xe2, 0x2a, 0x07, 0xc3, 0x15, 0xe4, 0x62, 0x0b, 0xf4, 
  0x2e, 0xee, 0xb7, 0xa3, 0xcf, 0x34, 0xc0, 0x20, 0x14, 0x0a, 0xf0, 0x29, 0x04, 0x24, 0x3e, 0xb4, 
  0xdf, 0x2c, 0xd8, 0x51, 0xf5, 0xec, 0xa9, 0xcc, 0x4c, 0xbe, 0xfe, 0x7d, 0x31, 0xd3, 0x63, 0x72, 
  0x45, 0xb0, 0xc1, 0xab, 0xdc, 0x66, 0xe3, 0x28, 0xce, 0x15, 0xff, 0xfb, 0xe5, 0xd4, 0xd1, 0xcb, 
  0xe3, 0xfb, 0xe1, 0x1b, 0x28, 0xb8, 0x53, 0x41, 0x0f, 0xfd, 0xfe, 0x38, 0xdf, 0x5d, 0x59, 0x2f, 
  0x07, 0x09, 0xf9, 0x9d, 0x09, 0x5d, 0xcd, 0xbe, 0x06, 0x0e, 0xbb, 0xe1, 0xd9, 0x59, 0x30, 0x58, 
  0xdf, 0x41, 0x3f, 0xaf, 0xc4, 0x21, 0xc3, 0x27, 0xfa, 0x2b, 0xb5, 0xda, 0x2e, 0xe3, 0x61, 0x19, 
  0x1b, 0x2e, 0xd0, 0x2f, 0x3c, 0xe0, 0xc6, 0xdd, 0xfa, 0x9b, 0xd4, 0x47, 0xe2, 0xf7, 0x37, 0xc5, 
  0xbb, 0x14, 0xab, 0x02, 0xc8, 0xc4, 0x42, 0xe5, 0xc3, 0xb1, 0x00, 0x4b, 0xbd, 0xb9, 0xf5, 0xd3, 
  0xed, 0xbf, 0x00, 0x97, 0xe3, 0xd6, 0xc1, 0xcd, 0xc1, 0x84, 0xc0, 0x44, 0x39, 0xe8, 0x1a, 0x1d, 
  0x15, 0xa6, 0xc8, 0x81, 0xda, 0xd6, 0xae, 0xd3, 0x11, 0x40, 0x57, 0x8f, 0x52, 0xc8, 0xfd, 0x99, 
  0xfd, 0x3a, 0x51, 0xae, 0xd3, 0x46, 0xed, 0x51, 0xb7, 0x05, 0xa7, 0xae, 0x03, 0xe7, 0xc5, 0xee, 
  0xcc, 0x19, 0x5d, 0x0c, 0x4a, 0xe3, 0x3c, 0x58, 0x04, 0x1f, 0x00, 0x33, 0xaa, 0xe0, 0x8f, 0x3b, 
  0xca, 0x70, 0x01, 0xc5, 0xa3, 0xdd, 0xa4, 0xd8, 0x46, 0xd5, 0x49, 0xc0, 0x0a, 0xc5, 0xf5, 0xab, 
  0x3d, 0x30, 0x7f, 0x34, 0xae, 0x54, 0xb6, 0x07, 0x30, 0xb9, 0x17, 0xc5, 0x04, 0x35, 0x18, 0xf5, 
  0xfa, 0xf2, 0xfc, 0x3b, 0xf4, 0xf4, 0xcf, 0x2b, 0x3d, 0x3b, 0x17, 0x4e, 0x4a, 0x4b, 0x0e, 0xb9, 
  0xfd, 0x4e, 0x04, 0x33, 0xfb, 0x05, 0xc7, 0x74, 0x2e, 0xe7, 0x32, 0x8a, 0xf9, 0x1d, 0x2a, 0x48, 
  0x38, 0xcf, 0x3b, 0x07, 0x49, 0xe2, 0xb0, 0xf8, 0x11, 0x64, 0xf2, 0x1f, 0xc4, 0xf4, 0x97, 0x87, 
  0x3c, 0x39, 0x1d, 0x50, 0x3e, 0xf0, 0x08, 0xfc, 0x92, 0xdb, 0x14, 0x9e, 0xd9, 0xbd, 0x0d, 0xf8, 
  0x3d, 0xd9, 0x54, 0xf2, 0x11, 0x4f, 0x1e, 0x39, 0xa2, 0xdf, 0x1e, 0xa8, 0x3a, 0xcb, 0x41, 0xe6, 
  0x03, 0x54, 0x69, 0xbd, 0xa5, 0xa4, 0xd6, 0x47, 0xef, 0x3a, 0x43, 0x06, 0x33, 0xfa, 0xb2, 0xad, 
  0xc2, 0x6b, 0xfb, 0x4a, 0xa6, 0x61, 0xd3, 0x7f, 0xd1, 0xb8, 0xe1, 0x3f, 0xf5, 0x0d, 0xcc, 0x0d, 
  0x05, 0x19, 0x43, 0xfd, 0x2b, 0xad, 0x2d, 0xf4, 0x07, 0x0d, 0x37, 0x52, 0x0f, 0xab, 0xd0, 0x5b, 
  0x11, 0x5e, 0x0c, 0xae, 0x2c, 0xff, 0xcd, 0xee, 0xcb, 0xd8, 0xd4, 0x2c, 0x11, 0x2e, 0xb9, 0x6b, 
  0xbf, 0xd8, 0x36, 0xb3, 0xd2, 0xb4, 0x56, 0x37, 0xe2, 0x5c, 0x66, 0xda, 0xd9, 0x32, 0xdc, 0x0d, 
  0xbb, 0x0f, 0xf7, 0x67, 0xd8, 0xbf, 0x1e, 0x23, 0xc1, 0xed, 0x34, 0xf4, 0xf8, 0xef, 0x36, 0xf8, 
  0x59, 0xb2, 0x4f, 0xe8, 0xcb, 0x9d, 0xe1, 0xbc, 0xd8, 0xb7, 0xf0, 0xa1, 0xea, 0xb3, 0xb5, 0x3c, 
  0x71, 0x31, 0xc9, 0x02, 0x4c, 0xe8, 0xaf, 0xfd, 0x3a, 0x0c, 0x4a, 0xe9, 0x38, 0xb2, 0xd3, 0xe0, 
  0xf2, 0xe5, 0x19, 0x7d, 0x4e, 0xfa, 0xdc, 0xa8, 0x5d, 0x1b, 0xe5, 0x2b, 0x0c, 0x3c, 0x4c, 0xbb, 
  0x6b, 0xe7, 0xd1, 0x56, 0x9d, 0x9d, 0xc8, 0x22, 0x0f, 0xcf, 0x12, 0xac, 0x3b, 0xf3, 0x2c, 0xcc, 
  0x05, 0xba, 0xf3, 0x76, 0x16, 0x81, 0xc2, 0x15, 0xdd, 0x5e, 0xe5, 0x36, 0x98, 0x3e, 0xe0, 0xb6, 
  0xe2, 0x2f, 0x74, 0x75, 0xd3, 0x1c, 0x6d, 0xf1, 0x0c, 0xe2, 0x36, 0xf3, 0x49, 0x49, 0x6e, 0x26, 
  0x43, 0x47, 0x2c, 0xd9, 0x06, 0xaa, 0x66, 0x25, 0xc7, 0xb9, 0x35, 0x0a, 0xac, 0xe6, 0x22, 0x0b, 
  0x56, 0x9f, 0xf2, 0x35, 0x70, 0x33, 0x43, 0xda, 0xf8, 0xf2, 0x2c, 0xd5, 0xfb, 0x58, 0xbe, 0x47, 
  0x64, 0xe3, 0xd4, 0xf8, 0x24, 0x52, 0x14, 0xc5, 0x16, 0x3a, 0x06, 0xb8, 0x49, 0xfb, 0xef, 0x0d, 
  0x02, 0x25, 0xe9, 0xd5, 0x54, 0x12, 0xb6, 0xfb, 0x45, 0xc1, 0xea, 0x2d, 0xc5, 0xb9, 0xe4, 0xe8, 
  0xca, 0xcb, 0xff, 0x29, 0xd0, 0x05, 0x9d, 0x3c, 0x9b, 0x37, 0x8c, 0x50, 0x5a, 0x05, 0x26, 0xe3, 
  0x52, 0x9b, 0xf5, 0xea, 0xdd, 0x7f, 0x15, 0x4b, 0xe8, 0xb9, 0x30, 0xf9, 0xe7, 0x20, 0xeb, 0xf1, 
  0xa7, 0xd5, 0xa5, 0x01, 0x0c, 0x39, 0xf8, 0xf6, 0x15, 0x19, 0xcd, 0x81, 0xf4, 0xfa, 0x33, 0xe5, 
  0x0f, 0x57, 0x36, 0x5c, 0x3a, 0xe4, 0x25, 0xd6, 0xd7, 0xe6, 0x54, 0x1a, 0x1c, 0x14, 0x48, 0x9c, 
  0x24, 0x2e, 0x2f, 0xc0, 0x30, 0x17, 0x1b, 0xbb, 0xe6, 0x1d, 0x2a, 0xdc, 0xe4, 0x03, 0xbb, 0x9f, 
  0xf4, 0x4a, 0x14, 0x1d, 0x10, 0xd8, 0xb9, 0x34, 0xae, 0x16, 0xcb, 0xf2, 0x3b, 0x13, 0x0c, 0xf3, 
  0x14, 0x9f, 0xbe, 0xa9, 0xed, 0xb7, 0xd8, 0x3d, 0xf9, 0xc7, 0xff, 0xb2, 0x1c, 0x4f, 0x57, 0xdc, 
  0x1e, 0xef, 0xa4, 0xe2, 0x13, 0xcf, 0xbf, 0x3d, 0xae, 0x1c, 0xc5, 0x29, 0xe7, 0xa7, 0xc2, 0x09, 
  0xcb, 0xb6, 0xdb, 0x8c, 0xc3, 0xd7, 0xd7, 0x67, 0x9f, 0xe1, 0x85, 0x6c, 0xd1, 0xf8, 0xff, 0x02, 
  0xac, 0xe5, 0xc6, 0xf7, 0x0f, 0x3a, 0xb9, 0x47, 0x1e, 0xb5, 0xec, 0xe9, 0xb8, 0x22, 0x00, 0xb5, 
  0x3d, 0x25, 0x39, 0xc5, 0x1e, 0xfd, 0x9e, 0xb2, 0x15, 0xe3, 0x29, 0x2e, 0xe9, 0xde, 0x32, 0xd7, 
  0x03, 0x0c, 0x3e, 0x39, 0x2d, 0xbc, 0xfe, 0xd2, 0xe6, 0x2c, 0xb9, 0xf3, 0x19, 0xd1, 0xcd, 0xf4, 
  0x27, 0xbe, 0x18, 0xad, 0x0f, 0xed, 0xcf, 0xf3, 0x4c, 0x35, 0xd8, 0xce, 0x4d, 0xf4, 0xda, 0x8c, 
  0xcc, 0x9b, 0x2a, 0xbc, 0x0c, 0x1a, 0x34, 0x91, 0x45, 0x0b, 0xc8, 0xa5, 0xe3, 0xcc, 0xb5, 0x87, 
  0x02, 0xb9, 0xc9, 0x2e, 0xe0, 0xc8, 0x76, 0xec, 0xfc, 0x54, 0x13, 0xaa, 0x15, 0x2d, 0x2a, 0xb7, 
  0x71, 0x24, 0x43, 0x4d, 0x48, 0x0c, 0x37, 0xe9, 0xdf, 0xcc, 0x51, 0xcf, 0xc1, 0x01, 0x31, 0xcf, 
  0x72, 0xb1, 0x1d, 0x7f, 0x3d, 0xb6, 0x1e, 0xd7, 0x2e, 0xd5, 0xc2, 0x66, 0x4b, 0x45, 0x3c, 0x0e, 
  0x02, 0x0c, 0x40, 0x30, 0xba, 0xb7, 0x07, 0xc0, 0xa3, 0xd7, 0xd5, 0xd8, 0xca, 0xf7, 0xc1, 0xdd, 
  0x10, 0x3d, 0x3f, 0x21, 0xaa, 0xbd, 0x9f, 0xe5, 0x28, 0xc2, 0x1c, 0xfc, 0xfa, 0xfb, 0xc1, 0x07, 
  0xf3, 0x3c, 0x1b, 0xf6, 0xcb, 0x48, 0x1c, 0xab, 0x13, 0x1e, 0x43, 0xc9, 0xc8, 0xc1, 0xb1, 0xbb, 
  0x26, 0x06, 0xad, 0x52, 0x0f, 0xee, 0xcd, 0xf9, 0x6a, 0x16, 0x57, 0xdf, 0xe9, 0x1b, 0xbc, 0x35, 
  0xd5, 0x3c, 0xf9, 0xf3, 0xf5, 0x0b, 0x56, 0xd6, 0xdf, 0x24, 0x40, 0x0a, 0x2a, 0x11, 0x35, 0x0a, 
  0x25, 0x0a, 0xb7, 0x4a, 0x32, 0xaa, 0x5b, 0x98, 0x7f, 0xd8, 0x5a, 0x0a, 0x16, 0xff, 0x48, 0x3d, 
  0x02, 0x23, 0xc1, 0x59, 0x4c, 0x35, 0x26, 0xe3, 0xcc, 0xdc, 0x05, 0x37, 0xf9, 0xfe, 0x3b, 0xdf, 
  0xfc, 0x0a, 0xf6, 0x14, 0x2c, 0x23, 0x24, 0xeb, 0x70, 0xfd, 0x06, 0xcf, 0xbe, 0xe3, 0x4c, 0x0c, 
  0xf9, 0x22, 0x43, 0x25, 0x10, 0x14, 0xd0, 0x37, 0x55, 0xbd, 0xd0, 0x57, 0x6e, 0x6d, 0x48, 0x1b, 
  0xed, 0xc2, 0xde, 0xec, 0x24, 0x56, 0xe7, 0x1a, 0x5c, 0x16, 0x3f, 0x04, 0x6c, 0xda, 0x13, 0x63, 
  0xc7, 0xd2, 0x1e, 0xae, 0x13, 0x40, 0x1e, 0xdb, 0xfd, 0x30, 0xca, 0x41, 0x69, 0xaf, 0xd8, 0x30, 
  0xba, 0xd8, 0xf7, 0xcd, 0xaf, 0xf0, 0x9a, 0x7f, 0xb4, 0xd6, 0x06, 0xfc, 0x56, 0xc9, 0x5f, 0xdc, 
  0xb7, 0x1f, 0xc2, 0x22, 0x23, 0x54, 0x0e, 0xc5, 0x1f, 0x37, 0xc2, 0x31, 0x3c, 0x8b, 0xdc, 0x71, 
  0x2e, 0x64, 0xfb, 0x38, 0x0f, 0x69, 0x05, 0xec, 0xd7, 0x30, 0xf1, 0x39, 0xe4, 0xdf, 0xb9, 0x38, 
  0xf2, 0x4e, 0xc1, 0xd5, 0x3a, 0xf2, 0xec, 0x60, 0xfa, 0xd1, 0xfc, 0x2c, 0x17, 0xc8, 0x1a, 0x7f, 
  0x2f, 0x2b, 0x3a, 0xd0, 0x37, 0x28, 0xd5, 0x3c, 0x34, 0xbe, 0xc2, 0x5e, 0xdb, 0xce, 0x07, 0x58, 
  0xea, 0x24, 0xe3, 0xd6, 0x22, 0x3d, 0xb8, 0x03, 0x0f, 0x26, 0xee, 0x01, 0x26, 0x33, 0xcd, 0x44, 
  0x48, 0xd3, 0xbb, 0xe9, 0x2e, 0x17, 0x17, 0x36, 0xbe, 0xe9, 0x1b, 0xfe, 0x06, 0x0c, 0x1c, 0x2e, 
  0x3f, 0x41, 0x06, 0xf6, 0xd5, 0x27, 0x05, 0xf2, 0xfb, 0x1d, 0x35, 0x5f, 0x18, 0xe3, 0xa4, 0x2d, 
  0x34, 0xbc, 0xc7, 0xf5, 0x03, 0x3e, 0xe1, 0xcc, 0x9e, 0xd9, 0xdc, 0x02, 0xba, 0x04, 0xd0, 0xcd, 
  0xe4, 0x00, 0x21, 0x91, 0xc8, 0xe2, 0xca, 0xe5, 0xbf, 0x03, 0x20, 0x68, 0x09, 0xb0, 0x4f, 0xce, 
  0x4e, 0xcd, 0xe7, 0xda, 0xb3, 0xef, 0x01, 0x1a, 0x60, 0xa2, 0xa6, 0x4e, 0x33, 0x47, 0xc3, 0x5b, 
  0xe1, 0xf5, 0x24, 0xec, 0xcb, 0x23, 0xc4, 0xfc, 0x0c, 0x05, 0x12, 0x14, 0x52, 0xe4, 0xfb, 0x48, 
  0x21, 0xf6, 0xd7, 0x11, 0xe1, 0x50, 0xaa, 0xe9, 0xd1, 0xb0, 0xed, 0xf3, 0x06, 0xea, 0xd5, 0x48, 
  0x31, 0x3f, 0x11, 0xfb, 0x02, 0xe4, 0x4f, 0xe3, 0xa4, 0xa3, 0x27, 0x10, 0x09, 0x37, 0xb7, 0xf0, 
  0x28, 0xe1, 0x22, 0xdf, 0x0a, 0x0a, 0x33, 0xd3, 0xc7, 0xc5, 0x4d, 0xd5, 0x52, 0x14, 0x4b, 0xe2, 
  0xf9, 0xd2, 0x9e, 0xcf, 0x40, 0xc9, 0xb9, 0xbe, 0x9c, 0x81, 0xe8, 0x23, 0x0c, 0xb7, 0xef, 0xfa, 
  0x48, 0x13, 0xc9, 0x15, 0xd3, 0x19, 0x4c, 0x11, 0xc1, 0x91, 0x29, 0x2f, 0xf8, 0x49, 0x04, 0x2c, 
  0xda, 0xce, 0xe3, 0x2d, 0x5a, 0x6a, 0x10, 0x38, 0xc6, 0xf5, 0xb7, 0xe8, 0xf0, 0x34, 0xde, 0xde, 
  0xda, 0x94, 0xee, 0xa2, 0x51, 0x2f, 0xee, 0xe9, 0xec, 0x4d, 0xcd, 0x37, 0x21, 0xd9, 0x52, 0x1f, 
  0x26, 0xb0, 0x54, 0xaf, 0x1c, 0x13, 0x37, 0x5e, 0x3d, 0x30, 0x1b, 0xfa, 0xca, 0xef, 0xc8, 0x2d, 
  0xba, 0xcd, 0x03, 0xc7, 0xbb, 0xf0, 0x08, 0x4a, 0x9d, 0xea, 0xc3, 0xf8, 0xf0, 0xdc, 0x02, 0x04, 
  0x9b, 0xbc, 0x04, 0xaa, 0x1c, 0x03, 0x44, 0xdc, 0xfc, 0x1d, 0xfc, 0x54, 0x4f, 0xb0, 0x3d, 0x7f, 
  0xf5, 0xe2, 0x2e, 0x29, 0xb7, 0x2c, 0xd4, 0x35, 0xfc, 0x38, 0xf2, 0x0e, 0x55, 0x91, 0x0f, 0x00, 
  0xbe, 0x23, 0xba, 0x25, 0x31, 0xcc, 0xca, 0xa8, 0x44, 0xae, 0xe4, 0xc1, 0x1e, 0x2f, 0xfa, 0x09, 
  0x3f, 0x56, 0xf9, 0xbd, 0x68, 0xbe, 0xd1, 0xf2, 0xfd, 0x53, 0xdb, 0x23, 0x48, 0x23, 0x70, 0x6b, 
  0x18, 0xa6, 0x11, 0xef, 0x0a, 0xc2, 0x09, 0xe0, 0x13, 0xa3, 0x0c, 0xcf, 0xf5, 0xf9, 0xc4, 0x47, 
  0x6e, 0xe3, 0x46, 0xb1, 0x5f, 0x47, 0xf9, 0x63, 0x13, 0x9d, 0xed, 0x3b, 0x33, 0xe7, 0x49, 0x4f, 
  0x15, 0xab, 0x32, 0x24, 0xc5, 0xeb, 0x36, 0xb4, 0x9d, 0xfe, 0x01, 0xfc, 0xc3, 0xee, 0xb1, 0xc8, 
  0xe8, 0xca, 0x22, 0x18, 0x41, 0xdc, 0x36, 0x31, 0x34, 0xc4, 0x09, 0xd7, 0x33, 0xeb, 0x66, 0x2a, 
  0x45, 0xc6, 0x81, 0xf5, 0x4f, 0x5f, 0xce, 0x45, 0x8e, 0xbd, 0x06, 0x22, 0xb9, 0xd2, 0xdf, 0xb0, 
  0xb4, 0xb5, 0xa0, 0x12, 0x15, 0x4f, 0x0d, 0xce, 0xf3, 0xb3, 0x03, 0xd2, 0xcf, 0x40, 0xf3, 0x5d, 
  0x69, 0xf3, 0xad, 0x57, 0x49, 0xda, 0x16, 0x34, 0x19, 0xb4, 0xd6, 0x07, 0x0a, 0x53, 0x48, 0x40, 
  0x10, 0x9e, 0x0f, 0x54, 0xc1, 0xff, 0xde, 0x23, 0x51, 0xbb, 0x30, 0x14, 0x2a, 0xef, 0x0a, 0x2f, 
  0x40, 0xb9, 0xea, 0xed, 0x0f, 0xe8, 0x42, 0xa8, 0x4f, 0x48, 0x1b, 0x29, 0x36, 0x49, 0xca, 0x4d, 
  0x3b, 0x1d, 0xdf, 0x35, 0x05, 0x58, 0x08, 0x13, 0xd7, 0x37, 0xc9, 0xc1, 0x39, 0xcf, 0x39, 0x25, 
  0xf5, 0xc4, 0xe9, 0xfa, 0x1d, 0x12, 0xda, 0xde, 0x2c, 0x21, 0xe5, 0xf7, 0x21, 0x5f, 0xe0, 0x30, 
  0x46, 0x22, 0x39, 0x10, 0xd9, 0xfa, 0xe9, 0xf8, 0xf8, 0x52, 0x1c, 0x01, 0xed, 0x7f, 0xe1, 0x44, 
  0xfc, 0x18, 0x21, 0x2f, 0xd5, 0x44, 0x68, 0xb6, 0x1a, 0xb1, 0x3d, 0x29, 0xb2, 0xbe, 0xe3, 0xb8, 
  0x6c, 0x58, 0xfd, 0xea, 0xde, 0xc2, 0x40, 0xe6, 0x58, 0xc6, 0xb3, 0xf8, 0x3c, 0x09, 0xe1, 0x01, 
  0x05, 0x19, 0xb7, 0x1d, 0x3b, 0x4d, 0x07, 0xd0, 0xab, 0x18, 0x37, 0xef, 0x16, 0xff, 0x46, 0x47, 
  0xc3, 0xa6, 0xf1, 0x35, 0x38, 0xf5, 0xe8, 0xc5, 0xed, 0x33, 0x0d, 0xfb, 0x51, 0xd5, 0xd3, 0xb7, 
  0x1f, 0x16, 0x45, 0x45, 0xb2, 0x29, 0xfd, 0xe1, 0xda, 0x02, 0xd1, 0xa9, 0x04, 0x9e, 0x02, 0x4a, 
  0xe6, 0x46, 0x1e, 0x0f, 0x0b, 0x07, 0xae, 0x79, 0xd9, 0xcf, 0x82, 0xc5, 0x4a, 0xf3, 0x54, 0xc8, 
  0xdc, 0xb1, 0x48, 0x96, 0xdb, 0x75, 0x22, 0x46, 0xd4, 0x58, 0x20, 0xf5, 0xce, 0x1a, 0xb9, 0xc9, 
  0xbb, 0x50, 0xe2, 0x81, 0x10, 0xb3, 0xfc, 0xa2, 0xe8, 0xec, 0xfc, 0xf9, 0xcf, 0xea, 0xd8, 0x1e, 
  0xf8, 0x3d, 0x15, 0xc2, 0x13, 0xf0, 0x23, 0x08, 0xd6, 0x07, 0x5b, 0x0a, 0xf5, 0x51, 0x17, 0xe1, 
  0x59, 0x24, 0xbd, 0x36, 0x03, 0xec, 0x22, 0x00, 0xba, 0xb6, 0x43, 0xe3, 0xfa, 0xee, 0x3d, 0xb1, 
  0xc6, 0x09, 0xbe, 0x2a, 0xcc, 0xd2, 0x0b, 0xe2, 0xff, 0xb2, 0xb2, 0x27, 0x15, 0xde, 0xe3, 0x0f, 
  0x02, 0x29, 0xba, 0xf8, 0xe7, 0xe1, 0x23, 0xf0, 0x0b, 0xec, 0x03, 0x04, 0xc9, 0x9d, 0x02, 0x20, 
  0x0c, 0xb2, 0xe8, 0x29, 0xc7, 0xf6, 0x9f, 0x51, 0x1f, 0xd5, 0x92, 0x57, 0xc5, 0xc8, 0x25, 0xd4, 
  0xcf, 0xcd, 0xf6, 0xcc, 0x03, 0x3e, 0xe9, 0x1a, 0xd6, 0xbe, 0x03, 0xdb, 0x08, 0xf9, 0xea, 0x17, 
  0x97, 0x27, 0xf6, 0x81, 0xd8, 0xd8, 0xa5, 0x64, 0xcd, 0xb7, 0xbe, 0x30, 0x24, 0xd1, 0x04, 0x3f, 
  0x8b, 0xf6, 0xd2, 0x41, 0x1a, 0xec, 0xa2, 0xea, 0xa7, 0xc4, 0xf6, 0xf1, 0x0f, 0xcb, 0xeb, 0xe4, 
  0xe1, 0xd9, 0x33, 0x05, 0x15, 0x43, 0xcd, 0x47, 0x28, 0x52, 0x2a, 0x02, 0xb1, 0x06, 0x31, 0xdb, 
  0xbc, 0xf1, 0x4d, 0xe5, 0x05, 0xbd, 0x0f, 0xbb, 0x30, 0x41, 0x28, 0xbf, 0x00, 0x1e, 0xa1, 0xcd, 
  0x3d, 0x45, 0xd9, 0xca, 0xc3, 0xb8, 0x50, 0xa1, 0xdc, 0xdb, 0x0a, 0xef, 0x30, 0xca, 0xaa, 0x20, 
  0x53, 0xeb, 0x0e, 0x19, 0x08, 0x31, 0xe5, 0xbb, 0x21, 0x2f, 0x09, 0x98, 0xfe, 0x0c, 0x21, 0xd9, 
  0x26, 0xd6, 0xbf, 0xff, 0x53, 0x02, 0xda, 0xad, 0x7f, 0xdc, 0x57, 0x15, 0x38, 0x64, 0x1c, 0x16, 
  0x53, 0x02, 0xc7, 0x6e, 0x1b, 0x69, 0xbe, 0x2f, 0xb3, 0xd0, 0x0b, 0x08, 0xd5, 0xe7, 0xdf, 0x6f, 
  0x48, 0x32, 0x22, 0x22, 0xd1, 0x10, 0xb1, 0x07, 0xe0, 0x34, 0x17, 0x0a, 0xc7, 0xc3, 0x19, 0x7f, 
  0x27, 0xe8, 0xb2, 0x39, 0x05, 0x63, 0x27, 0xdd, 0x23, 0xdd, 0x3b, 0xfb, 0xff, 0x22, 0x14, 0x38, 
  0x33, 0xd7, 0x27, 0x24, 0xc3, 0x15, 0x14, 0x4f, 0xe9, 0x31, 0xad, 0x0e, 0xdb, 0xf3, 0x00, 0x60, 
  0x3d, 0x30, 0xa5, 0xd5, 0xec, 0xde, 0x35, 0x5a, 0x3c, 0x40, 0xb4, 0x3e, 0xbc, 0x2f, 0x32, 0x69, 
  0xe7, 0xbd, 0xb5, 0xee, 0x0e, 0xd0, 0x4f, 0x40, 0xd6, 0xed, 0x3c, 0xe8, 0xc7, 0xce, 0x0c, 0x7e, 
  0x22, 0xc9, 0x31, 0x30, 0x63, 0xe2, 0x60, 0xed, 0xf9, 0x20, 0xbc, 0x5d, 0x4c, 0xd3, 0x4c, 0xcf, 
  0x45, 0xba, 0xcf, 0xe6, 0xc1, 0xdb, 0x33, 0xc6, 0xe7, 0xb9, 0xe3, 0xb0, 0xd2, 0x0d, 0xda, 0xce, 
  0xda, 0xd6, 0xc7, 0x03, 0xec, 0xcb, 0x1a, 0xf0, 0x29, 0x1c, 0xda, 0xc7, 0xfa, 0x1a, 0x03, 0x20, 
  0xb2, 0xd4, 0x1d, 0x34, 0xcb, 0x25, 0xed, 0x0e, 0x1f, 0xfd, 0x22, 0xe8, 0xcc, 0xe4, 0xd9, 0xa8, 
  0xc8, 0xbc, 0xde, 0xfe, 0xf0, 0xb6, 0xdb, 0xa9, 0x38, 0x30, 0x28, 0x11, 0xfb, 0xd4, 0xc1, 0xbc, 
  0x4f, 0x16, 0xc9, 0x00, 0x46, 0x94, 0x08, 0xcf, 0x01, 0x01, 0x50, 0x00, 0xf2, 0xe9, 0xe8, 0xca, 
  0x20, 0xd3, 0x25, 0x11, 0x20, 0x12, 0xe1, 0x1d, 0x31, 0x0e, 0xec, 0xf6, 0x36, 0x48, 0xb6, 0xa2, 
  0x1b, 0xb9, 0xbd, 0x33, 0x47, 0xee, 0x4f, 0xf5, 0xe4, 0xe6, 0x4a, 0x1c, 0xc4, 0x55, 0xd8, 0xe5, 
  0x23, 0xe0, 0x07, 0x7f, 0xf3, 0xc7, 0x24, 0xd7, 0xff, 0xd3, 0x15, 0xb9, 0xd6, 0x2b, 0xe4, 0xd9, 
  0xf9, 0x19, 0x23, 0x2f, 0xd0, 0x0d, 0x57, 0xf6, 0x3e, 0x2e, 0xd7, 0x2f, 0x34, 0xe2, 0x3e, 0x4d, 
  0x3e, 0xaf, 0xff, 0xe4, 0x3c, 0x2d, 0x43, 0xed, 0xe3, 0xf7, 0x08, 0x41, 0x43, 0xfa, 0x0c, 0x50, 
  0xe7, 0xa8, 0xce, 0x0e, 0x02, 0xcd, 0x1d, 0xf0, 0x18, 0x07, 0x4c, 0xe3, 0x06, 0xf0, 0xdb, 0x3f, 
  0x00, 0xd8, 0xd7, 0xe8, 0x1c, 0x14, 0xc6, 0xc3, 0x29, 0x07, 0x1f, 0xd7, 0x36, 0xdc, 0xcb, 0xef, 
  0x0f, 0xea, 0xca, 0x04, 0x59, 0xd3, 0x03, 0xe5, 0x52, 0x08, 0x20, 0x33, 0xf7, 0x22, 0xde, 0x18, 
  0xe4, 0x32, 0xc4, 0x40, 0x16, 0xc8, 0xf6, 0x81, 0xf4, 0x3a, 0x4d, 0x25, 0x20, 0xe2, 0x40, 0x5c, 
  0x4a, 0xbc, 0x2d, 0x4b, 0x24, 0x1d, 0xce, 0xce, 0xa4, 0x5f, 0xb7, 0x40, 0xab, 0xb5, 0x46, 0x9b, 
  0x14, 0x5d, 0xbe, 0xae, 0xaa, 0xa0, 0x1e, 0x4d, 0x07, 0xd9, 0x0f, 0xfa, 0x07, 0x31, 0xeb, 0xb2, 
  0x21, 0xbd, 0x2a, 0xda, 0xad, 0xd3, 0x07, 0xcf, 0xf6, 0x32, 0x96, 0x1c, 0xe7, 0x3a, 0xcc, 0xaa, 
  0xa6, 0x4f, 0x30, 0xdc, 0x1f, 0x39, 0x27, 0xe1, 0xeb, 0xcd, 0xe5, 0x44, 0x11, 0xf2, 0x13, 0xd0, 
  0xba, 0x3a, 0xbe, 0x36, 0x3a, 0x28, 0xec, 0xc5, 0xd4, 0xfb, 0xd7, 0xde, 0x01, 0xbf, 0x36, 0xe7, 
  0xf9, 0x1d, 0xc3, 0x67, 0x49, 0xb4, 0x4d, 0xbf, 0x4b, 0x4d, 0x5b, 0x19, 0xe4, 0x28, 0xbb, 0xcb, 
  0x54, 0xea, 0xd1, 0x36, 0xfa, 0x98, 0xe9, 0x06, 0x40, 0x1c, 0x2e, 0x90, 0xd7, 0x0e, 0x2f, 0xd9, 
  0x55, 0x06, 0xcc, 0x7f, 0x6a, 0xf0, 0xff, 0xff, 0x00, 0x00, 0x00, 0x09, 0x10, 0x00, 0x00, 0x00, 
  0x12, 0x00, 0x00, 0x00, 0x1c, 0x00, 0x00, 0x00, 0x3c, 0x00, 0x00, 0x00, 0x04, 0x00, 0x00, 0x00, 
  0x20, 0x00, 0x00, 0x00, 0x01, 0x00, 0x00, 0x00, 0x07, 0x00, 0x00, 0x00, 0x10, 0x00, 0x00, 0x00, 
  0x1d, 0x00, 0x00, 0x00, 0x73, 0x65, 0x71, 0x75, 0x65, 0x6e, 0x74, 0x69, 0x61, 0x6c, 0x5f, 0x36, 
  0x2f, 0x63, 0x6f, 0x6e, 0x76, 0x31, 0x64, 0x5f, 0x31, 0x34, 0x2f, 0x63, 0x6f, 0x6e, 0x76, 0x31, 
  0x64, 0x00, 0x00, 0x00, 0x3c, 0xf4, 0xff, 0xff, 0x08, 0x00, 0x00, 0x00, 0x88, 0x00, 0x00, 0x00, 
  0x20, 0x00, 0x00, 0x00, 0xe7, 0x2b, 0xd7, 0x3a, 0xfe, 0x87, 0xd1, 0x3a, 0x92, 0x15, 0xba, 0x3a, 
  0x89, 0xba, 0xa5, 0x3a, 0xf8, 0x88, 0xc2, 0x3a, 0xb8, 0xf2, 0xb2, 0x3a, 0x1f, 0xba, 0xc4, 0x3a, 
  0x13, 0x4e, 0xdb, 0x3a, 0x6d, 0x38, 0xcb, 0x3a, 0xa7, 0x20, 0xaf, 0x3a, 0xe0, 0xf2, 0xa6, 0x3a, 
  0xb8, 0x62, 0xbf, 0x3a, 0x9d, 0x43, 0xb8, 0x3a, 0x18, 0x6b, 0xbf, 0x3a, 0x6b, 0x6d, 0xaa, 0x3a, 
  0x48, 0x7a, 0xb6, 0x3a, 0xf5, 0xae, 0xc1, 0x3a, 0x04, 0x6e, 0xb2, 0x3a, 0xee, 0x1a, 0xc7, 0x3a, 
  0x8c, 0x0c, 0xb1, 0x3a, 0x5e, 0xd4, 0xdd, 0x3a, 0x57, 0x7d, 0xc0, 0x3a, 0xda, 0x0b, 0xb4, 0x3a, 
  0xcc, 0x42, 0xb2, 0x3a, 0xc1, 0xf6, 0xca, 0x3a, 0x2e, 0x60, 0xbd, 0x3a, 0xad, 0x1a, 0xdc, 0x3a, 
  0x34, 0x03, 0xc9, 0x3a, 0x8f, 0xea, 0xc8, 0x3a, 0xba, 0x55, 0xd0, 0x3a, 0xad, 0x3b, 0xdc, 0x3a, 
  0x70, 0x51, 0xbd, 0x3a, 0x20, 0x00, 0x00, 0x00, 0x00, 0x00, 0x00, 0x00, 0x00, 0x00, 0x00, 0x00, 
  0x00, 0x00, 0x00, 0x00, 0x00, 0x00, 0x00, 0x00, 0x00, 0x00, 0x00, 0x00, 0x00, 0x00, 0x00, 0x00, 
  0x00, 0x00, 0x00, 0x00, 0x00, 0x00, 0x00, 0x00, 0x00, 0x00, 0x00, 0x00, 0x00, 0x00, 0x00, 0x00, 
  0x00, 0x00, 0x00, 0x00, 0x00, 0x00, 0x00, 0x00, 0x00, 0x00, 0x00, 0x00, 0x00, 0x00, 0x00, 0x00, 
  0x00, 0x00, 0x00, 0x00, 0x00, 0x00, 0x00, 0x00, 0x00, 0x00, 0x00, 0x00, 0x00, 0x00, 0x00, 0x00, 
  0x00, 0x00, 0x00, 0x00, 0x00, 0x00, 0x00, 0x00, 0x00, 0x00, 0x00, 0x00, 0x00, 0x00, 0x00, 0x00, 
  0x00, 0x00, 0x00, 0x00, 0x00, 0x00, 0x00, 0x00, 0x00, 0x00, 0x00, 0x00, 0x00, 0x00, 0x00, 0x00, 
  0x00, 0x00, 0x00, 0x00, 0x00, 0x00, 0x00, 0x00, 0x00, 0x00, 0x00, 0x00, 0x00, 0x00, 0x00, 0x00, 
  0x00, 0x00, 0x00, 0x00, 0x00, 0x00, 0x00, 0x00, 0x00, 0x00, 0x00, 0x00, 0x00, 0x00, 0x00, 0x00, 
  0x00, 0x00, 0x00, 0x00, 0x00, 0x00, 0x00, 0x00, 0x00, 0x00, 0x00, 0x00, 0x00, 0x00, 0x00, 0x00, 
  0x00, 0x00, 0x00, 0x00, 0x00, 0x00, 0x00, 0x00, 0x00, 0x00, 0x00, 0x00, 0x00, 0x00, 0x00, 0x00, 
  0x00, 0x00, 0x00, 0x00, 0x00, 0x00, 0x00, 0x00, 0x00, 0x00, 0x00, 0x00, 0x00, 0x00, 0x00, 0x00, 
  0x00, 0x00, 0x00, 0x00, 0x00, 0x00, 0x00, 0x00, 0x00, 0x00, 0x00, 0x00, 0x00, 0x00, 0x00, 0x00, 
  0x00, 0x00, 0x00, 0x00, 0x00, 0x00, 0x00, 0x00, 0x00, 0x00, 0x00, 0x00, 0x00, 0x00, 0x00, 0x00, 
  0x00, 0x00, 0x00, 0x00, 0x00, 0x00, 0x00, 0x00, 0x00, 0x00, 0x00, 0x00, 0x00, 0x00, 0x00, 0x00, 
  0x00, 0x00, 0x00, 0x00, 0x00, 0x00, 0x00, 0x00, 0x00, 0x00, 0x00, 0x00, 0x00, 0x00, 0x00, 0x00, 
  0x00, 0x00, 0x00, 0x00, 0x00, 0x00, 0x00, 0x00, 0x00, 0x00, 0x00, 0x00, 0x6a, 0xf2, 0xff, 0xff, 
  0x04, 0x00, 0x00, 0x00, 0x10, 0x00, 0x00, 0x00, 0xac, 0x87, 0x93, 0x83, 0x89, 0xe9, 0xad, 0xa3, 
  0xb4, 0x80, 0xb4, 0x9f, 0x9d, 0xf7, 0xc5, 0x8d, 0x6e, 0xf2, 0xff, 0xff, 0x00, 0x00, 0x00, 0x09, 
  0x10, 0x00, 0x00, 0x00, 0x11, 0x00, 0x00, 0x00, 0x10, 0x00, 0x00, 0x00, 0x44, 0x00, 0x00, 0x00, 
  0x01, 0x00, 0x00, 0x00, 0x10, 0x00, 0x00, 0x00, 0x31, 0x00, 0x00, 0x00, 0x73, 0x65, 0x71, 0x75, 
  0x65, 0x6e, 0x74, 0x69, 0x61, 0x6c, 0x5f, 0x36, 0x2f, 0x62, 0x61, 0x74, 0x63, 0x68, 0x5f, 0x6e, 
  0x6f, 0x72, 0x6d, 0x61, 0x6c, 0x69, 0x7a, 0x61, 0x74, 0x69, 0x6f, 0x6e, 0x5f, 0x31, 0x30, 0x2f, 
  0x62, 0x61, 0x74, 0x63, 0x68, 0x6e, 0x6f, 0x72, 0x6d, 0x2f, 0x73, 0x75, 0x62, 0x00, 0x00, 0x00, 
  0x48, 0xf6, 0xff, 0xff, 0x08, 0x00, 0x00, 0x00, 0x0c, 0x00, 0x00, 0x00, 0x01, 0x00, 0x00, 0x00, 
  0x4f, 0x9e, 0x46, 0x3b, 0x01, 0x00, 0x00, 0x00, 0x7f, 0x00, 0x00, 0x00, 0x00, 0x00, 0x00, 0x00, 
  0x00, 0x00, 0x00, 0x00, 0x02, 0xf3, 0xff, 0xff, 0x04, 0x00, 0x00, 0x00, 0x10, 0x00, 0x00, 0x00, 
  0x10, 0x24, 0x0e, 0x56, 0x05, 0x46, 0x13, 0x60, 0x28, 0x08, 0x49, 0x4a, 0xeb, 0x7f, 0x13, 0xf9, 
  0x06, 0xf3, 0xff, 0xff, 0x00, 0x00, 0x00, 0x09, 0x10, 0x00, 0x00, 0x00, 0x10, 0x00, 0x00, 0x00, 
  0x10, 0x00, 0x00, 0x00, 0x44, 0x00, 0x00, 0x00, 0x01, 0x00, 0x00, 0x00, 0x10, 0x00, 0x00, 0x00, 
  0x31, 0x00, 0x00, 0x00, 0x73, 0x65, 0x71, 0x75, 0x65, 0x6e, 0x74, 0x69, 0x61, 0x6c, 0x5f, 0x36, 
  0x2f, 0x62, 0x61, 0x74, 0x63, 0x68, 0x5f, 0x6e, 0x6f, 0x72, 0x6d, 0x61, 0x6c, 0x69, 0x7a, 0x61, 
  0x74, 0x69, 0x6f, 0x6e, 0x5f, 0x31, 0x30, 0x2f, 0x62, 0x61, 0x74, 0x63, 0x68, 0x6e, 0x6f, 0x72, 
  0x6d, 0x2f, 0x6d, 0x75, 0x6c, 0x00, 0x00, 0x00, 0xe0, 0xf6, 0xff, 0xff, 0x08, 0x00, 0x00, 0x00, 
  0x0c, 0x00, 0x00, 0x00, 0x01, 0x00, 0x00, 0x00, 0x11, 0xc7, 0xb3, 0x3c, 0x01, 0x00, 0x00, 0x00, 
  0x80, 0xff, 0xff, 0xff, 0xff, 0xff, 0xff, 0xff, 0x96, 0xf3, 0xff, 0xff, 0x04, 0x00, 0x00, 0x00, 
  0x40, 0x00, 0x00, 0x00, 0xcb, 0x01, 0x00, 0x00, 0x16, 0xff, 0xff, 0xff, 0x5d, 0x03, 0x00, 0x00, 
  0x1a, 0x04, 0x00, 0x00, 0xd0, 0x04, 0x00, 0x00, 0x87, 0xfa, 0xff, 0xff, 0x78, 0x03, 0x00, 0x00, 
  0x1b, 0xfe, 0xff, 0xff, 0xb9, 0x03, 0x00, 0x00, 0xc7, 0x09, 0x00, 0x00, 0x8c, 0xf8, 0xff, 0xff, 
  0xcf, 0x00, 0x00, 0x00, 0xed, 0x06, 0x00, 0x00, 0xac, 0xfb, 0xff, 0xff, 0xa7, 0xfd, 0xff, 0xff, 
  0x18, 0x05, 0x00, 0x00, 0xca, 0xf3, 0xff, 0xff, 0x00, 0x00, 0x00, 0x02, 0x10, 0x00, 0x00, 0x00, 
  0x0f, 0x00, 0x00, 0x00, 0x10, 0x00, 0x00, 0x00, 0xac, 0x00, 0x00, 0x00, 0x01, 0x00, 0x00, 0x00, 
  0x10, 0x00, 0x00, 0x00, 0x99, 0x00, 0x00, 0x00, 0x73, 0x65, 0x71, 0x75, 0x65, 0x6e, 0x74, 0x69, 
  0x61, 0x6c, 0x5f, 0x36, 0x2f, 0x63, 0x6f, 0x6e, 0x76, 0x31, 0x64, 0x5f, 0x31, 0x33, 0x2f, 0x42, 
  0x69, 0x61, 0x73, 0x41, 0x64, 0x64, 0x3b, 0x73, 0x65, 0x71, 0x75, 0x65, 0x6e, 0x74, 0x69, 0x61, 
  0x6c, 0x5f, 0x36, 0x2f, 0x63, 0x6f, 0x6e, 0x76, 0x31, 0x64, 0x5f, 0x31, 0x33, 0x2f, 0x63, 0x6f, 
  0x6e, 0x76, 0x31, 0x64, 0x2f, 0x53, 0x71, 0x75, 0x65, 0x65, 0x7a, 0x65, 0x3b, 0x73, 0x65, 0x71, 
  0x75, 0x65, 0x6e, 0x74, 0x69, 0x61, 0x6c, 0x5f, 0x36, 0x2f, 0x63, 0x6f, 0x6e, 0x76, 0x31, 0x64, 
  0x5f, 0x31, 0x33, 0x2f, 0x42, 0x69, 0x61, 0x73, 0x41, 0x64, 0x64, 0x2f, 0x52, 0x65, 0x61, 0x64, 
  0x56, 0x61, 0x72, 0x69, 0x61, 0x62, 0x6c, 0x65, 0x4f, 0x70, 0x2f, 0x72, 0x65, 0x73, 0x6f, 0x75, 
  0x72, 0x63, 0x65, 0x3b, 0x73, 0x65, 0x71, 0x75, 0x65, 0x6e, 0x74, 0x69, 0x61, 0x6c, 0x5f, 0x36, 
  0x2f, 0x63, 0x6f, 0x6e, 0x76, 0x31, 0x64, 0x5f, 0x31, 0x33, 0x2f, 0x63, 0x6f, 0x6e, 0x76, 0x31, 
  0x64, 0x00, 0x00, 0x00, 0x0c, 0xf8, 0xff, 0xff, 0x08, 0x00, 0x00, 0x00, 0x48, 0x00, 0x00, 0x00, 
  0x10, 0x00, 0x00, 0x00, 0x0a, 0x3e, 0xca, 0x37, 0x15, 0xb8, 0xe0, 0x37, 0xf6, 0x1a, 0xef, 0x37, 
  0x15, 0x0e, 0xd3, 0x37, 0xa6, 0x66, 0xec, 0x37, 0xb1, 0x78, 0xc3, 0x37, 0x15, 0x1d, 0xe2, 0x37, 
  0xa4, 0x9e, 0xe6, 0x37, 0x55, 0xb8, 0xe5, 0x37, 0x69, 0xdd, 0xeb, 0x37, 0x7e, 0x3c, 0xde, 0x37, 
  0x01, 0x8a, 0xdf, 0x37, 0x9a, 0xf9, 0xfc, 0x37, 0x1f, 0x94, 0xc9, 0x37, 0x2e, 0x8c, 0xda, 0x37, 
