alignas(16) const unsigned char model[] ={
  0x1c, 0x00, 0x00, 0x00, 0x54, 0x46, 0x4c, 0x33, 0x14, 0x00, 0x20, 0x00, 0x04, 0x00, 0x08, 0x00, 
  0x0c, 0x00, 0x10, 0x00, 0x14, 0x00, 0x00, 0x00, 0x18, 0x00, 0x1c, 0x00, 0x14, 0x00, 0x00, 0x00, 
  0x03, 0x00, 0x00, 0x00, 0x18, 0x00, 0x00, 0x00, 0x44, 0x00, 0x00, 0x00, 0x78, 0x01, 0x00, 0x00, 
  0x44, 0x00, 0x00, 0x00, 0x20, 0x01, 0x00, 0x00, 0x18, 0x01, 0x00, 0x00, 0x0b, 0x00, 0x00, 0x00, 
  0xb4, 0x21, 0x00, 0x00, 0xe0, 0x20, 0x00, 0x00, 0x80, 0x1f, 0x00, 0x00, 0xd4, 0x1d, 0x00, 0x00, 
  0xf4, 0x1b, 0x00, 0x00, 0x04, 0x1a, 0x00, 0x00, 0x74, 0x18, 0x00, 0x00, 0xe8, 0x05, 0x00, 0x00, 
  0x00, 0x05, 0x00, 0x00, 0x80, 0x03, 0x00, 0x00, 0xf8, 0x02, 0x00, 0x00, 0x01, 0x00, 0x00, 0x00, 
  0x58, 0x01, 0x00, 0x00, 0x36, 0x00, 0x00, 0x00, 0x94, 0x48, 0x00, 0x00, 0x90, 0x48, 0x00, 0x00, 
  0xb8, 0x47, 0x00, 0x00, 0x44, 0x47, 0x00, 0x00, 0xe4, 0x46, 0x00, 0x00, 0x7c, 0x46, 0x00, 0x00, 
  0x14, 0x46, 0x00, 0x00, 0xac, 0x45, 0x00, 0x00, 0x44, 0x45, 0x00, 0x00, 0xd0, 0x44, 0x00, 0x00, 
  0x60, 0x43, 0x00, 0x00, 0x10, 0x42, 0x00, 0x00, 0x80, 0x41, 0x00, 0x00, 0xf4, 0x40, 0x00, 0x00, 
  0x44, 0x3d, 0x00, 0x00, 0x68, 0x3b, 0x00, 0x00, 0xd0, 0x3a, 0x00, 0x00, 0x3c, 0x3a, 0x00, 0x00, 
  0x4c, 0x2a, 0x00, 0x00, 0x70, 0x27, 0x00, 0x00, 0xc8, 0x26, 0x00, 0x00, 0x24, 0x26, 0x00, 0x00, 
  0xb4, 0x23, 0x00, 0x00, 0xe8, 0x22, 0x00, 0x00, 0x40, 0x22, 0x00, 0x00, 0xac, 0x21, 0x00, 0x00, 
  0x2c, 0x48, 0x00, 0x00, 0x28, 0x48, 0x00, 0x00, 0x24, 0x48, 0x00, 0x00, 0x20, 0x48, 0x00, 0x00, 
  0x1c, 0x48, 0x00, 0x00, 0x18, 0x48, 0x00, 0x00, 0x14, 0x48, 0x00, 0x00, 0x10, 0x48, 0x00, 0x00, 
  0x0c, 0x48, 0x00, 0x00, 0x08, 0x48, 0x00, 0x00, 0x04, 0x48, 0x00, 0x00, 0x00, 0x48, 0x00, 0x00, 
  0xfc, 0x47, 0x00, 0x00, 0xf8, 0x47, 0x00, 0x00, 0xf4, 0x47, 0x00, 0x00, 0xf0, 0x47, 0x00, 0x00, 
  0xec, 0x47, 0x00, 0x00, 0xe8, 0x47, 0x00, 0x00, 0xe4, 0x47, 0x00, 0x00, 0xe0, 0x47, 0x00, 0x00, 
  0xdc, 0x47, 0x00, 0x00, 0xd8, 0x47, 0x00, 0x00, 0xd4, 0x47, 0x00, 0x00, 0xd0, 0x47, 0x00, 0x00, 
  0xcc, 0x47, 0x00, 0x00, 0xc8, 0x47, 0x00, 0x00, 0xc4, 0x47, 0x00, 0x00, 0x3c, 0x00, 0x00, 0x00, 
  0x00, 0x00, 0x00, 0x00, 0x01, 0x00, 0x00, 0x00, 0x0c, 0x00, 0x00, 0x00, 0x08, 0x00, 0x0c, 0x00, 
  0x04, 0x00, 0x08, 0x00, 0x08, 0x00, 0x00, 0x00, 0x08, 0x00, 0x00, 0x00, 0x35, 0x00, 0x00, 0x00, 
  0x13, 0x00, 0x00, 0x00, 0x6d, 0x69, 0x6e, 0x5f, 0x72, 0x75, 0x6e, 0x74, 0x69, 0x6d, 0x65, 0x5f, 
  0x76, 0x65, 0x72, 0x73, 0x69, 0x6f, 0x6e, 0x00, 0x56, 0xb9, 0xff, 0xff, 0x04, 0x00, 0x00, 0x00, 
  0x10, 0x00, 0x00, 0x00, 0x31, 0x2e, 0x31, 0x34, 0x2e, 0x30, 0x00, 0x00, 0x00, 0x00, 0x00, 0x00, 
  0x00, 0x00, 0x00, 0x00, 0x0f, 0x00, 0x00, 0x00, 0x4d, 0x4c, 0x49, 0x52, 0x20, 0x43, 0x6f, 0x6e, 
  0x76, 0x65, 0x72, 0x74, 0x65, 0x64, 0x2e, 0x00, 0x00, 0x00, 0x0e, 0x00, 0x18, 0x00, 0x04, 0x00, 
  0x08, 0x00, 0x0c, 0x00, 0x10, 0x00, 0x14, 0x00, 0x0e, 0x00, 0x00, 0x00, 0x14, 0x00, 0x00, 0x00, 
  0xe4, 0x00, 0x00, 0x00, 0xe8, 0x00, 0x00, 0x00, 0xec, 0x00, 0x00, 0x00, 0x58, 0x01, 0x00, 0x00, 
  0x34, 0x00, 0x00, 0x00, 0xd4, 0x46, 0x00, 0x00, 0x70, 0x46, 0x00, 0x00, 0xf4, 0x45, 0x00, 0x00, 
  0x8c, 0x45, 0x00, 0x00, 0x2c, 0x45, 0x00, 0x00, 0xc4, 0x44, 0x00, 0x00, 0x5c, 0x44, 0x00, 0x00, 
  0xf4, 0x43, 0x00, 0x00, 0x78, 0x43, 0x00, 0x00, 0x94, 0x42, 0x00, 0x00, 0xd4, 0x40, 0x00, 0x00, 
  0x2c, 0x40, 0x00, 0x00, 0xa0, 0x3f, 0x00, 0x00, 0x68, 0x3e, 0x00, 0x00, 0x4c, 0x3a, 0x00, 0x00, 
  0x84, 0x39, 0x00, 0x00, 0xf0, 0x38, 0x00, 0x00, 0xf0, 0x36, 0x00, 0x00, 0x94, 0x26, 0x00, 0x00, 
  0x8c, 0x25, 0x00, 0x00, 0xe8, 0x24, 0x00, 0x00, 0x58, 0x24, 0x00, 0x00, 0xcc, 0x21, 0x00, 0x00, 
  0x14, 0x21, 0x00, 0x00, 0x5c, 0x20, 0x00, 0x00, 0xd0, 0x1f, 0x00, 0x00, 0xe8, 0x1e, 0x00, 0x00, 
  0x88, 0x1d, 0x00, 0x00, 0xdc, 0x1b, 0x00, 0x00, 0xf4, 0x19, 0x00, 0x00, 0x0c, 0x18, 0x00, 0x00, 
  0x3c, 0x17, 0x00, 0x00, 0x78, 0x16, 0x00, 0x00, 0x7c, 0x15, 0x00, 0x00, 0xc4, 0x14, 0x00, 0x00, 
  0x80, 0x13, 0x00, 0x00, 0xe8, 0x11, 0x00, 0x00, 0xfc, 0x0f, 0x00, 0x00, 0x14, 0x0e, 0x00, 0x00, 
  0x58, 0x0d, 0x00, 0x00, 0x98, 0x0c, 0x00, 0x00, 0xcc, 0x0b, 0x00, 0x00, 0x14, 0x0b, 0x00, 0x00, 
  0xd0, 0x09, 0x00, 0x00, 0x38, 0x08, 0x00, 0x00, 0x4c, 0x06, 0x00, 0x00, 0x64, 0x04, 0x00, 0x00, 
  0xb4, 0x03, 0x00, 0x00, 0xcc, 0x02, 0x00, 0x00, 0xe8, 0x01, 0x00, 0x00, 0x48, 0x01, 0x00, 0x00, 
  0xc0, 0x00, 0x00, 0x00, 0x01, 0x00, 0x00, 0x00, 0x00, 0x00, 0x00, 0x00, 0x01, 0x00, 0x00, 0x00, 
  0x33, 0x00, 0x00, 0x00, 0x1b, 0x00, 0x00, 0x00, 0x04, 0x1f, 0x00, 0x00, 0x28, 0x1e, 0x00, 0x00, 
  0xac, 0x1c, 0x00, 0x00, 0x1c, 0x1b, 0x00, 0x00, 0x30, 0x19, 0x00, 0x00, 0x58, 0x17, 0x00, 0x00, 
  0x8c, 0x16, 0x00, 0x00, 0x98, 0x15, 0x00, 0x00, 0xd8, 0x14, 0x00, 0x00, 0x14, 0x14, 0x00, 0x00, 
  0xc0, 0x12, 0x00, 0x00, 0x38, 0x11, 0x00, 0x00, 0x4c, 0x0f, 0x00, 0x00, 0x70, 0x0d, 0x00, 0x00, 
  0xa8, 0x0c, 0x00, 0x00, 0xd8, 0x0b, 0x00, 0x00, 0x28, 0x0b, 0x00, 0x00, 0x64, 0x0a, 0x00, 0x00, 
  0x10, 0x09, 0x00, 0x00, 0x88, 0x07, 0x00, 0x00, 0x9c, 0x05, 0x00, 0x00, 0xc0, 0x03, 0x00, 0x00, 
  0xf4, 0x02, 0x00, 0x00, 0xfc, 0x01, 0x00, 0x00, 0x34, 0x01, 0x00, 0x00, 0x88, 0x00, 0x00, 0x00, 
  0x10, 0x00, 0x00, 0x00, 0x04, 0x00, 0x00, 0x00, 0x6d, 0x61, 0x69, 0x6e, 0x00, 0x00, 0x00, 0x00, 
  0x16, 0xe9, 0xff, 0xff, 0x0a, 0x00, 0x00, 0x00, 0x10, 0x00, 0x00, 0x00, 0x04, 0x00, 0x00, 0x00, 
  0x01, 0x00, 0x00, 0x00, 0x33, 0x00, 0x00, 0x00, 0x01, 0x00, 0x00, 0x00, 0x32, 0x00, 0x00, 0x00, 
  0x78, 0xe1, 0xff, 0xff, 0x06, 0x00, 0x00, 0x00, 0x00, 0x00, 0x00, 0x06, 0x02, 0x00, 0x00, 0x00, 
  0xcc, 0xba, 0xff, 0xff, 0x14, 0x00, 0x00, 0x00, 0x34, 0x00, 0x00, 0x00, 0x24, 0x00, 0x00, 0x00, 
  0x30, 0x00, 0x00, 0x00, 0x10, 0x00, 0x00, 0x00, 0x02, 0x00, 0x00, 0x00, 0x01, 0x00, 0x00, 0x00, 
  0x03, 0x00, 0x00, 0x00, 0x02, 0x00, 0x00, 0x00, 0xff, 0xff, 0xff, 0xff, 0x03, 0x00, 0x00, 0x00, 
  0x08, 0x00, 0x00, 0x00, 0x49, 0x64, 0x65, 0x6e, 0x74, 0x69, 0x74, 0x79, 0x00, 0x00, 0x00, 0x00, 
  0xa8, 0xba, 0xff, 0xff, 0xce, 0xe2, 0xff, 0xff, 0x00, 0x00, 0x00, 0x09, 0x09, 0x00, 0x00, 0x00, 
  0x1c, 0x00, 0x00, 0x00, 0x10, 0x00, 0x00, 0x00, 0x04, 0x00, 0x00, 0x00, 0x9a, 0xbb, 0xff, 0xff, 
  0x00, 0x00, 0x80, 0x3f, 0x01, 0x00, 0x00, 0x00, 0x32, 0x00, 0x00, 0x00, 0x01, 0x00, 0x00, 0x00, 
  0x31, 0x00, 0x00, 0x00, 0xfc, 0xe1, 0xff, 0xff, 0x19, 0x00, 0x00, 0x00, 0x00, 0x00, 0x00, 0x19, 
  0x02, 0x00, 0x00, 0x00, 0xf0, 0xe1, 0xff, 0xff, 0x00, 0x00, 0x00, 0x09, 0x14, 0x00, 0x00, 0x00, 
  0x33, 0x00, 0x00, 0x00, 0x24, 0x00, 0x00, 0x00, 0x30, 0x00, 0x00, 0x00, 0x10, 0x00, 0x00, 0x00, 
  0x02, 0x00, 0x00, 0x00, 0x01, 0x00, 0x00, 0x00, 0x03, 0x00, 0x00, 0x00, 0x02, 0x00, 0x00, 0x00, 
  0xff, 0xff, 0xff, 0xff, 0x03, 0x00, 0x00, 0x00, 0x09, 0x00, 0x00, 0x00, 0x49, 0x64, 0x65, 0x6e, 
  0x74, 0x69, 0x74, 0x79, 0x31, 0x00, 0x00, 0x00, 0x50, 0xbf, 0xff, 0xff, 0x08, 0x00, 0x00, 0x00, 
  0x0c, 0x00, 0x00, 0x00, 0x01, 0x00, 0x00, 0x00, 0x00, 0x00, 0x80, 0x3b, 0x01, 0x00, 0x00, 0x00, 
  0x80, 0xff, 0xff, 0xff, 0xff, 0xff, 0xff, 0xff, 0x00, 0x00, 0x00, 0x00, 0x76, 0xe3, 0xff, 0xff, 
  0x00, 0x00, 0x00, 0x08, 0x08, 0x00, 0x00, 0x00, 0x18, 0x00, 0x00, 0x00, 0x0c, 0x00, 0x00, 0x00, 
  0x04, 0x00, 0x00, 0x00, 0x6c, 0xbb, 0xff, 0xff, 0x01, 0x00, 0x00, 0x00, 0x31, 0x00, 0x00, 0x00, 
  0x03, 0x00, 0x00, 0x00, 0x30, 0x00, 0x00, 0x00, 0x17, 0x00, 0x00, 0x00, 0x18, 0x00, 0x00, 0x00, 
  0x8c, 0xe2, 0xff, 0xff, 0x00, 0x00, 0x00, 0x09, 0x14, 0x00, 0x00, 0x00, 0x32, 0x00, 0x00, 0x00, 
  0x24, 0x00, 0x00, 0x00, 0x5c, 0x00, 0x00, 0x00, 0x10, 0x00, 0x00, 0x00, 0x02, 0x00, 0x00, 0x00, 
  0x01, 0x00, 0x00, 0x00, 0x03, 0x00, 0x00, 0x00, 0x02, 0x00, 0x00, 0x00, 0xff, 0xff, 0xff, 0xff, 
  0x03, 0x00, 0x00, 0x00, 0x34, 0x00, 0x00, 0x00, 0x73, 0x65, 0x71, 0x75, 0x65, 0x6e, 0x74, 0x69, 
  0x61, 0x6c, 0x2f, 0x64, 0x65, 0x6e, 0x73, 0x65, 0x5f, 0x31, 0x2f, 0x4d, 0x61, 0x74, 0x4d, 0x75, 
  0x6c, 0x3b, 0x73, 0x65, 0x71, 0x75, 0x65, 0x6e, 0x74, 0x69, 0x61, 0x6c, 0x2f, 0x64, 0x65, 0x6e, 
  0x73, 0x65, 0x5f, 0x31, 0x2f, 0x42, 0x69, 0x61, 0x73, 0x41, 0x64, 0x64, 0x00, 0x00, 0x00, 0x00, 
  0x18, 0xc0, 0xff, 0xff, 0x08, 0x00, 0x00, 0x00, 0x0c, 0x00, 0x00, 0x00, 0x01, 0x00, 0x00, 0x00, 
  0x00, 0xda, 0x60, 0x3c, 0x01, 0x00, 0x00, 0x00, 0x2f, 0x00, 0x00, 0x00, 0x00, 0x00, 0x00, 0x00, 
  0xb2, 0xec, 0xff, 0xff, 0x00, 0x00, 0x00, 0x08, 0x08, 0x00, 0x00, 0x00, 0x24, 0x00, 0x00, 0x00, 
  0x18, 0x00, 0x00, 0x00, 0x0c, 0x00, 0x00, 0x00, 0x00, 0x00, 0x06, 0x00, 0x08, 0x00, 0x07, 0x00, 
  0x06, 0x00, 0x00, 0x00, 0x00, 0x00, 0x00, 0x01, 0x01, 0x00, 0x00, 0x00, 0x30, 0x00, 0x00, 0x00, 
  0x03, 0x00, 0x00, 0x00, 0x2f, 0x00, 0x00, 0x00, 0x15, 0x00, 0x00, 0x00, 0x16, 0x00, 0x00, 0x00, 
  0x78, 0xe3, 0xff, 0xff, 0x09, 0x00, 0x00, 0x00, 0x00, 0x00, 0x00, 0x09, 0x04, 0x00, 0x00, 0x00, 
  0x6c, 0xe3, 0xff, 0xff, 0x00, 0x00, 0x00, 0x09, 0x14, 0x00, 0x00, 0x00, 0x31, 0x00, 0x00, 0x00, 
  0x24, 0x00, 0x00, 0x00, 0x6c, 0x00, 0x00, 0x00, 0x10, 0x00, 0x00, 0x00, 0x02, 0x00, 0x00, 0x00, 
  0x01, 0x00, 0x00, 0x00, 0x10, 0x00, 0x00, 0x00, 0x02, 0x00, 0x00, 0x00, 0xff, 0xff, 0xff, 0xff, 
  0x10, 0x00, 0x00, 0x00, 0x46, 0x00, 0x00, 0x00, 0x73, 0x65, 0x71, 0x75, 0x65, 0x6e, 0x74, 0x69, 
  0x61, 0x6c, 0x2f, 0x64, 0x65, 0x6e, 0x73, 0x65, 0x2f, 0x4d, 0x61, 0x74, 0x4d, 0x75, 0x6c, 0x3b, 
  0x73, 0x65, 0x71, 0x75, 0x65, 0x6e, 0x74, 0x69, 0x61, 0x6c, 0x2f, 0x64, 0x65, 0x6e, 0x73, 0x65, 
  0x2f, 0x42, 0x69, 0x61, 0x73, 0x41, 0x64, 0x64, 0x3b, 0x73, 0x65, 0x71, 0x75, 0x65, 0x6e, 0x74, 
  0x69, 0x61, 0x6c, 0x2f, 0x64, 0x65, 0x6e, 0x73, 0x65, 0x2f, 0x52, 0x65, 0x6c, 0x75, 0x00, 0x00, 
  0x08, 0xc1, 0xff, 0xff, 0x08, 0x00, 0x00, 0x00, 0x0c, 0x00, 0x00, 0x00, 0x01, 0x00, 0x00, 0x00, 
  0xa8, 0x63, 0x06, 0x3c, 0x01, 0x00, 0x00, 0x00, 0x80, 0xff, 0xff, 0xff, 0xff, 0xff, 0xff, 0xff, 
  0x00, 0x00, 0x00, 0x00, 0x2e, 0xe5, 0xff, 0xff, 0x00, 0x00, 0x00, 0x1b, 0x07, 0x00, 0x00, 0x00, 
  0x18, 0x00, 0x00, 0x00, 0x0c, 0x00, 0x00, 0x00, 0x04, 0x00, 0x00, 0x00, 0x24, 0xbd, 0xff, 0xff, 
  0x01, 0x00, 0x00, 0x00, 0x2f, 0x00, 0x00, 0x00, 0x02, 0x00, 0x00, 0x00, 0x2e, 0x00, 0x00, 0x00, 
  0x08, 0x00, 0x00, 0x00, 0x5c, 0xe4, 0xff, 0xff, 0x28, 0x00, 0x00, 0x00, 0x00, 0x00, 0x00, 0x28, 
  0x02, 0x00, 0x00, 0x00, 0x50, 0xe4, 0xff, 0xff, 0x00, 0x00, 0x00, 0x09, 0x14, 0x00, 0x00, 0x00, 
  0x30, 0x00, 0x00, 0x00, 0x24, 0x00, 0x00, 0x00, 0x50, 0x00, 0x00, 0x00, 0x10, 0x00, 0x00, 0x00, 
  0x02, 0x00, 0x00, 0x00, 0x01, 0x00, 0x00, 0x00, 0x20, 0x00, 0x00, 0x00, 0x02, 0x00, 0x00, 0x00, 
  0xff, 0xff, 0xff, 0xff, 0x20, 0x00, 0x00, 0x00, 0x28, 0x00, 0x00, 0x00, 0x73, 0x65, 0x71, 0x75, 
  0x65, 0x6e, 0x74, 0x69, 0x61, 0x6c, 0x2f, 0x67, 0x6c, 0x6f, 0x62, 0x61, 0x6c, 0x5f, 0x61, 0x76, 
  0x65, 0x72, 0x61, 0x67, 0x65, 0x5f, 0x70, 0x6f, 0x6f, 0x6c, 0x69, 0x6e, 0x67, 0x31, 0x64, 0x2f, 
  0x4d, 0x65, 0x61, 0x6e, 0x00, 0x00, 0x00, 0x00, 0xd0, 0xc1, 0xff, 0xff, 0x08, 0x00, 0x00, 0x00, 
  0x0c, 0x00, 0x00, 0x00, 0x01, 0x00, 0x00, 0x00, 0x4f, 0xa1, 0xe4, 0x3b, 0x01, 0x00, 0x00, 0x00, 
  0xf1, 0xff, 0xff, 0xff, 0xff, 0xff, 0xff, 0xff, 0x00, 0x00, 0x00, 0x00, 0xb2, 0xec, 0xff, 0xff, 
  0x05, 0x00, 0x00, 0x00, 0x10, 0x00, 0x00, 0x00, 0x04, 0x00, 0x00, 0x00, 0x01, 0x00, 0x00, 0x00, 
  0x2e, 0x00, 0x00, 0x00, 0x02, 0x00, 0x00, 0x00, 0x2d, 0x00, 0x00, 0x00, 0x07, 0x00, 0x00, 0x00, 
  0xfc, 0xe4, 0xff, 0xff, 0x00, 0x00, 0x00, 0x09, 0x14, 0x00, 0x00, 0x00, 0x2f, 0x00, 0x00, 0x00, 
  0x2c, 0x00, 0x00, 0x00, 0x7c, 0x01, 0x00, 0x00, 0x14, 0x00, 0x00, 0x00, 0x03, 0x00, 0x00, 0x00, 
  0x01, 0x00, 0x00, 0x00, 0x15, 0x00, 0x00, 0x00, 0x20, 0x00, 0x00, 0x00, 0x03, 0x00, 0x00, 0x00, 
  0xff, 0xff, 0xff, 0xff, 0x15, 0x00, 0x00, 0x00, 0x20, 0x00, 0x00, 0x00, 0x4c, 0x01, 0x00, 0x00, 
  0x73, 0x65, 0x71, 0x75, 0x65, 0x6e, 0x74, 0x69, 0x61, 0x6c, 0x2f, 0x62, 0x61, 0x74, 0x63, 0x68, 
  0x5f, 0x6e, 0x6f, 0x72, 0x6d, 0x61, 0x6c, 0x69, 0x7a, 0x61, 0x74, 0x69, 0x6f, 0x6e, 0x5f, 0x32, 
  0x2f, 0x62, 0x61, 0x74, 0x63, 0x68, 0x6e, 0x6f, 0x72, 0x6d, 0x2f, 0x61, 0x64, 0x64, 0x5f, 0x31, 
  0x3b, 0x73, 0x65, 0x71, 0x75, 0x65, 0x6e, 0x74, 0x69, 0x61, 0x6c, 0x2f, 0x63, 0x6f, 0x6e, 0x76, 
  0x31, 0x64, 0x5f, 0x32, 0x2f, 0x63, 0x6f, 0x6e, 0x76, 0x31, 0x64, 0x2f, 0x53, 0x71, 0x75, 0x65, 
  0x65, 0x7a, 0x65, 0x3b, 0x73, 0x65, 0x71, 0x75, 0x65, 0x6e, 0x74, 0x69, 0x61, 0x6c, 0x2f, 0x62, 
  0x61, 0x74, 0x63, 0x68, 0x5f, 0x6e, 0x6f, 0x72, 0x6d, 0x61, 0x6c, 0x69, 0x7a, 0x61, 0x74, 0x69, 
  0x6f, 0x6e, 0x5f, 0x32, 0x2f, 0x62, 0x61, 0x74, 0x63, 0x68, 0x6e, 0x6f, 0x72, 0x6d, 0x2f, 0x6d, 
  0x75, 0x6c, 0x5f, 0x31, 0x3b, 0x73, 0x65, 0x71, 0x75, 0x65, 0x6e, 0x74, 0x69, 0x61, 0x6c, 0x2f, 
  0x63, 0x6f, 0x6e, 0x76, 0x31, 0x64, 0x5f, 0x32, 0x2f, 0x52, 0x65, 0x6c, 0x75, 0x3b, 0x73, 0x65, 
  0x71, 0x75, 0x65, 0x6e, 0x74, 0x69, 0x61, 0x6c, 0x2f, 0x63, 0x6f, 0x6e, 0x76, 0x31, 0x64, 0x5f, 
  0x32, 0x2f, 0x42, 0x69, 0x61, 0x73, 0x41, 0x64, 0x64, 0x3b, 0x73, 0x65, 0x71, 0x75, 0x65, 0x6e, 
  0x74, 0x69, 0x61, 0x6c, 0x2f, 0x63, 0x6f, 0x6e, 0x76, 0x31, 0x64, 0x5f, 0x32, 0x2f, 0x42, 0x69, 
  0x61, 0x73, 0x41, 0x64, 0x64, 0x2f, 0x52, 0x65, 0x61, 0x64, 0x56, 0x61, 0x72, 0x69, 0x61, 0x62, 
  0x6c, 0x65, 0x4f, 0x70, 0x2f, 0x72, 0x65, 0x73, 0x6f, 0x75, 0x72, 0x63, 0x65, 0x3b, 0x73, 0x65, 
  0x71, 0x75, 0x65, 0x6e, 0x74, 0x69, 0x61, 0x6c, 0x2f, 0x62, 0x61, 0x74, 0x63, 0x68, 0x5f, 0x6e, 
  0x6f, 0x72, 0x6d, 0x61, 0x6c, 0x69, 0x7a, 0x61, 0x74, 0x69, 0x6f, 0x6e, 0x5f, 0x32, 0x2f, 0x62, 
  0x61, 0x74, 0x63, 0x68, 0x6e, 0x6f, 0x72, 0x6d, 0x2f, 0x6d, 0x75, 0x6c, 0x3b, 0x73, 0x65, 0x71, 
  0x75, 0x65, 0x6e, 0x74, 0x69, 0x61, 0x6c, 0x2f, 0x62, 0x61, 0x74, 0x63, 0x68, 0x5f, 0x6e, 0x6f, 
  0x72, 0x6d, 0x61, 0x6c, 0x69, 0x7a, 0x61, 0x74, 0x69, 0x6f, 0x6e, 0x5f, 0x32, 0x2f, 0x62, 0x61, 
  0x74, 0x63, 0x68, 0x6e, 0x6f, 0x72, 0x6d, 0x2f, 0x73, 0x75, 0x62, 0x31, 0x00, 0x00, 0x00, 0x00, 
  0xa8, 0xc3, 0xff, 0xff, 0x08, 0x00, 0x00, 0x00, 0x0c, 0x00, 0x00, 0x00, 0x01, 0x00, 0x00, 0x00, 
  0x93, 0x0e, 0x01, 0x3c, 0x01, 0x00, 0x00, 0x00, 0xe4, 0xff, 0xff, 0xff, 0xff, 0xff, 0xff, 0xff, 
  0x00, 0x00, 0x00, 0x00, 0xce, 0xe7, 0xff, 0xff, 0x00, 0x00, 0x00, 0x0b, 0x04, 0x00, 0x00, 0x00, 
  0x18, 0x00, 0x00, 0x00, 0x0c, 0x00, 0x00, 0x00, 0x04, 0x00, 0x00, 0x00, 0xc4, 0xbf, 0xff, 0xff, 
  0x01, 0x00, 0x00, 0x00, 0x2d, 0x00, 0x00, 0x00, 0x02, 0x00, 0x00, 0x00, 0x2c, 0x00, 0x00, 0x00, 
  0x14, 0x00, 0x00, 0x00, 0xe0, 0xe6, 0xff, 0xff, 0x00, 0x00, 0x00, 0x09, 0x14, 0x00, 0x00, 0x00, 
  0x2e, 0x00, 0x00, 0x00, 0x34, 0x00, 0x00, 0x00, 0x80, 0x01, 0x00, 0x00, 0x18, 0x00, 0x00, 0x00, 
  0x04, 0x00, 0x00, 0x00, 0x01, 0x00, 0x00, 0x00, 0x01, 0x00, 0x00, 0x00, 0x15, 0x00, 0x00, 0x00, 
  0x20, 0x00, 0x00, 0x00, 0x04, 0x00, 0x00, 0x00, 0xff, 0xff, 0xff, 0xff, 0x01, 0x00, 0x00, 0x00, 
  0x15, 0x00, 0x00, 0x00, 0x20, 0x00, 0x00, 0x00, 0x4b, 0x01, 0x00, 0x00, 0x73, 0x65, 0x71, 0x75, 
  0x65, 0x6e, 0x74, 0x69, 0x61, 0x6c, 0x2f, 0x62, 0x61, 0x74, 0x63, 0x68, 0x5f, 0x6e, 0x6f, 0x72, 
  0x6d, 0x61, 0x6c, 0x69, 0x7a, 0x61, 0x74, 0x69, 0x6f, 0x6e, 0x5f, 0x32, 0x2f, 0x62, 0x61, 0x74, 
  0x63, 0x68, 0x6e, 0x6f, 0x72, 0x6d, 0x2f, 0x61, 0x64, 0x64, 0x5f, 0x31, 0x3b, 0x73, 0x65, 0x71, 
  0x75, 0x65, 0x6e, 0x74, 0x69, 0x61, 0x6c, 0x2f, 0x63, 0x6f, 0x6e, 0x76, 0x31, 0x64, 0x5f, 0x32, 
  0x2f, 0x63, 0x6f, 0x6e, 0x76, 0x31, 0x64, 0x2f, 0x53, 0x71, 0x75, 0x65, 0x65, 0x7a, 0x65, 0x3b, 
  0x73, 0x65, 0x71, 0x75, 0x65, 0x6e, 0x74, 0x69, 0x61, 0x6c, 0x2f, 0x62, 0x61, 0x74, 0x63, 0x68, 
  0x5f, 0x6e, 0x6f, 0x72, 0x6d, 0x61, 0x6c, 0x69, 0x7a, 0x61, 0x74, 0x69, 0x6f, 0x6e, 0x5f, 0x32, 
  0x2f, 0x62, 0x61, 0x74, 0x63, 0x68, 0x6e, 0x6f, 0x72, 0x6d, 0x2f, 0x6d, 0x75, 0x6c, 0x5f, 0x31, 
  0x3b, 0x73, 0x65, 0x71, 0x75, 0x65, 0x6e, 0x74, 0x69, 0x61, 0x6c, 0x2f, 0x63, 0x6f, 0x6e, 0x76, 
  0x31, 0x64, 0x5f, 0x32, 0x2f, 0x52, 0x65, 0x6c, 0x75, 0x3b, 0x73, 0x65, 0x71, 0x75, 0x65, 0x6e, 
  0x74, 0x69, 0x61, 0x6c, 0x2f, 0x63, 0x6f, 0x6e, 0x76, 0x31, 0x64, 0x5f, 0x32, 0x2f, 0x42, 0x69, 
  0x61, 0x73, 0x41, 0x64, 0x64, 0x3b, 0x73, 0x65, 0x71, 0x75, 0x65, 0x6e, 0x74, 0x69, 0x61, 0x6c, 
  0x2f, 0x63, 0x6f, 0x6e, 0x76, 0x31, 0x64, 0x5f, 0x32, 0x2f, 0x42, 0x69, 0x61, 0x73, 0x41, 0x64, 
  0x64, 0x2f, 0x52, 0x65, 0x61, 0x64, 0x56, 0x61, 0x72, 0x69, 0x61, 0x62, 0x6c, 0x65, 0x4f, 0x70, 
  0x2f, 0x72, 0x65, 0x73, 0x6f, 0x75, 0x72, 0x63, 0x65, 0x3b, 0x73, 0x65, 0x71, 0x75, 0x65, 0x6e, 
  0x74, 0x69, 0x61, 0x6c, 0x2f, 0x62, 0x61, 0x74, 0x63, 0x68, 0x5f, 0x6e, 0x6f, 0x72, 0x6d, 0x61, 
  0x6c, 0x69, 0x7a, 0x61, 0x74, 0x69, 0x6f, 0x6e, 0x5f, 0x32, 0x2f, 0x62, 0x61, 0x74, 0x63, 0x68, 
  0x6e, 0x6f, 0x72, 0x6d, 0x2f, 0x6d, 0x75, 0x6c, 0x3b, 0x73, 0x65, 0x71, 0x75, 0x65, 0x6e, 0x74, 
  0x69, 0x61, 0x6c, 0x2f, 0x62, 0x61, 0x74, 0x63, 0x68, 0x5f, 0x6e, 0x6f, 0x72, 0x6d, 0x61, 0x6c, 
  0x69, 0x7a, 0x61, 0x74, 0x69, 0x6f, 0x6e, 0x5f, 0x32, 0x2f, 0x62, 0x61, 0x74, 0x63, 0x68, 0x6e, 
  0x6f, 0x72, 0x6d, 0x2f, 0x73, 0x75, 0x62, 0x00, 0x90, 0xc5, 0xff, 0xff, 0x08, 0x00, 0x00, 0x00, 
  0x0c, 0x00, 0x00, 0x00, 0x01, 0x00, 0x00, 0x00, 0x93, 0x0e, 0x01, 0x3c, 0x01, 0x00, 0x00, 0x00, 
  0xe4, 0xff, 0xff, 0xff, 0xff, 0xff, 0xff, 0xff, 0x00, 0x00, 0x00, 0x00, 0xb6, 0xe9, 0xff, 0xff, 
  0x00, 0x00, 0x00, 0x15, 0x03, 0x00, 0x00, 0x00, 0x18, 0x00, 0x00, 0x00, 0x0c, 0x00, 0x00, 0x00, 
  0x04, 0x00, 0x00, 0x00, 0xac, 0xc1, 0xff, 0xff, 0x01, 0x00, 0x00, 0x00, 0x2c, 0x00, 0x00, 0x00, 
  0x02, 0x00, 0x00, 0x00, 0x2b, 0x00, 0x00, 0x00, 0x13, 0x00, 0x00, 0x00, 0xc8, 0xe8, 0xff, 0xff, 
  0x00, 0x00, 0x00, 0x09, 0x14, 0x00, 0x00, 0x00, 0x2d, 0x00, 0x00, 0x00, 0x34, 0x00, 0x00, 0x00, 
  0x20, 0x01, 0x00, 0x00, 0x18, 0x00, 0x00, 0x00, 0x04, 0x00, 0x00, 0x00, 0x01, 0x00, 0x00, 0x00, 
  0x01, 0x00, 0x00, 0x00, 0x15, 0x00, 0x00, 0x00, 0x20, 0x00, 0x00, 0x00, 0x04, 0x00, 0x00, 0x00, 
  0xff, 0xff, 0xff, 0xff, 0x01, 0x00, 0x00, 0x00, 0x15, 0x00, 0x00, 0x00, 0x20, 0x00, 0x00, 0x00, 
  0xeb, 0x00, 0x00, 0x00, 0x73, 0x65, 0x71, 0x75, 0x65, 0x6e, 0x74, 0x69, 0x61, 0x6c, 0x2f, 0x62, 
  0x61, 0x74, 0x63, 0x68, 0x5f, 0x6e, 0x6f, 0x72, 0x6d, 0x61, 0x6c, 0x69, 0x7a, 0x61, 0x74, 0x69, 
  0x6f, 0x6e, 0x5f, 0x32, 0x2f, 0x62, 0x61, 0x74, 0x63, 0x68, 0x6e, 0x6f, 0x72, 0x6d, 0x2f, 0x6d, 
  0x75, 0x6c, 0x5f, 0x31, 0x3b, 0x73, 0x65, 0x71, 0x75, 0x65, 0x6e, 0x74, 0x69, 0x61, 0x6c, 0x2f, 
  0x63, 0x6f, 0x6e, 0x76, 0x31, 0x64, 0x5f, 0x32, 0x2f, 0x63, 0x6f, 0x6e, 0x76, 0x31, 0x64, 0x2f, 
  0x53, 0x71, 0x75, 0x65, 0x65, 0x7a, 0x65, 0x3b, 0x73, 0x65, 0x71, 0x75, 0x65, 0x6e, 0x74, 0x69, 
  0x61, 0x6c, 0x2f, 0x63, 0x6f, 0x6e, 0x76, 0x31, 0x64, 0x5f, 0x32, 0x2f, 0x52, 0x65, 0x6c, 0x75, 
  0x3b, 0x73, 0x65, 0x71, 0x75, 0x65, 0x6e, 0x74, 0x69, 0x61, 0x6c, 0x2f, 0x63, 0x6f, 0x6e, 0x76, 
  0x31, 0x64, 0x5f, 0x32, 0x2f, 0x42, 0x69, 0x61, 0x73, 0x41, 0x64, 0x64, 0x3b, 0x73, 0x65, 0x71, 
  0x75, 0x65, 0x6e, 0x74, 0x69, 0x61, 0x6c, 0x2f, 0x63, 0x6f, 0x6e, 0x76, 0x31, 0x64, 0x5f, 0x32, 
  0x2f, 0x42, 0x69, 0x61, 0x73, 0x41, 0x64, 0x64, 0x2f, 0x52, 0x65, 0x61, 0x64, 0x56, 0x61, 0x72, 
  0x69, 0x61, 0x62, 0x6c, 0x65, 0x4f, 0x70, 0x2f, 0x72, 0x65, 0x73, 0x6f, 0x75, 0x72, 0x63, 0x65, 
  0x3b, 0x73, 0x65, 0x71, 0x75, 0x65, 0x6e, 0x74, 0x69, 0x61, 0x6c, 0x2f, 0x62, 0x61, 0x74, 0x63, 
  0x68, 0x5f, 0x6e, 0x6f, 0x72, 0x6d, 0x61, 0x6c, 0x69, 0x7a, 0x61, 0x74, 0x69, 0x6f, 0x6e, 0x5f, 
  0x32, 0x2f, 0x62, 0x61, 0x74, 0x63, 0x68, 0x6e, 0x6f, 0x72, 0x6d, 0x2f, 0x6d, 0x75, 0x6c, 0x00, 
  0x18, 0xc7, 0xff, 0xff, 0x08, 0x00, 0x00, 0x00, 0x0c, 0x00, 0x00, 0x00, 0x01, 0x00, 0x00, 0x00, 
  0xcc, 0x1b, 0xcb, 0x3b, 0x01, 0x00, 0x00, 0x00, 0x80, 0xff, 0xff, 0xff, 0xff, 0xff, 0xff, 0xff, 
  0x3a, 0xeb, 0xff, 0xff, 0x00, 0x00, 0x00, 0x01, 0x02, 0x00, 0x00, 0x00, 0x24, 0x00, 0x00, 0x00, 
  0x18, 0x00, 0x00, 0x00, 0x04, 0x00, 0x00, 0x00, 0xa4, 0xec, 0xff, 0xff, 0x01, 0x00, 0x00, 0x00, 
  0x01, 0x00, 0x00, 0x00, 0x00, 0x00, 0x01, 0x01, 0x01, 0x00, 0x00, 0x00, 0x2b, 0x00, 0x00, 0x00, 
  0x03, 0x00, 0x00, 0x00, 0x2a, 0x00, 0x00, 0x00, 0x11, 0x00, 0x00, 0x00, 0x12, 0x00, 0x00, 0x00, 
  0x5c, 0xea, 0xff, 0xff, 0x00, 0x00, 0x00, 0x09, 0x14, 0x00, 0x00, 0x00, 0x2c, 0x00, 0x00, 0x00, 
  0x34, 0x00, 0x00, 0x00, 0xdc, 0x00, 0x00, 0x00, 0x18, 0x00, 0x00, 0x00, 0x04, 0x00, 0x00, 0x00, 
  0x01, 0x00, 0x00, 0x00, 0x01, 0x00, 0x00, 0x00, 0x15, 0x00, 0x00, 0x00, 0x20, 0x00, 0x00, 0x00, 
  0x04, 0x00, 0x00, 0x00, 0xff, 0xff, 0xff, 0xff, 0x01, 0x00, 0x00, 0x00, 0x15, 0x00, 0x00, 0x00, 
  0x20, 0x00, 0x00, 0x00, 0xa6, 0x00, 0x00, 0x00, 0x73, 0x65, 0x71, 0x75, 0x65, 0x6e, 0x74, 0x69, 
  0x61, 0x6c, 0x2f, 0x63, 0x6f, 0x6e, 0x76, 0x31, 0x64, 0x5f, 0x32, 0x2f, 0x52, 0x65, 0x6c, 0x75, 
  0x3b, 0x73, 0x65, 0x71, 0x75, 0x65, 0x6e, 0x74, 0x69, 0x61, 0x6c, 0x2f, 0x63, 0x6f, 0x6e, 0x76, 
  0x31, 0x64, 0x5f, 0x32, 0x2f, 0x42, 0x69, 0x61, 0x73, 0x41, 0x64, 0x64, 0x3b, 0x73, 0x65, 0x71, 
  0x75, 0x65, 0x6e, 0x74, 0x69, 0x61, 0x6c, 0x2f, 0x63, 0x6f, 0x6e, 0x76, 0x31, 0x64, 0x5f, 0x32, 
  0x2f, 0x63, 0x6f, 0x6e, 0x76, 0x31, 0x64, 0x2f, 0x53, 0x71, 0x75, 0x65, 0x65, 0x7a, 0x65, 0x3b, 
  0x73, 0x65, 0x71, 0x75, 0x65, 0x6e, 0x74, 0x69, 0x61, 0x6c, 0x2f, 0x63, 0x6f, 0x6e, 0x76, 0x31, 
  0x64, 0x5f, 0x32, 0x2f, 0x42, 0x69, 0x61, 0x73, 0x41, 0x64, 0x64, 0x2f, 0x52, 0x65, 0x61, 0x64, 
  0x56, 0x61, 0x72, 0x69, 0x61, 0x62, 0x6c, 0x65, 0x4f, 0x70, 0x2f, 0x72, 0x65, 0x73, 0x6f, 0x75, 
  0x72, 0x63, 0x65, 0x3b, 0x73, 0x65, 0x71, 0x75, 0x65, 0x6e, 0x74, 0x69, 0x61, 0x6c, 0x2f, 0x63, 
  0x6f, 0x6e, 0x76, 0x31, 0x64, 0x5f, 0x32, 0x2f, 0x63, 0x6f, 0x6e, 0x76, 0x31, 0x64, 0x00, 0x00, 
  0x68, 0xc8, 0xff, 0xff, 0x08, 0x00, 0x00, 0x00, 0x0c, 0x00, 0x00, 0x00, 0x01, 0x00, 0x00, 0x00, 
  0x7e, 0x7f, 0x9c, 0x3b, 0x01, 0x00, 0x00, 0x00, 0x80, 0xff, 0xff, 0xff, 0xff, 0xff, 0xff, 0xff, 
  0x8a, 0xec, 0xff, 0xff, 0x00, 0x00, 0x00, 0x34, 0x01, 0x00, 0x00, 0x00, 0x18, 0x00, 0x00, 0x00, 
  0x0c, 0x00, 0x00, 0x00, 0x04, 0x00, 0x00, 0x00, 0x80, 0xc4, 0xff, 0xff, 0x01, 0x00, 0x00, 0x00, 
  0x2a, 0x00, 0x00, 0x00, 0x02, 0x00, 0x00, 0x00, 0x29, 0x00, 0x00, 0x00, 0x01, 0x00, 0x00, 0x00, 
  0x9c, 0xeb, 0xff, 0xff, 0x00, 0x00, 0x00, 0x09, 0x14, 0x00, 0x00, 0x00, 0x2b, 0x00, 0x00, 0x00, 
  0x34, 0x00, 0x00, 0x00, 0x5c, 0x00, 0x00, 0x00, 0x18, 0x00, 0x00, 0x00, 0x04, 0x00, 0x00, 0x00, 
  0x01, 0x00, 0x00, 0x00, 0x01, 0x00, 0x00, 0x00, 0x1b, 0x00, 0x00, 0x00, 0x10, 0x00, 0x00, 0x00, 
  0x04, 0x00, 0x00, 0x00, 0xff, 0xff, 0xff, 0xff, 0x01, 0x00, 0x00, 0x00, 0x1b, 0x00, 0x00, 0x00, 
  0x10, 0x00, 0x00, 0x00, 0x25, 0x00, 0x00, 0x00, 0x73, 0x65, 0x71, 0x75, 0x65, 0x6e, 0x74, 0x69, 
  0x61, 0x6c, 0x2f, 0x63, 0x6f, 0x6e, 0x76, 0x31, 0x64, 0x5f, 0x32, 0x2f, 0x63, 0x6f, 0x6e, 0x76, 
  0x31, 0x64, 0x2f, 0x45, 0x78, 0x70, 0x61, 0x6e, 0x64, 0x44, 0x69, 0x6d, 0x73, 0x00, 0x00, 0x00, 
  0x28, 0xc9, 0xff, 0xff, 0x08, 0x00, 0x00, 0x00, 0x0c, 0x00, 0x00, 0x00, 0x01, 0x00, 0x00, 0x00, 
  0x7a, 0xbf, 0xdd, 0x3b, 0x01, 0x00, 0x00, 0x00, 0xe5, 0xff, 0xff, 0xff, 0xff, 0xff, 0xff, 0xff, 
  0x06, 0xf4, 0xff, 0xff, 0x05, 0x00, 0x00, 0x00, 0x10, 0x00, 0x00, 0x00, 0x04, 0x00, 0x00, 0x00, 
  0x01, 0x00, 0x00, 0x00, 0x29, 0x00, 0x00, 0x00, 0x02, 0x00, 0x00, 0x00, 0x28, 0x00, 0x00, 0x00, 
  0x06, 0x00, 0x00, 0x00, 0x50, 0xec, 0xff, 0xff, 0x00, 0x00, 0x00, 0x09, 0x14, 0x00, 0x00, 0x00, 
  0x2a, 0x00, 0x00, 0x00, 0x2c, 0x00, 0x00, 0x00, 0x50, 0x00, 0x00, 0x00, 0x14, 0x00, 0x00, 0x00, 
  0x03, 0x00, 0x00, 0x00, 0x01, 0x00, 0x00, 0x00, 0x1b, 0x00, 0x00, 0x00, 0x10, 0x00, 0x00, 0x00, 
  0x03, 0x00, 0x00, 0x00, 0xff, 0xff, 0xff, 0xff, 0x1b, 0x00, 0x00, 0x00, 0x10, 0x00, 0x00, 0x00, 
  0x23, 0x00, 0x00, 0x00, 0x73, 0x65, 0x71, 0x75, 0x65, 0x6e, 0x74, 0x69, 0x61, 0x6c, 0x2f, 0x6d, 
  0x61, 0x78, 0x5f, 0x70, 0x6f, 0x6f, 0x6c, 0x69, 0x6e, 0x67, 0x31, 0x64, 0x5f, 0x31, 0x2f, 0x53, 
  0x71, 0x75, 0x65, 0x65, 0x7a, 0x65, 0x31, 0x00, 0xd0, 0xc9, 0xff, 0xff, 0x08, 0x00, 0x00, 0x00, 
  0x0c, 0x00, 0x00, 0x00, 0x01, 0x00, 0x00, 0x00, 0x7a, 0xbf, 0xdd, 0x3b, 0x01, 0x00, 0x00, 0x00, 
  0xe5, 0xff, 0xff, 0xff, 0xff, 0xff, 0xff, 0xff, 0x00, 0x00, 0x00, 0x00, 0xf6, 0xed, 0xff, 0xff, 
  0x00, 0x00, 0x00, 0x05, 0x06, 0x00, 0x00, 0x00, 0x2c, 0x00, 0x00, 0x00, 0x20, 0x00, 0x00, 0x00, 
  0x04, 0x00, 0x00, 0x00, 0x5e, 0xf6, 0xff, 0xff, 0x02, 0x00, 0x00, 0x00, 0x01, 0x00, 0x00, 0x00, 
  0x02, 0x00, 0x00, 0x00, 0x01, 0x00, 0x00, 0x00, 0x00, 0x00, 0x00, 0x01, 0x01, 0x00, 0x00, 0x00, 
  0x28, 0x00, 0x00, 0x00, 0x01, 0x00, 0x00, 0x00, 0x27, 0x00, 0x00, 0x00, 0x18, 0xed, 0xff, 0xff, 
  0x00, 0x00, 0x00, 0x09, 0x14, 0x00, 0x00, 0x00, 0x29, 0x00, 0x00, 0x00, 0x34, 0x00, 0x00, 0x00, 
  0x58, 0x00, 0x00, 0x00, 0x18, 0x00, 0x00, 0x00, 0x04, 0x00, 0x00, 0x00, 0x01, 0x00, 0x00, 0x00, 
  0x1b, 0x00, 0x00, 0x00, 0x01, 0x00, 0x00, 0x00, 0x10, 0x00, 0x00, 0x00, 0x04, 0x00, 0x00, 0x00, 
  0xff, 0xff, 0xff, 0xff, 0x1b, 0x00, 0x00, 0x00, 0x01, 0x00, 0x00, 0x00, 0x10, 0x00, 0x00, 0x00, 
  0x22, 0x00, 0x00, 0x00, 0x73, 0x65, 0x71, 0x75, 0x65, 0x6e, 0x74, 0x69, 0x61, 0x6c, 0x2f, 0x6d, 
  0x61, 0x78, 0x5f, 0x70, 0x6f, 0x6f, 0x6c, 0x69, 0x6e, 0x67, 0x31, 0x64, 0x5f, 0x31, 0x2f, 0x4d, 
  0x61, 0x78, 0x50, 0x6f, 0x6f, 0x6c, 0x00, 0x00, 0xa0, 0xca, 0xff, 0xff, 0x08, 0x00, 0x00, 0x00, 
  0x0c, 0x00, 0x00, 0x00, 0x01, 0x00, 0x00, 0x00, 0x7a, 0xbf, 0xdd, 0x3b, 0x01, 0x00, 0x00, 0x00, 
  0xe5, 0xff, 0xff, 0xff, 0xff, 0xff, 0xff, 0xff, 0xc2, 0xee, 0xff, 0xff, 0x00, 0x00, 0x00, 0x34, 
  0x01, 0x00, 0x00, 0x00, 0x18, 0x00, 0x00, 0x00, 0x0c, 0x00, 0x00, 0x00, 0x04, 0x00, 0x00, 0x00, 
  0xb8, 0xc6, 0xff, 0xff, 0x01, 0x00, 0x00, 0x00, 0x27, 0x00, 0x00, 0x00, 0x02, 0x00, 0x00, 0x00, 
  0x26, 0x00, 0x00, 0x00, 0x03, 0x00, 0x00, 0x00, 0xd4, 0xed, 0xff, 0xff, 0x00, 0x00, 0x00, 0x09, 
  0x14, 0x00, 0x00, 0x00, 0x28, 0x00, 0x00, 0x00, 0x34, 0x00, 0x00, 0x00, 0x5c, 0x00, 0x00, 0x00, 
  0x18, 0x00, 0x00, 0x00, 0x04, 0x00, 0x00, 0x00, 0x01, 0x00, 0x00, 0x00, 0x36, 0x00, 0x00, 0x00, 
  0x01, 0x00, 0x00, 0x00, 0x10, 0x00, 0x00, 0x00, 0x04, 0x00, 0x00, 0x00, 0xff, 0xff, 0xff, 0xff, 
  0x36, 0x00, 0x00, 0x00, 0x01, 0x00, 0x00, 0x00, 0x10, 0x00, 0x00, 0x00, 0x25, 0x00, 0x00, 0x00, 
  0x73, 0x65, 0x71, 0x75, 0x65, 0x6e, 0x74, 0x69, 0x61, 0x6c, 0x2f, 0x6d, 0x61, 0x78, 0x5f, 0x70, 
  0x6f, 0x6f, 0x6c, 0x69, 0x6e, 0x67, 0x31, 0x64, 0x5f, 0x31, 0x2f, 0x45, 0x78, 0x70, 0x61, 0x6e, 
  0x64, 0x44, 0x69, 0x6d, 0x73, 0x00, 0x00, 0x00, 0x60, 0xcb, 0xff, 0xff, 0x08, 0x00, 0x00, 0x00, 
  0x0c, 0x00, 0x00, 0x00, 0x01, 0x00, 0x00, 0x00, 0x7a, 0xbf, 0xdd, 0x3b, 0x01, 0x00, 0x00, 0x00, 
  0xe5, 0xff, 0xff, 0xff, 0xff, 0xff, 0xff, 0xff, 0x00, 0x00, 0x00, 0x00, 0x42, 0xf6, 0xff, 0xff, 
  0x05, 0x00, 0x00, 0x00, 0x10, 0x00, 0x00, 0x00, 0x04, 0x00, 0x00, 0x00, 0x01, 0x00, 0x00, 0x00, 
  0x26, 0x00, 0x00, 0x00, 0x02, 0x00, 0x00, 0x00, 0x25, 0x00, 0x00, 0x00, 0x05, 0x00, 0x00, 0x00, 
  0x8c, 0xee, 0xff, 0xff, 0x00, 0x00, 0x00, 0x09, 0x14, 0x00, 0x00, 0x00, 0x27, 0x00, 0x00, 0x00, 
  0x2c, 0x00, 0x00, 0x00, 0x7c, 0x01, 0x00, 0x00, 0x14, 0x00, 0x00, 0x00, 0x03, 0x00, 0x00, 0x00, 
  0x01, 0x00, 0x00, 0x00, 0x36, 0x00, 0x00, 0x00, 0x10, 0x00, 0x00, 0x00, 0x03, 0x00, 0x00, 0x00, 
  0xff, 0xff, 0xff, 0xff, 0x36, 0x00, 0x00, 0x00, 0x10, 0x00, 0x00, 0x00, 0x4c, 0x01, 0x00, 0x00, 
  0x73, 0x65, 0x71, 0x75, 0x65, 0x6e, 0x74, 0x69, 0x61, 0x6c, 0x2f, 0x62, 0x61, 0x74, 0x63, 0x68, 
  0x5f, 0x6e, 0x6f, 0x72, 0x6d, 0x61, 0x6c, 0x69, 0x7a, 0x61, 0x74, 0x69, 0x6f, 0x6e, 0x5f, 0x31, 
  0x2f, 0x62, 0x61, 0x74, 0x63, 0x68, 0x6e, 0x6f, 0x72, 0x6d, 0x2f, 0x61, 0x64, 0x64, 0x5f, 0x31, 
  0x3b, 0x73, 0x65, 0x71, 0x75, 0x65, 0x6e, 0x74, 0x69, 0x61, 0x6c, 0x2f, 0x63, 0x6f, 0x6e, 0x76, 
  0x31, 0x64, 0x5f, 0x31, 0x2f, 0x63, 0x6f, 0x6e, 0x76, 0x31, 0x64, 0x2f, 0x53, 0x71, 0x75, 0x65, 
  0x65, 0x7a, 0x65, 0x3b, 0x73, 0x65, 0x71, 0x75, 0x65, 0x6e, 0x74, 0x69, 0x61, 0x6c, 0x2f, 0x62, 
  0x61, 0x74, 0x63, 0x68, 0x5f, 0x6e, 0x6f, 0x72, 0x6d, 0x61, 0x6c, 0x69, 0x7a, 0x61, 0x74, 0x69, 
  0x6f, 0x6e, 0x5f, 0x31, 0x2f, 0x62, 0x61, 0x74, 0x63, 0x68, 0x6e, 0x6f, 0x72, 0x6d, 0x2f, 0x6d, 
  0x75, 0x6c, 0x5f, 0x31, 0x3b, 0x73, 0x65, 0x71, 0x75, 0x65, 0x6e, 0x74, 0x69, 0x61, 0x6c, 0x2f, 
  0x63, 0x6f, 0x6e, 0x76, 0x31, 0x64, 0x5f, 0x31, 0x2f, 0x52, 0x65, 0x6c, 0x75, 0x3b, 0x73, 0x65, 
  0x71, 0x75, 0x65, 0x6e, 0x74, 0x69, 0x61, 0x6c, 0x2f, 0x63, 0x6f, 0x6e, 0x76, 0x31, 0x64, 0x5f, 
  0x31, 0x2f, 0x42, 0x69, 0x61, 0x73, 0x41, 0x64, 0x64, 0x3b, 0x73, 0x65, 0x71, 0x75, 0x65, 0x6e, 
  0x74, 0x69, 0x61, 0x6c, 0x2f, 0x63, 0x6f, 0x6e, 0x76, 0x31, 0x64, 0x5f, 0x31, 0x2f, 0x42, 0x69, 
  0x61, 0x73, 0x41, 0x64, 0x64, 0x2f, 0x52, 0x65, 0x61, 0x64, 0x56, 0x61, 0x72, 0x69, 0x61, 0x62, 
  0x6c, 0x65, 0x4f, 0x70, 0x2f, 0x72, 0x65, 0x73, 0x6f, 0x75, 0x72, 0x63, 0x65, 0x3b, 0x73, 0x65, 
  0x71, 0x75, 0x65, 0x6e, 0x74, 0x69, 0x61, 0x6c, 0x2f, 0x62, 0x61, 0x74, 0x63, 0x68, 0x5f, 0x6e, 
  0x6f, 0x72, 0x6d, 0x61, 0x6c, 0x69, 0x7a, 0x61, 0x74, 0x69, 0x6f, 0x6e, 0x5f, 0x31, 0x2f, 0x62, 
  0x61, 0x74, 0x63, 0x68, 0x6e, 0x6f, 0x72, 0x6d, 0x2f, 0x6d, 0x75, 0x6c, 0x3b, 0x73, 0x65, 0x71, 
  0x75, 0x65, 0x6e, 0x74, 0x69, 0x61, 0x6c, 0x2f, 0x62, 0x61, 0x74, 0x63, 0x68, 0x5f, 0x6e, 0x6f, 
  0x72, 0x6d, 0x61, 0x6c, 0x69, 0x7a, 0x61, 0x74, 0x69, 0x6f, 0x6e, 0x5f, 0x31, 0x2f, 0x62, 0x61, 
  0x74, 0x63, 0x68, 0x6e, 0x6f, 0x72, 0x6d, 0x2f, 0x73, 0x75, 0x62, 0x31, 0x00, 0x00, 0x00, 0x00, 
  0x38, 0xcd, 0xff, 0xff, 0x08, 0x00, 0x00, 0x00, 0x0c, 0x00, 0x00, 0x00, 0x01, 0x00, 0x00, 0x00, 
  0x7a, 0xbf, 0xdd, 0x3b, 0x01, 0x00, 0x00, 0x00, 0xe5, 0xff, 0xff, 0xff, 0xff, 0xff, 0xff, 0xff, 
  0x00, 0x00, 0x00, 0x00, 0x5e, 0xf1, 0xff, 0xff, 0x00, 0x00, 0x00, 0x0b, 0x04, 0x00, 0x00, 0x00, 
  0x18, 0x00, 0x00, 0x00, 0x0c, 0x00, 0x00, 0x00, 0x04, 0x00, 0x00, 0x00, 0x54, 0xc9, 0xff, 0xff, 
  0x01, 0x00, 0x00, 0x00, 0x25, 0x00, 0x00, 0x00, 0x02, 0x00, 0x00, 0x00, 0x24, 0x00, 0x00, 0x00, 
  0x10, 0x00, 0x00, 0x00, 0x70, 0xf0, 0xff, 0xff, 0x00, 0x00, 0x00, 0x09, 0x14, 0x00, 0x00, 0x00, 
  0x26, 0x00, 0x00, 0x00, 0x34, 0x00, 0x00, 0x00, 0x80, 0x01, 0x00, 0x00, 0x18, 0x00, 0x00, 0x00, 
  0x04, 0x00, 0x00, 0x00, 0x01, 0x00, 0x00, 0x00, 0x01, 0x00, 0x00, 0x00, 0x36, 0x00, 0x00, 0x00, 
  0x10, 0x00, 0x00, 0x00, 0x04, 0x00, 0x00, 0x00, 0xff, 0xff, 0xff, 0xff, 0x01, 0x00, 0x00, 0x00, 
  0x36, 0x00, 0x00, 0x00, 0x10, 0x00, 0x00, 0x00, 0x4b, 0x01, 0x00, 0x00, 0x73, 0x65, 0x71, 0x75, 
  0x65, 0x6e, 0x74, 0x69, 0x61, 0x6c, 0x2f, 0x62, 0x61, 0x74, 0x63, 0x68, 0x5f, 0x6e, 0x6f, 0x72, 
  0x6d, 0x61, 0x6c, 0x69, 0x7a, 0x61, 0x74, 0x69, 0x6f, 0x6e, 0x5f, 0x31, 0x2f, 0x62, 0x61, 0x74, 
  0x63, 0x68, 0x6e, 0x6f, 0x72, 0x6d, 0x2f, 0x61, 0x64, 0x64, 0x5f, 0x31, 0x3b, 0x73, 0x65, 0x71, 
  0x75, 0x65, 0x6e, 0x74, 0x69, 0x61, 0x6c, 0x2f, 0x63, 0x6f, 0x6e, 0x76, 0x31, 0x64, 0x5f, 0x31, 
  0x2f, 0x63, 0x6f, 0x6e, 0x76, 0x31, 0x64, 0x2f, 0x53, 0x71, 0x75, 0x65, 0x65, 0x7a, 0x65, 0x3b, 
  0x73, 0x65, 0x71, 0x75, 0x65, 0x6e, 0x74, 0x69, 0x61, 0x6c, 0x2f, 0x62, 0x61, 0x74, 0x63, 0x68, 
  0x5f, 0x6e, 0x6f, 0x72, 0x6d, 0x61, 0x6c, 0x69, 0x7a, 0x61, 0x74, 0x69, 0x6f, 0x6e, 0x5f, 0x31, 
  0x2f, 0x62, 0x61, 0x74, 0x63, 0x68, 0x6e, 0x6f, 0x72, 0x6d, 0x2f, 0x6d, 0x75, 0x6c, 0x5f, 0x31, 
  0x3b, 0x73, 0x65, 0x71, 0x75, 0x65, 0x6e, 0x74, 0x69, 0x61, 0x6c, 0x2f, 0x63, 0x6f, 0x6e, 0x76, 
  0x31, 0x64, 0x5f, 0x31, 0x2f, 0x52, 0x65, 0x6c, 0x75, 0x3b, 0x73, 0x65, 0x71, 0x75, 0x65, 0x6e, 
  0x74, 0x69, 0x61, 0x6c, 0x2f, 0x63, 0x6f, 0x6e, 0x76, 0x31, 0x64, 0x5f, 0x31, 0x2f, 0x42, 0x69, 
  0x61, 0x73, 0x41, 0x64, 0x64, 0x3b, 0x73, 0x65, 0x71, 0x75, 0x65, 0x6e, 0x74, 0x69, 0x61, 0x6c, 
  0x2f, 0x63, 0x6f, 0x6e, 0x76, 0x31, 0x64, 0x5f, 0x31, 0x2f, 0x42, 0x69, 0x61, 0x73, 0x41, 0x64, 
  0x64, 0x2f, 0x52, 0x65, 0x61, 0x64, 0x56, 0x61, 0x72, 0x69, 0x61, 0x62, 0x6c, 0x65, 0x4f, 0x70, 
  0x2f, 0x72, 0x65, 0x73, 0x6f, 0x75, 0x72, 0x63, 0x65, 0x3b, 0x73, 0x65, 0x71, 0x75, 0x65, 0x6e, 
  0x74, 0x69, 0x61, 0x6c, 0x2f, 0x62, 0x61, 0x74, 0x63, 0x68, 0x5f, 0x6e, 0x6f, 0x72, 0x6d, 0x61, 
  0x6c, 0x69, 0x7a, 0x61, 0x74, 0x69, 0x6f, 0x6e, 0x5f, 0x31, 0x2f, 0x62, 0x61, 0x74, 0x63, 0x68, 
  0x6e, 0x6f, 0x72, 0x6d, 0x2f, 0x6d, 0x75, 0x6c, 0x3b, 0x73, 0x65, 0x71, 0x75, 0x65, 0x6e, 0x74, 
  0x69, 0x61, 0x6c, 0x2f, 0x62, 0x61, 0x74, 0x63, 0x68, 0x5f, 0x6e, 0x6f, 0x72, 0x6d, 0x61, 0x6c, 
  0x69, 0x7a, 0x61, 0x74, 0x69, 0x6f, 0x6e, 0x5f, 0x31, 0x2f, 0x62, 0x61, 0x74, 0x63, 0x68, 0x6e, 
  0x6f, 0x72, 0x6d, 0x2f, 0x73, 0x75, 0x62, 0x00, 0x20, 0xcf, 0xff, 0xff, 0x08, 0x00, 0x00, 0x00, 
  0x0c, 0x00, 0x00, 0x00, 0x01, 0x00, 0x00, 0x00, 0x7a, 0xbf, 0xdd, 0x3b, 0x01, 0x00, 0x00, 0x00, 
  0xe5, 0xff, 0xff, 0xff, 0xff, 0xff, 0xff, 0xff, 0x00, 0x00, 0x00, 0x00, 0x46, 0xf3, 0xff, 0xff, 
  0x00, 0x00, 0x00, 0x15, 0x03, 0x00, 0x00, 0x00, 0x18, 0x00, 0x00, 0x00, 0x0c, 0x00, 0x00, 0x00, 
  0x04, 0x00, 0x00, 0x00, 0x3c, 0xcb, 0xff, 0xff, 0x01, 0x00, 0x00, 0x00, 0x24, 0x00, 0x00, 0x00, 
  0x02, 0x00, 0x00, 0x00, 0x23, 0x00, 0x00, 0x00, 0x0f, 0x00, 0x00, 0x00, 0x58, 0xf2, 0xff, 0xff, 
  0x00, 0x00, 0x00, 0x09, 0x14, 0x00, 0x00, 0x00, 0x25, 0x00, 0x00, 0x00, 0x34, 0x00, 0x00, 0x00, 
  0x20, 0x01, 0x00, 0x00, 0x18, 0x00, 0x00, 0x00, 0x04, 0x00, 0x00, 0x00, 0x01, 0x00, 0x00, 0x00, 
  0x01, 0x00, 0x00, 0x00, 0x36, 0x00, 0x00, 0x00, 0x10, 0x00, 0x00, 0x00, 0x04, 0x00, 0x00, 0x00, 
  0xff, 0xff, 0xff, 0xff, 0x01, 0x00, 0x00, 0x00, 0x36, 0x00, 0x00, 0x00, 0x10, 0x00, 0x00, 0x00, 
  0xeb, 0x00, 0x00, 0x00, 0x73, 0x65, 0x71, 0x75, 0x65, 0x6e, 0x74, 0x69, 0x61, 0x6c, 0x2f, 0x62, 
  0x61, 0x74, 0x63, 0x68, 0x5f, 0x6e, 0x6f, 0x72, 0x6d, 0x61, 0x6c, 0x69, 0x7a, 0x61, 0x74, 0x69, 
  0x6f, 0x6e, 0x5f, 0x31, 0x2f, 0x62, 0x61, 0x74, 0x63, 0x68, 0x6e, 0x6f, 0x72, 0x6d, 0x2f, 0x6d, 
  0x75, 0x6c, 0x5f, 0x31, 0x3b, 0x73, 0x65, 0x71, 0x75, 0x65, 0x6e, 0x74, 0x69, 0x61, 0x6c, 0x2f, 
  0x63, 0x6f, 0x6e, 0x76, 0x31, 0x64, 0x5f, 0x31, 0x2f, 0x63, 0x6f, 0x6e, 0x76, 0x31, 0x64, 0x2f, 
  0x53, 0x71, 0x75, 0x65, 0x65, 0x7a, 0x65, 0x3b, 0x73, 0x65, 0x71, 0x75, 0x65, 0x6e, 0x74, 0x69, 
  0x61, 0x6c, 0x2f, 0x63, 0x6f, 0x6e, 0x76, 0x31, 0x64, 0x5f, 0x31, 0x2f, 0x52, 0x65, 0x6c, 0x75, 
  0x3b, 0x73, 0x65, 0x71, 0x75, 0x65, 0x6e, 0x74, 0x69, 0x61, 0x6c, 0x2f, 0x63, 0x6f, 0x6e, 0x76, 
  0x31, 0x64, 0x5f, 0x31, 0x2f, 0x42, 0x69, 0x61, 0x73, 0x41, 0x64, 0x64, 0x3b, 0x73, 0x65, 0x71, 
  0x75, 0x65, 0x6e, 0x74, 0x69, 0x61, 0x6c, 0x2f, 0x63, 0x6f, 0x6e, 0x76, 0x31, 0x64, 0x5f, 0x31, 
  0x2f, 0x42, 0x69, 0x61, 0x73, 0x41, 0x64, 0x64, 0x2f, 0x52, 0x65, 0x61, 0x64, 0x56, 0x61, 0x72, 
  0x69, 0x61, 0x62, 0x6c, 0x65, 0x4f, 0x70, 0x2f, 0x72, 0x65, 0x73, 0x6f, 0x75, 0x72, 0x63, 0x65, 
  0x3b, 0x73, 0x65, 0x71, 0x75, 0x65, 0x6e, 0x74, 0x69, 0x61, 0x6c, 0x2f, 0x62, 0x61, 0x74, 0x63, 
  0x68, 0x5f, 0x6e, 0x6f, 0x72, 0x6d, 0x61, 0x6c, 0x69, 0x7a, 0x61, 0x74, 0x69, 0x6f, 0x6e, 0x5f, 
  0x31, 0x2f, 0x62, 0x61, 0x74, 0x63, 0x68, 0x6e, 0x6f, 0x72, 0x6d, 0x2f, 0x6d, 0x75, 0x6c, 0x00, 
  0xa8, 0xd0, 0xff, 0xff, 0x08, 0x00, 0x00, 0x00, 0x0c, 0x00, 0x00, 0x00, 0x01, 0x00, 0x00, 0x00, 
  0x3e, 0x95, 0xdb, 0x3b, 0x01, 0x00, 0x00, 0x00, 0x80, 0xff, 0xff, 0xff, 0xff, 0xff, 0xff, 0xff, 
  0xca, 0xf4, 0xff, 0xff, 0x00, 0x00, 0x00, 0x01, 0x02, 0x00, 0x00, 0x00, 0x24, 0x00, 0x00, 0x00, 
  0x18, 0x00, 0x00, 0x00, 0x04, 0x00, 0x00, 0x00, 0x34, 0xf6, 0xff, 0xff, 0x01, 0x00, 0x00, 0x00, 
  0x01, 0x00, 0x00, 0x00, 0x00, 0x00, 0x01, 0x01, 0x01, 0x00, 0x00, 0x00, 0x23, 0x00, 0x00, 0x00, 
  0x03, 0x00, 0x00, 0x00, 0x22, 0x00, 0x00, 0x00, 0x0d, 0x00, 0x00, 0x00, 0x0e, 0x00, 0x00, 0x00, 
  0xec, 0xf3, 0xff, 0xff, 0x00, 0x00, 0x00, 0x09, 0x14, 0x00, 0x00, 0x00, 0x24, 0x00, 0x00, 0x00, 
  0x34, 0x00, 0x00, 0x00, 0xdc, 0x00, 0x00, 0x00, 0x18, 0x00, 0x00, 0x00, 0x04, 0x00, 0x00, 0x00, 
  0x01, 0x00, 0x00, 0x00, 0x01, 0x00, 0x00, 0x00, 0x36, 0x00, 0x00, 0x00, 0x10, 0x00, 0x00, 0x00, 
  0x04, 0x00, 0x00, 0x00, 0xff, 0xff, 0xff, 0xff, 0x01, 0x00, 0x00, 0x00, 0x36, 0x00, 0x00, 0x00, 
  0x10, 0x00, 0x00, 0x00, 0xa6, 0x00, 0x00, 0x00, 0x73, 0x65, 0x71, 0x75, 0x65, 0x6e, 0x74, 0x69, 
  0x61, 0x6c, 0x2f, 0x63, 0x6f, 0x6e, 0x76, 0x31, 0x64, 0x5f, 0x31, 0x2f, 0x52, 0x65, 0x6c, 0x75, 
  0x3b, 0x73, 0x65, 0x71, 0x75, 0x65, 0x6e, 0x74, 0x69, 0x61, 0x6c, 0x2f, 0x63, 0x6f, 0x6e, 0x76, 
  0x31, 0x64, 0x5f, 0x31, 0x2f, 0x42, 0x69, 0x61, 0x73, 0x41, 0x64, 0x64, 0x3b, 0x73, 0x65, 0x71, 
  0x75, 0x65, 0x6e, 0x74, 0x69, 0x61, 0x6c, 0x2f, 0x63, 0x6f, 0x6e, 0x76, 0x31, 0x64, 0x5f, 0x31, 
  0x2f, 0x63, 0x6f, 0x6e, 0x76, 0x31, 0x64, 0x2f, 0x53, 0x71, 0x75, 0x65, 0x65, 0x7a, 0x65, 0x3b, 
  0x73, 0x65, 0x71, 0x75, 0x65, 0x6e, 0x74, 0x69, 0x61, 0x6c, 0x2f, 0x63, 0x6f, 0x6e, 0x76, 0x31, 
  0x64, 0x5f, 0x31, 0x2f, 0x42, 0x69, 0x61, 0x73, 0x41, 0x64, 0x64, 0x2f, 0x52, 0x65, 0x61, 0x64, 
  0x56, 0x61, 0x72, 0x69, 0x61, 0x62, 0x6c, 0x65, 0x4f, 0x70, 0x2f, 0x72, 0x65, 0x73, 0x6f, 0x75, 
  0x72, 0x63, 0x65, 0x3b, 0x73, 0x65, 0x71, 0x75, 0x65, 0x6e, 0x74, 0x69, 0x61, 0x6c, 0x2f, 0x63, 
  0x6f, 0x6e, 0x76, 0x31, 0x64, 0x5f, 0x31, 0x2f, 0x63, 0x6f, 0x6e, 0x76, 0x31, 0x64, 0x00, 0x00, 
  0xf8, 0xd1, 0xff, 0xff, 0x08, 0x00, 0x00, 0x00, 0x0c, 0x00, 0x00, 0x00, 0x01, 0x00, 0x00, 0x00, 
  0xb7, 0xd7, 0x98, 0x3b, 0x01, 0x00, 0x00, 0x00, 0x80, 0xff, 0xff, 0xff, 0xff, 0xff, 0xff, 0xff, 
  0x1a, 0xf6, 0xff, 0xff, 0x00, 0x00, 0x00, 0x34, 0x01, 0x00, 0x00, 0x00, 0x18, 0x00, 0x00, 0x00, 
  0x0c, 0x00, 0x00, 0x00, 0x04, 0x00, 0x00, 0x00, 0x10, 0xce, 0xff, 0xff, 0x01, 0x00, 0x00, 0x00, 
  0x22, 0x00, 0x00, 0x00, 0x02, 0x00, 0x00, 0x00, 0x21, 0x00, 0x00, 0x00, 0x01, 0x00, 0x00, 0x00, 
  0x2c, 0xf5, 0xff, 0xff, 0x00, 0x00, 0x00, 0x09, 0x14, 0x00, 0x00, 0x00, 0x23, 0x00, 0x00, 0x00, 
  0x34, 0x00, 0x00, 0x00, 0x5c, 0x00, 0x00, 0x00, 0x18, 0x00, 0x00, 0x00, 0x04, 0x00, 0x00, 0x00, 
  0x01, 0x00, 0x00, 0x00, 0x01, 0x00, 0x00, 0x00, 0x3a, 0x00, 0x00, 0x00, 0x08, 0x00, 0x00, 0x00, 
  0x04, 0x00, 0x00, 0x00, 0xff, 0xff, 0xff, 0xff, 0x01, 0x00, 0x00, 0x00, 0x3a, 0x00, 0x00, 0x00, 
  0x08, 0x00, 0x00, 0x00, 0x25, 0x00, 0x00, 0x00, 0x73, 0x65, 0x71, 0x75, 0x65, 0x6e, 0x74, 0x69, 
  0x61, 0x6c, 0x2f, 0x63, 0x6f, 0x6e, 0x76, 0x31, 0x64, 0x5f, 0x31, 0x2f, 0x63, 0x6f, 0x6e, 0x76, 
  0x31, 0x64, 0x2f, 0x45, 0x78, 0x70, 0x61, 0x6e, 0x64, 0x44, 0x69, 0x6d, 0x73, 0x00, 0x00, 0x00, 
  0xb8, 0xd2, 0xff, 0xff, 0x08, 0x00, 0x00, 0x00, 0x0c, 0x00, 0x00, 0x00, 0x01, 0x00, 0x00, 0x00, 
  0x6e, 0xad, 0xf4, 0x3b, 0x01, 0x00, 0x00, 0x00, 0xe7, 0xff, 0xff, 0xff, 0xff, 0xff, 0xff, 0xff, 
  0x96, 0xfd, 0xff, 0xff, 0x05, 0x00, 0x00, 0x00, 0x10, 0x00, 0x00, 0x00, 0x04, 0x00, 0x00, 0x00, 
  0x01, 0x00, 0x00, 0x00, 0x21, 0x00, 0x00, 0x00, 0x02, 0x00, 0x00, 0x00, 0x20, 0x00, 0x00, 0x00, 
  0x04, 0x00, 0x00, 0x00, 0xe0, 0xf5, 0xff, 0xff, 0x00, 0x00, 0x00, 0x09, 0x14, 0x00, 0x00, 0x00, 
  0x22, 0x00, 0x00, 0x00, 0x2c, 0x00, 0x00, 0x00, 0x50, 0x00, 0x00, 0x00, 0x14, 0x00, 0x00, 0x00, 
  0x03, 0x00, 0x00, 0x00, 0x01, 0x00, 0x00, 0x00, 0x3a, 0x00, 0x00, 0x00, 0x08, 0x00, 0x00, 0x00, 
  0x03, 0x00, 0x00, 0x00, 0xff, 0xff, 0xff, 0xff, 0x3a, 0x00, 0x00, 0x00, 0x08, 0x00, 0x00, 0x00, 
  0x21, 0x00, 0x00, 0x00, 0x73, 0x65, 0x71, 0x75, 0x65, 0x6e, 0x74, 0x69, 0x61, 0x6c, 0x2f, 0x6d, 
  0x61, 0x78, 0x5f, 0x70, 0x6f, 0x6f, 0x6c, 0x69, 0x6e, 0x67, 0x31, 0x64, 0x2f, 0x53, 0x71, 0x75, 
  0x65, 0x65, 0x7a, 0x65, 0x31, 0x00, 0x00, 0x00, 0x60, 0xd3, 0xff, 0xff, 0x08, 0x00, 0x00, 0x00, 
  0x0c, 0x00, 0x00, 0x00, 0x01, 0x00, 0x00, 0x00, 0x6e, 0xad, 0xf4, 0x3b, 0x01, 0x00, 0x00, 0x00, 
  0xe7, 0xff, 0xff, 0xff, 0xff, 0xff, 0xff, 0xff, 0x00, 0x00, 0x00, 0x00, 0x00, 0x00, 0x0e, 0x00, 
  0x1a, 0x00, 0x08, 0x00, 0x0c, 0x00, 0x10, 0x00, 0x07, 0x00, 0x14, 0x00, 0x0e, 0x00, 0x00, 0x00, 
  0x00, 0x00, 0x00, 0x05, 0x06, 0x00, 0x00, 0x00, 0x3c, 0x00, 0x00, 0x00, 0x30, 0x00, 0x00, 0x00, 
  0x14, 0x00, 0x00, 0x00, 0x00, 0x00, 0x0e, 0x00, 0x18, 0x00, 0x17, 0x00, 0x10, 0x00, 0x0c, 0x00, 
  0x08, 0x00, 0x04, 0x00, 0x0e, 0x00, 0x00, 0x00, 0x02, 0x00, 0x00, 0x00, 0x01, 0x00, 0x00, 0x00, 
  0x02, 0x00, 0x00, 0x00, 0x01, 0x00, 0x00, 0x00, 0x00, 0x00, 0x00, 0x01, 0x01, 0x00, 0x00, 0x00, 
  0x20, 0x00, 0x00, 0x00, 0x01, 0x00, 0x00, 0x00, 0x1f, 0x00, 0x00, 0x00, 0xe4, 0xf6, 0xff, 0xff, 
  0x11, 0x00, 0x00, 0x00, 0x00, 0x00, 0x00, 0x11, 0x02, 0x00, 0x00, 0x00, 0xd8, 0xf6, 0xff, 0xff, 
  0x00, 0x00, 0x00, 0x09, 0x14, 0x00, 0x00, 0x00, 0x21, 0x00, 0x00, 0x00, 0x34, 0x00, 0x00, 0x00, 
  0x58, 0x00, 0x00, 0x00, 0x18, 0x00, 0x00, 0x00, 0x04, 0x00, 0x00, 0x00, 0x01, 0x00, 0x00, 0x00, 
  0x3a, 0x00, 0x00, 0x00, 0x01, 0x00, 0x00, 0x00, 0x08, 0x00, 0x00, 0x00, 0x04, 0x00, 0x00, 0x00, 
  0xff, 0xff, 0xff, 0xff, 0x3a, 0x00, 0x00, 0x00, 0x01, 0x00, 0x00, 0x00, 0x08, 0x00, 0x00, 0x00, 
  0x20, 0x00, 0x00, 0x00, 0x73, 0x65, 0x71, 0x75, 0x65, 0x6e, 0x74, 0x69, 0x61, 0x6c, 0x2f, 0x6d, 
  0x61, 0x78, 0x5f, 0x70, 0x6f, 0x6f, 0x6c, 0x69, 0x6e, 0x67, 0x31, 0x64, 0x2f, 0x4d, 0x61, 0x78, 
  0x50, 0x6f, 0x6f, 0x6c, 0x00, 0x00, 0x00, 0x00, 0x60, 0xd4, 0xff, 0xff, 0x08, 0x00, 0x00, 0x00, 
  0x0c, 0x00, 0x00, 0x00, 0x01, 0x00, 0x00, 0x00, 0x6e, 0xad, 0xf4, 0x3b, 0x01, 0x00, 0x00, 0x00, 
  0xe7, 0xff, 0xff, 0xff, 0xff, 0xff, 0xff, 0xff, 0x00, 0x00, 0x00, 0x00, 0x86, 0xf8, 0xff, 0xff, 
  0x00, 0x00, 0x00, 0x34, 0x01, 0x00, 0x00, 0x00, 0x18, 0x00, 0x00, 0x00, 0x0c, 0x00, 0x00, 0x00, 
  0x04, 0x00, 0x00, 0x00, 0x7c, 0xd0, 0xff, 0xff, 0x01, 0x00, 0x00, 0x00, 0x1f, 0x00, 0x00, 0x00, 
  0x02, 0x00, 0x00, 0x00, 0x1e, 0x00, 0x00, 0x00, 0x03, 0x00, 0x00, 0x00, 0x98, 0xf7, 0xff, 0xff, 
  0x00, 0x00, 0x00, 0x09, 0x14, 0x00, 0x00, 0x00, 0x20, 0x00, 0x00, 0x00, 0x34, 0x00, 0x00, 0x00, 
  0x58, 0x00, 0x00, 0x00, 0x18, 0x00, 0x00, 0x00, 0x04, 0x00, 0x00, 0x00, 0x01, 0x00, 0x00, 0x00, 
  0x75, 0x00, 0x00, 0x00, 0x01, 0x00, 0x00, 0x00, 0x08, 0x00, 0x00, 0x00, 0x04, 0x00, 0x00, 0x00, 
  0xff, 0xff, 0xff, 0xff, 0x75, 0x00, 0x00, 0x00, 0x01, 0x00, 0x00, 0x00, 0x08, 0x00, 0x00, 0x00, 
  0x23, 0x00, 0x00, 0x00, 0x73, 0x65, 0x71, 0x75, 0x65, 0x6e, 0x74, 0x69, 0x61, 0x6c, 0x2f, 0x6d, 
  0x61, 0x78, 0x5f, 0x70, 0x6f, 0x6f, 0x6c, 0x69, 0x6e, 0x67, 0x31, 0x64, 0x2f, 0x45, 0x78, 0x70, 
  0x61, 0x6e, 0x64, 0x44, 0x69, 0x6d, 0x73, 0x00, 0x20, 0xd5, 0xff, 0xff, 0x08, 0x00, 0x00, 0x00, 
  0x0c, 0x00, 0x00, 0x00, 0x01, 0x00, 0x00, 0x00, 0x6e, 0xad, 0xf4, 0x3b, 0x01, 0x00, 0x00, 0x00, 
  0xe7, 0xff, 0xff, 0xff, 0xff, 0xff, 0xff, 0xff, 0x00, 0x00, 0x0a, 0x00, 0x10, 0x00, 0x04, 0x00, 
  0x08, 0x00, 0x0c, 0x00, 0x0a, 0x00, 0x00, 0x00, 0x05, 0x00, 0x00, 0x00, 0x10, 0x00, 0x00, 0x00, 
  0x04, 0x00, 0x00, 0x00, 0x01, 0x00, 0x00, 0x00, 0x1e, 0x00, 0x00, 0x00, 0x02, 0x00, 0x00, 0x00, 
  0x1d, 0x00, 0x00, 0x00, 0x02, 0x00, 0x00, 0x00, 0x70, 0xf8, 0xff, 0xff, 0x16, 0x00, 0x00, 0x00, 
  0x00, 0x00, 0x00, 0x16, 0x01, 0x00, 0x00, 0x00, 0x64, 0xf8, 0xff, 0xff, 0x00, 0x00, 0x00, 0x09, 
  0x14, 0x00, 0x00, 0x00, 0x1f, 0x00, 0x00, 0x00, 0x2c, 0x00, 0x00, 0x00, 0x6c, 0x01, 0x00, 0x00, 
  0x14, 0x00, 0x00, 0x00, 0x03, 0x00, 0x00, 0x00, 0x01, 0x00, 0x00, 0x00, 0x75, 0x00, 0x00, 0x00, 
  0x08, 0x00, 0x00, 0x00, 0x03, 0x00, 0x00, 0x00, 0xff, 0xff, 0xff, 0xff, 0x75, 0x00, 0x00, 0x00, 
  0x08, 0x00, 0x00, 0x00, 0x3c, 0x01, 0x00, 0x00, 0x73, 0x65, 0x71, 0x75, 0x65, 0x6e, 0x74, 0x69, 
  0x61, 0x6c, 0x2f, 0x62, 0x61, 0x74, 0x63, 0x68, 0x5f, 0x6e, 0x6f, 0x72, 0x6d, 0x61, 0x6c, 0x69, 
  0x7a, 0x61, 0x74, 0x69, 0x6f, 0x6e, 0x2f, 0x62, 0x61, 0x74, 0x63, 0x68, 0x6e, 0x6f, 0x72, 0x6d, 
  0x2f, 0x61, 0x64, 0x64, 0x5f, 0x31, 0x3b, 0x73, 0x65, 0x71, 0x75, 0x65, 0x6e, 0x74, 0x69, 0x61, 
  0x6c, 0x2f, 0x63, 0x6f, 0x6e, 0x76, 0x31, 0x64, 0x2f, 0x63, 0x6f, 0x6e, 0x76, 0x31, 0x64, 0x2f, 
  0x53, 0x71, 0x75, 0x65, 0x65, 0x7a, 0x65, 0x3b, 0x73, 0x65, 0x71, 0x75, 0x65, 0x6e, 0x74, 0x69, 
  0x61, 0x6c, 0x2f, 0x62, 0x61, 0x74, 0x63, 0x68, 0x5f, 0x6e, 0x6f, 0x72, 0x6d, 0x61, 0x6c, 0x69, 
  0x7a, 0x61, 0x74, 0x69, 0x6f, 0x6e, 0x2f, 0x62, 0x61, 0x74, 0x63, 0x68, 0x6e, 0x6f, 0x72, 0x6d, 
  0x2f, 0x6d, 0x75, 0x6c, 0x5f, 0x31, 0x3b, 0x73, 0x65, 0x71, 0x75, 0x65, 0x6e, 0x74, 0x69, 0x61, 
  0x6c, 0x2f, 0x63, 0x6f, 0x6e, 0x76, 0x31, 0x64, 0x2f, 0x52, 0x65, 0x6c, 0x75, 0x3b, 0x73, 0x65, 
  0x71, 0x75, 0x65, 0x6e, 0x74, 0x69, 0x61, 0x6c, 0x2f, 0x63, 0x6f, 0x6e, 0x76, 0x31, 0x64, 0x2f, 
  0x42, 0x69, 0x61, 0x73, 0x41, 0x64, 0x64, 0x3b, 0x73, 0x65, 0x71, 0x75, 0x65, 0x6e, 0x74, 0x69, 
  0x61, 0x6c, 0x2f, 0x63, 0x6f, 0x6e, 0x76, 0x31, 0x64, 0x2f, 0x42, 0x69, 0x61, 0x73, 0x41, 0x64, 
  0x64, 0x2f, 0x52, 0x65, 0x61, 0x64, 0x56, 0x61, 0x72, 0x69, 0x61, 0x62, 0x6c, 0x65, 0x4f, 0x70, 
  0x2f, 0x72, 0x65, 0x73, 0x6f, 0x75, 0x72, 0x63, 0x65, 0x3b, 0x73, 0x65, 0x71, 0x75, 0x65, 0x6e, 
  0x74, 0x69, 0x61, 0x6c, 0x2f, 0x62, 0x61, 0x74, 0x63, 0x68, 0x5f, 0x6e, 0x6f, 0x72, 0x6d, 0x61, 
  0x6c, 0x69, 0x7a, 0x61, 0x74, 0x69, 0x6f, 0x6e, 0x2f, 0x62, 0x61, 0x74, 0x63, 0x68, 0x6e, 0x6f, 
  0x72, 0x6d, 0x2f, 0x6d, 0x75, 0x6c, 0x3b, 0x73, 0x65, 0x71, 0x75, 0x65, 0x6e, 0x74, 0x69, 0x61, 
  0x6c, 0x2f, 0x62, 0x61, 0x74, 0x63, 0x68, 0x5f, 0x6e, 0x6f, 0x72, 0x6d, 0x61, 0x6c, 0x69, 0x7a, 
  0x61, 0x74, 0x69, 0x6f, 0x6e, 0x2f, 0x62, 0x61, 0x74, 0x63, 0x68, 0x6e, 0x6f, 0x72, 0x6d, 0x2f, 
  0x73, 0x75, 0x62, 0x31, 0x00, 0x00, 0x00, 0x00, 0x00, 0xd7, 0xff, 0xff, 0x08, 0x00, 0x00, 0x00, 
  0x0c, 0x00, 0x00, 0x00, 0x01, 0x00, 0x00, 0x00, 0x6e, 0xad, 0xf4, 0x3b, 0x01, 0x00, 0x00, 0x00, 
  0xe7, 0xff, 0xff, 0xff, 0xff, 0xff, 0xff, 0xff, 0x22, 0xfb, 0xff, 0xff, 0x00, 0x00, 0x00, 0x0b, 
  0x04, 0x00, 0x00, 0x00, 0x18, 0x00, 0x00, 0x00, 0x0c, 0x00, 0x00, 0x00, 0x04, 0x00, 0x00, 0x00, 
  0x18, 0xd3, 0xff, 0xff, 0x01, 0x00, 0x00, 0x00, 0x1d, 0x00, 0x00, 0x00, 0x02, 0x00, 0x00, 0x00, 
  0x1c, 0x00, 0x00, 0x00, 0x0c, 0x00, 0x00, 0x00, 0x00, 0x00, 0x0a, 0x00, 0x08, 0x00, 0x00, 0x00, 
  0x00, 0x00, 0x04, 0x00, 0x0a, 0x00, 0x00, 0x00, 0x02, 0x00, 0x00, 0x00, 0x48, 0xfa, 0xff, 0xff, 
  0x00, 0x00, 0x00, 0x09, 0x14, 0x00, 0x00, 0x00, 0x1e, 0x00, 0x00, 0x00, 0x34, 0x00, 0x00, 0x00, 
  0x70, 0x01, 0x00, 0x00, 0x18, 0x00, 0x00, 0x00, 0x04, 0x00, 0x00, 0x00, 0x01, 0x00, 0x00, 0x00, 
  0x01, 0x00, 0x00, 0x00, 0x75, 0x00, 0x00, 0x00, 0x08, 0x00, 0x00, 0x00, 0x04, 0x00, 0x00, 0x00, 
  0xff, 0xff, 0xff, 0xff, 0x01, 0x00, 0x00, 0x00, 0x75, 0x00, 0x00, 0x00, 0x08, 0x00, 0x00, 0x00, 
  0x3b, 0x01, 0x00, 0x00, 0x73, 0x65, 0x71, 0x75, 0x65, 0x6e, 0x74, 0x69, 0x61, 0x6c, 0x2f, 0x62, 
  0x61, 0x74, 0x63, 0x68, 0x5f, 0x6e, 0x6f, 0x72, 0x6d, 0x61, 0x6c, 0x69, 0x7a, 0x61, 0x74, 0x69, 
  0x6f, 0x6e, 0x2f, 0x62, 0x61, 0x74, 0x63, 0x68, 0x6e, 0x6f, 0x72, 0x6d, 0x2f, 0x61, 0x64, 0x64, 
  0x5f, 0x31, 0x3b, 0x73, 0x65, 0x71, 0x75, 0x65, 0x6e, 0x74, 0x69, 0x61, 0x6c, 0x2f, 0x63, 0x6f, 
  0x6e, 0x76, 0x31, 0x64, 0x2f, 0x63, 0x6f, 0x6e, 0x76, 0x31, 0x64, 0x2f, 0x53, 0x71, 0x75, 0x65, 
  0x65, 0x7a, 0x65, 0x3b, 0x73, 0x65, 0x71, 0x75, 0x65, 0x6e, 0x74, 0x69, 0x61, 0x6c, 0x2f, 0x62, 
  0x61, 0x74, 0x63, 0x68, 0x5f, 0x6e, 0x6f, 0x72, 0x6d, 0x61, 0x6c, 0x69, 0x7a, 0x61, 0x74, 0x69, 
  0x6f, 0x6e, 0x2f, 0x62, 0x61, 0x74, 0x63, 0x68, 0x6e, 0x6f, 0x72, 0x6d, 0x2f, 0x6d, 0x75, 0x6c, 
  0x5f, 0x31, 0x3b, 0x73, 0x65, 0x71, 0x75, 0x65, 0x6e, 0x74, 0x69, 0x61, 0x6c, 0x2f, 0x63, 0x6f, 
  0x6e, 0x76, 0x31, 0x64, 0x2f, 0x52, 0x65, 0x6c, 0x75, 0x3b, 0x73, 0x65, 0x71, 0x75, 0x65, 0x6e, 
  0x74, 0x69, 0x61, 0x6c, 0x2f, 0x63, 0x6f, 0x6e, 0x76, 0x31, 0x64, 0x2f, 0x42, 0x69, 0x61, 0x73, 
  0x41, 0x64, 0x64, 0x3b, 0x73, 0x65, 0x71, 0x75, 0x65, 0x6e, 0x74, 0x69, 0x61, 0x6c, 0x2f, 0x63, 
  0x6f, 0x6e, 0x76, 0x31, 0x64, 0x2f, 0x42, 0x69, 0x61, 0x73, 0x41, 0x64, 0x64, 0x2f, 0x52, 0x65, 
  0x61, 0x64, 0x56, 0x61, 0x72, 0x69, 0x61, 0x62, 0x6c, 0x65, 0x4f, 0x70, 0x2f, 0x72, 0x65, 0x73, 
  0x6f, 0x75, 0x72, 0x63, 0x65, 0x3b, 0x73, 0x65, 0x71, 0x75, 0x65, 0x6e, 0x74, 0x69, 0x61, 0x6c, 
  0x2f, 0x62, 0x61, 0x74, 0x63, 0x68, 0x5f, 0x6e, 0x6f, 0x72, 0x6d, 0x61, 0x6c, 0x69, 0x7a, 0x61, 
  0x74, 0x69, 0x6f, 0x6e, 0x2f, 0x62, 0x61, 0x74, 0x63, 0x68, 0x6e, 0x6f, 0x72, 0x6d, 0x2f, 0x6d, 
  0x75, 0x6c, 0x3b, 0x73, 0x65, 0x71, 0x75, 0x65, 0x6e, 0x74, 0x69, 0x61, 0x6c, 0x2f, 0x62, 0x61, 
  0x74, 0x63, 0x68, 0x5f, 0x6e, 0x6f, 0x72, 0x6d, 0x61, 0x6c, 0x69, 0x7a, 0x61, 0x74, 0x69, 0x6f, 
  0x6e, 0x2f, 0x62, 0x61, 0x74, 0x63, 0x68, 0x6e, 0x6f, 0x72, 0x6d, 0x2f, 0x73, 0x75, 0x62, 0x00, 
  0xe8, 0xd8, 0xff, 0xff, 0x08, 0x00, 0x00, 0x00, 0x0c, 0x00, 0x00, 0x00, 0x01, 0x00, 0x00, 0x00, 
  0x6e, 0xad, 0xf4, 0x3b, 0x01, 0x00, 0x00, 0x00, 0xe7, 0xff, 0xff, 0xff, 0xff, 0xff, 0xff, 0xff, 
  0x0a, 0xfd, 0xff, 0xff, 0x00, 0x00, 0x00, 0x15, 0x03, 0x00, 0x00, 0x00, 0x18, 0x00, 0x00, 0x00, 
  0x0c, 0x00, 0x00, 0x00, 0x04, 0x00, 0x00, 0x00, 0x00, 0xd5, 0xff, 0xff, 0x01, 0x00, 0x00, 0x00, 
  0x1c, 0x00, 0x00, 0x00, 0x02, 0x00, 0x00, 0x00, 0x1b, 0x00, 0x00, 0x00, 0x0b, 0x00, 0x00, 0x00, 
  0x38, 0xfc, 0xff, 0xff, 0x12, 0x00, 0x00, 0x00, 0x00, 0x00, 0x00, 0x12, 0x02, 0x00, 0x00, 0x00, 
  0x2c, 0xfc, 0xff, 0xff, 0x00, 0x00, 0x00, 0x09, 0x14, 0x00, 0x00, 0x00, 0x1d, 0x00, 0x00, 0x00, 
  0x34, 0x00, 0x00, 0x00, 0x14, 0x01, 0x00, 0x00, 0x18, 0x00, 0x00, 0x00, 0x04, 0x00, 0x00, 0x00, 
  0x01, 0x00, 0x00, 0x00, 0x01, 0x00, 0x00, 0x00, 0x75, 0x00, 0x00, 0x00, 0x08, 0x00, 0x00, 0x00, 
  0x04, 0x00, 0x00, 0x00, 0xff, 0xff, 0xff, 0xff, 0x01, 0x00, 0x00, 0x00, 0x75, 0x00, 0x00, 0x00, 
  0x08, 0x00, 0x00, 0x00, 0xdf, 0x00, 0x00, 0x00, 0x73, 0x65, 0x71, 0x75, 0x65, 0x6e, 0x74, 0x69, 
  0x61, 0x6c, 0x2f, 0x62, 0x61, 0x74, 0x63, 0x68, 0x5f, 0x6e, 0x6f, 0x72, 0x6d, 0x61, 0x6c, 0x69, 
  0x7a, 0x61, 0x74, 0x69, 0x6f, 0x6e, 0x2f, 0x62, 0x61, 0x74, 0x63, 0x68, 0x6e, 0x6f, 0x72, 0x6d, 
  0x2f, 0x6d, 0x75, 0x6c, 0x5f, 0x31, 0x3b, 0x73, 0x65, 0x71, 0x75, 0x65, 0x6e, 0x74, 0x69, 0x61, 
  0x6c, 0x2f, 0x63, 0x6f, 0x6e, 0x76, 0x31, 0x64, 0x2f, 0x63, 0x6f, 0x6e, 0x76, 0x31, 0x64, 0x2f, 
  0x53, 0x71, 0x75, 0x65, 0x65, 0x7a, 0x65, 0x3b, 0x73, 0x65, 0x71, 0x75, 0x65, 0x6e, 0x74, 0x69, 
  0x61, 0x6c, 0x2f, 0x63, 0x6f, 0x6e, 0x76, 0x31, 0x64, 0x2f, 0x52, 0x65, 0x6c, 0x75, 0x3b, 0x73, 
  0x65, 0x71, 0x75, 0x65, 0x6e, 0x74, 0x69, 0x61, 0x6c, 0x2f, 0x63, 0x6f, 0x6e, 0x76, 0x31, 0x64, 
  0x2f, 0x42, 0x69, 0x61, 0x73, 0x41, 0x64, 0x64, 0x3b, 0x73, 0x65, 0x71, 0x75, 0x65, 0x6e, 0x74, 
  0x69, 0x61, 0x6c, 0x2f, 0x63, 0x6f, 0x6e, 0x76, 0x31, 0x64, 0x2f, 0x42, 0x69, 0x61, 0x73, 0x41, 
  0x64, 0x64, 0x2f, 0x52, 0x65, 0x61, 0x64, 0x56, 0x61, 0x72, 0x69, 0x61, 0x62, 0x6c, 0x65, 0x4f, 
  0x70, 0x2f, 0x72, 0x65, 0x73, 0x6f, 0x75, 0x72, 0x63, 0x65, 0x3b, 0x73, 0x65, 0x71, 0x75, 0x65, 
  0x6e, 0x74, 0x69, 0x61, 0x6c, 0x2f, 0x62, 0x61, 0x74, 0x63, 0x68, 0x5f, 0x6e, 0x6f, 0x72, 0x6d, 
  0x61, 0x6c, 0x69, 0x7a, 0x61, 0x74, 0x69, 0x6f, 0x6e, 0x2f, 0x62, 0x61, 0x74, 0x63, 0x68, 0x6e, 
  0x6f, 0x72, 0x6d, 0x2f, 0x6d, 0x75, 0x6c, 0x00, 0x70, 0xda, 0xff, 0xff, 0x08, 0x00, 0x00, 0x00, 
  0x0c, 0x00, 0x00, 0x00, 0x01, 0x00, 0x00, 0x00, 0x54, 0x72, 0x4c, 0x3c, 0x01, 0x00, 0x00, 0x00, 
  0x80, 0xff, 0xff, 0xff, 0xff, 0xff, 0xff, 0xff, 0x00, 0x00, 0x00, 0x00, 0x96, 0xfe, 0xff, 0xff, 
  0x00, 0x00, 0x00, 0x01, 0x02, 0x00, 0x00, 0x00, 0x30, 0x00, 0x00, 0x00, 0x24, 0x00, 0x00, 0x00, 
  0x10, 0x00, 0x00, 0x00, 0x0c, 0x00, 0x10, 0x00, 0x0e, 0x00, 0x04, 0x00, 0x08, 0x00, 0x0f, 0x00, 
  0x0c, 0x00, 0x00, 0x00, 0x01, 0x00, 0x00, 0x00, 0x01, 0x00, 0x00, 0x00, 0x00, 0x00, 0x01, 0x01, 
  0x01, 0x00, 0x00, 0x00, 0x1b, 0x00, 0x00, 0x00, 0x03, 0x00, 0x00, 0x00, 0x1a, 0x00, 0x00, 0x00, 
  0x09, 0x00, 0x00, 0x00, 0x0a, 0x00, 0x00, 0x00, 0xe0, 0xfd, 0xff, 0xff, 0x03, 0x00, 0x00, 0x00, 
  0x00, 0x00, 0x00, 0x03, 0x03, 0x00, 0x00, 0x00, 0xd4, 0xfd, 0xff, 0xff, 0x00, 0x00, 0x00, 0x09, 
  0x14, 0x00, 0x00, 0x00, 0x1c, 0x00, 0x00, 0x00, 0x34, 0x00, 0x00, 0x00, 0xd4, 0x00, 0x00, 0x00, 
  0x18, 0x00, 0x00, 0x00, 0x04, 0x00, 0x00, 0x00, 0x01, 0x00, 0x00, 0x00, 0x01, 0x00, 0x00, 0x00, 
  0x75, 0x00, 0x00, 0x00, 0x08, 0x00, 0x00, 0x00, 0x04, 0x00, 0x00, 0x00, 0xff, 0xff, 0xff, 0xff, 
  0x01, 0x00, 0x00, 0x00, 0x75, 0x00, 0x00, 0x00, 0x08, 0x00, 0x00, 0x00, 0x9c, 0x00, 0x00, 0x00, 
  0x73, 0x65, 0x71, 0x75, 0x65, 0x6e, 0x74, 0x69, 0x61, 0x6c, 0x2f, 0x63, 0x6f, 0x6e, 0x76, 0x31, 
  0x64, 0x2f, 0x52, 0x65, 0x6c, 0x75, 0x3b, 0x73, 0x65, 0x71, 0x75, 0x65, 0x6e, 0x74, 0x69, 0x61, 
  0x6c, 0x2f, 0x63, 0x6f, 0x6e, 0x76, 0x31, 0x64, 0x2f, 0x42, 0x69, 0x61, 0x73, 0x41, 0x64, 0x64, 
  0x3b, 0x73, 0x65, 0x71, 0x75, 0x65, 0x6e, 0x74, 0x69, 0x61, 0x6c, 0x2f, 0x63, 0x6f, 0x6e, 0x76, 
  0x31, 0x64, 0x2f, 0x63, 0x6f, 0x6e, 0x76, 0x31, 0x64, 0x2f, 0x53, 0x71, 0x75, 0x65, 0x65, 0x7a, 
  0x65, 0x3b, 0x73, 0x65, 0x71, 0x75, 0x65, 0x6e, 0x74, 0x69, 0x61, 0x6c, 0x2f, 0x63, 0x6f, 0x6e, 
  0x76, 0x31, 0x64, 0x2f, 0x42, 0x69, 0x61, 0x73, 0x41, 0x64, 0x64, 0x2f, 0x52, 0x65, 0x61, 0x64, 
  0x56, 0x61, 0x72, 0x69, 0x61, 0x62, 0x6c, 0x65, 0x4f, 0x70, 0x2f, 0x72, 0x65, 0x73, 0x6f, 0x75, 
  0x72, 0x63, 0x65, 0x3b, 0x73, 0x65, 0x71, 0x75, 0x65, 0x6e, 0x74, 0x69, 0x61, 0x6c, 0x2f, 0x63, 
  0x6f, 0x6e, 0x76, 0x31, 0x64, 0x2f, 0x63, 0x6f, 0x6e, 0x76, 0x31, 0x64, 0x00, 0x00, 0x00, 0x00, 
  0xd8, 0xdb, 0xff, 0xff, 0x08, 0x00, 0x00, 0x00, 0x0c, 0x00, 0x00, 0x00, 0x01, 0x00, 0x00, 0x00, 
  0xe8, 0xbc, 0xa7, 0x3b, 0x01, 0x00, 0x00, 0x00, 0x80, 0xff, 0xff, 0xff, 0xff, 0xff, 0xff, 0xff, 
  0x00, 0x00, 0x00, 0x00, 0x00, 0x00, 0x0e, 0x00, 0x18, 0x00, 0x08, 0x00, 0x0c, 0x00, 0x10, 0x00, 
  0x07, 0x00, 0x14, 0x00, 0x0e, 0x00, 0x00, 0x00, 0x00, 0x00, 0x00, 0x34, 0x01, 0x00, 0x00, 0x00, 
  0x18, 0x00, 0x00, 0x00, 0x0c, 0x00, 0x00, 0x00, 0x04, 0x00, 0x00, 0x00, 0x04, 0xd8, 0xff, 0xff, 
  0x01, 0x00, 0x00, 0x00, 0x1a, 0x00, 0x00, 0x00, 0x02, 0x00, 0x00, 0x00, 0x19, 0x00, 0x00, 0x00, 
  0x01, 0x00, 0x00, 0x00, 0x3c, 0xff, 0xff, 0xff, 0x46, 0x00, 0x00, 0x00, 0x00, 0x00, 0x00, 0x46, 
  0x01, 0x00, 0x00, 0x00, 0x30, 0xff, 0xff, 0xff, 0x00, 0x00, 0x00, 0x09, 0x14, 0x00, 0x00, 0x00, 
  0x1b, 0x00, 0x00, 0x00, 0x34, 0x00, 0x00, 0x00, 0x58, 0x00, 0x00, 0x00, 0x18, 0x00, 0x00, 0x00, 
  0x04, 0x00, 0x00, 0x00, 0x01, 0x00, 0x00, 0x00, 0x01, 0x00, 0x00, 0x00, 0x77, 0x00, 0x00, 0x00, 
  0x06, 0x00, 0x00, 0x00, 0x04, 0x00, 0x00, 0x00, 0xff, 0xff, 0xff, 0xff, 0x01, 0x00, 0x00, 0x00, 
  0x77, 0x00, 0x00, 0x00, 0x06, 0x00, 0x00, 0x00, 0x23, 0x00, 0x00, 0x00, 0x73, 0x65, 0x71, 0x75, 
  0x65, 0x6e, 0x74, 0x69, 0x61, 0x6c, 0x2f, 0x63, 0x6f, 0x6e, 0x76, 0x31, 0x64, 0x2f, 0x63, 0x6f, 
  0x6e, 0x76, 0x31, 0x64, 0x2f, 0x45, 0x78, 0x70, 0x61, 0x6e, 0x64, 0x44, 0x69, 0x6d, 0x73, 0x00, 
  0xb8, 0xdc, 0xff, 0xff, 0x08, 0x00, 0x00, 0x00, 0x0c, 0x00, 0x00, 0x00, 0x01, 0x00, 0x00, 0x00, 
  0x81, 0x80, 0x80, 0x3b, 0x01, 0x00, 0x00, 0x00, 0x80, 0xff, 0xff, 0xff, 0xff, 0xff, 0xff, 0xff, 
  0x00, 0x00, 0x0a, 0x00, 0x0c, 0x00, 0x00, 0x00, 0x04, 0x00, 0x08, 0x00, 0x0a, 0x00, 0x00, 0x00, 
  0x10, 0x00, 0x00, 0x00, 0x04, 0x00, 0x00, 0x00, 0x01, 0x00, 0x00, 0x00, 0x19, 0x00, 0x00, 0x00, 
  0x01, 0x00, 0x00, 0x00, 0x00, 0x00, 0x00, 0x00, 0x0c, 0x00, 0x10, 0x00, 0x0b, 0x00, 0x00, 0x00, 
  0x0c, 0x00, 0x04, 0x00, 0x0c, 0x00, 0x00, 0x00, 0x72, 0x00, 0x00, 0x00, 0x00, 0x00, 0x00, 0x72, 
  0x01, 0x00, 0x00, 0x00, 0x14, 0x00, 0x1c, 0x00, 0x08, 0x00, 0x07, 0x00, 0x0c, 0x00, 0x10, 0x00, 
  0x14, 0x00, 0x00, 0x00, 0x00, 0x00, 0x18, 0x00, 0x14, 0x00, 0x00, 0x00, 0x00, 0x00, 0x00, 0x09, 
  0x14, 0x00, 0x00, 0x00, 0x1a, 0x00, 0x00, 0x00, 0x2c, 0x00, 0x00, 0x00, 0x3c, 0x00, 0x00, 0x00, 
  0x14, 0x00, 0x00, 0x00, 0x03, 0x00, 0x00, 0x00, 0x01, 0x00, 0x00, 0x00, 0x77, 0x00, 0x00, 0x00, 
  0x06, 0x00, 0x00, 0x00, 0x03, 0x00, 0x00, 0x00, 0xff, 0xff, 0xff, 0xff, 0x77, 0x00, 0x00, 0x00, 
  0x06, 0x00, 0x00, 0x00, 0x0c, 0x00, 0x00, 0x00, 0x74, 0x66, 0x6c, 0x2e, 0x71, 0x75, 0x61, 0x6e, 
  0x74, 0x69, 0x7a, 0x65, 0x00, 0x00, 0x00, 0x00, 0x80, 0xdd, 0xff, 0xff, 0x08, 0x00, 0x00, 0x00, 
  0x0c, 0x00, 0x00, 0x00, 0x01, 0x00, 0x00, 0x00, 0x81, 0x80, 0x80, 0x3b, 0x01, 0x00, 0x00, 0x00, 
  0x80, 0xff, 0xff, 0xff, 0xff, 0xff, 0xff, 0xff, 0x56, 0xda, 0xff, 0xff, 0x04, 0x00, 0x00, 0x00, 
  0x0c, 0x00, 0x00, 0x00, 0x21, 0x04, 0x00, 0x00, 0x69, 0xfe, 0xff, 0xff, 0x1c, 0xfc, 0xff, 0xff, 
  0x56, 0xda, 0xff, 0xff, 0x00, 0x00, 0x00, 0x02, 0x10, 0x00, 0x00, 0x00, 0x19, 0x00, 0x00, 0x00, 
  0x10, 0x00, 0x00, 0x00, 0x44, 0x00, 0x00, 0x00, 0x01, 0x00, 0x00, 0x00, 0x03, 0x00, 0x00, 0x00, 
  0x32, 0x00, 0x00, 0x00, 0x73, 0x65, 0x71, 0x75, 0x65, 0x6e, 0x74, 0x69, 0x61, 0x6c, 0x2f, 0x64, 
  0x65, 0x6e, 0x73, 0x65, 0x5f, 0x31, 0x2f, 0x42, 0x69, 0x61, 0x73, 0x41, 0x64, 0x64, 0x2f, 0x52, 
  0x65, 0x61, 0x64, 0x56, 0x61, 0x72, 0x69, 0x61, 0x62, 0x6c, 0x65, 0x4f, 0x70, 0x2f, 0x72, 0x65, 
  0x73, 0x6f, 0x75, 0x72, 0x63, 0x65, 0x00, 0x00, 0x10, 0xde, 0xff, 0xff, 0x08, 0x00, 0x00, 0x00, 
  0x0c, 0x00, 0x00, 0x00, 0x01, 0x00, 0x00, 0x00, 0x8a, 0xe5, 0x27, 0x38, 0x01, 0x00, 0x00, 0x00, 
  0x00, 0x00, 0x00, 0x00, 0x00, 0x00, 0x00, 0x00, 0xe6, 0xda, 0xff, 0xff, 0x04, 0x00, 0x00, 0x00, 
  0x30, 0x00, 0x00, 0x00, 0xa9, 0x61, 0xb6, 0xaf, 0x0e, 0xa3, 0x1c, 0x4b, 0xd6, 0x17, 0xa5, 0xd9, 
  0xf1, 0xba, 0x93, 0x34, 0x4d, 0xca, 0xb3, 0xc8, 0xfd, 0x19, 0x45, 0xab, 0x36, 0x81, 0x96, 0x37, 
  0x56, 0x96, 0xb1, 0xb5, 0x42, 0x4a, 0x02, 0x2c, 0x44, 0x8b, 0x35, 0x33, 0x9f, 0x92, 0xcb, 0xa0, 
  0xd3, 0x6a, 0x42, 0x86, 0x0a, 0xdb, 0xff, 0xff, 0x00, 0x00, 0x00, 0x09, 0x10, 0x00, 0x00, 0x00, 
  0x18, 0x00, 0x00, 0x00, 0x14, 0x00, 0x00, 0x00, 0x30, 0x00, 0x00, 0x00, 0x02, 0x00, 0x00, 0x00, 
  0x03, 0x00, 0x00, 0x00, 0x10, 0x00, 0x00, 0x00, 0x19, 0x00, 0x00, 0x00, 0x73, 0x65, 0x71, 0x75, 
  0x65, 0x6e, 0x74, 0x69, 0x61, 0x6c, 0x2f, 0x64, 0x65, 0x6e, 0x73, 0x65, 0x5f, 0x31, 0x2f, 0x4d, 
  0x61, 0x74, 0x4d, 0x75, 0x6c, 0x00, 0x00, 0x00, 0xb0, 0xde, 0xff, 0xff, 0x08, 0x00, 0x00, 0x00, 
  0x0c, 0x00, 0x00, 0x00, 0x01, 0x00, 0x00, 0x00, 0x10, 0xea, 0x9f, 0x3b, 0x01, 0x00, 0x00, 0x00, 
  0x00, 0x00, 0x00, 0x00, 0x00, 0x00, 0x00, 0x00, 0x00, 0x00, 0x00, 0x00, 0x8a, 0xdb, 0xff, 0xff, 
  0x04, 0x00, 0x00, 0x00, 0x40, 0x00, 0x00, 0x00, 0xf0, 0xfc, 0xff, 0xff, 0x58, 0x0a, 0x00, 0x00, 
  0x28, 0xff, 0xff, 0xff, 0xa1, 0xfc, 0xff, 0xff, 0xa4, 0xf4, 0xff, 0xff, 0x57, 0x04, 0x00, 0x00, 
  0x68, 0xfe, 0xff, 0xff, 0x69, 0x04, 0x00, 0x00, 0x88, 0x01, 0x00, 0x00, 0x9c, 0x09, 0x00, 0x00, 
  0xef, 0x02, 0x00, 0x00, 0xe3, 0x05, 0x00, 0x00, 0x46, 0x03, 0x00, 0x00, 0x9e, 0x01, 0x00, 0x00, 
  0x17, 0x02, 0x00, 0x00, 0x07, 0x0b, 0x00, 0x00, 0xbe, 0xdb, 0xff, 0xff, 0x00, 0x00, 0x00, 0x02, 
  0x10, 0x00, 0x00, 0x00, 0x17, 0x00, 0x00, 0x00, 0x10, 0x00, 0x00, 0x00, 0x44, 0x00, 0x00, 0x00, 
  0x01, 0x00, 0x00, 0x00, 0x10, 0x00, 0x00, 0x00, 0x30, 0x00, 0x00, 0x00, 0x73, 0x65, 0x71, 0x75, 
  0x65, 0x6e, 0x74, 0x69, 0x61, 0x6c, 0x2f, 0x64, 0x65, 0x6e, 0x73, 0x65, 0x2f, 0x42, 0x69, 0x61, 
  0x73, 0x41, 0x64, 0x64, 0x2f, 0x52, 0x65, 0x61, 0x64, 0x56, 0x61, 0x72, 0x69, 0x61, 0x62, 0x6c, 
  0x65, 0x4f, 0x70, 0x2f, 0x72, 0x65, 0x73, 0x6f, 0x75, 0x72, 0x63, 0x65, 0x00, 0x00, 0x00, 0x00, 
  0x78, 0xdf, 0xff, 0xff, 0x08, 0x00, 0x00, 0x00, 0x0c, 0x00, 0x00, 0x00, 0x01, 0x00, 0x00, 0x00, 
  0x39, 0x6c, 0xcb, 0x37, 0x01, 0x00, 0x00, 0x00, 0x00, 0x00, 0x00, 0x00, 0x00, 0x00, 0x00, 0x00, 
  0x00, 0x00, 0x00, 0x00, 0x52, 0xdc, 0xff, 0xff, 0x04, 0x00, 0x00, 0x00, 0x00, 0x02, 0x00, 0x00, 
  0xd8, 0xad, 0x07, 0xa4, 0xf9, 0xd2, 0xb5, 0xb1, 0xf4, 0xa6, 0xd6, 0x2c, 0x66, 0x45, 0x28, 0x28, 
  0xad, 0xa8, 0xf0, 0x9e, 0x94, 0xce, 0x42, 0xb0, 0xce, 0x40, 0x07, 0x17, 0xb7, 0xad, 0x0e, 0xfc, 
  0x0c, 0xb6, 0xde, 0x45, 0x13, 0x9d, 0x32, 0xa2, 0x1e, 0xec, 0x92, 0xf6, 0x1e, 0x44, 0xa7, 0xdf, 
  0x5d, 0x4b, 0x91, 0x21, 0x64, 0x20, 0x06, 0xe3, 0x62, 0xcd, 0xa6, 0x59, 0xce, 0xd4, 0x26, 0x95, 
  0x1b, 0x12, 0xd2, 0xcd, 0x4b, 0x78, 0xe2, 0xeb, 0x09, 0x5c, 0xa0, 0x0b, 0xba, 0x52, 0x42, 0x63, 
  0x08, 0x6e, 0x61, 0x4b, 0x4a, 0xb0, 0xa0, 0x2e, 0x29, 0xaf, 0x57, 0x3d, 0x44, 0xc0, 0x2f, 0x9b, 
  0x2a, 0xff, 0x6c, 0x04, 0xd9, 0x33, 0x50, 0xd0, 0xd1, 0xc2, 0x3d, 0xdd, 0xe5, 0xf9, 0x32, 0xcd, 
  0x0f, 0x46, 0x70, 0x35, 0xfe, 0xa8, 0xb5, 0xbe, 0xc8, 0x9b, 0x03, 0xa0, 0x3e, 0x0c, 0x40, 0xb4, 
  0x1b, 0xfb, 0xb9, 0x34, 0x16, 0xba, 0x32, 0x44, 0xb9, 0x22, 0x63, 0x1b, 0xf6, 0x3f, 0x5b, 0x1a, 
  0x55, 0xcf, 0x28, 0x0f, 0x3a, 0xf7, 0x1e, 0x41, 0xff, 0x35, 0x56, 0xc2, 0x29, 0x54, 0x52, 0xe1, 
  0x43, 0x1d, 0x2f, 0x90, 0xb8, 0xec, 0x90, 0x2f, 0x38, 0xd1, 0x6d, 0x52, 0x79, 0xdc, 0x4a, 0xb0, 
  0x4d, 0x2b, 0xc4, 0x17, 0xd3, 0x0d, 0xae, 0x47, 0x96, 0x22, 0x6b, 0x24, 0xb4, 0x3a, 0xd4, 0x27, 
  0xb1, 0x27, 0xd6, 0x96, 0x08, 0xbb, 0x9b, 0xd6, 0x04, 0x35, 0xde, 0x02, 0xb1, 0xd8, 0x9f, 0xdf, 
  0x2a, 0x2f, 0xab, 0xeb, 0xa9, 0x6d, 0x9b, 0x8d, 0xd8, 0x1a, 0xc8, 0x3b, 0x1e, 0x21, 0x29, 0xc9, 
  0xa9, 0x30, 0xee, 0xae, 0x3c, 0xf3, 0x48, 0xfc, 0x32, 0x0b, 0x34, 0x6c, 0x0c, 0xcf, 0xcf, 0x5e, 
  0xe6, 0x08, 0x0e, 0xa3, 0xf5, 0xf8, 0xaf, 0xc5, 0xd6, 0xff, 0x3a, 0x45, 0x66, 0xd3, 0xb5, 0x97, 
  0x4a, 0xb3, 0x35, 0x50, 0x32, 0xb0, 0x06, 0x01, 0x4b, 0xc5, 0xcf, 0x9a, 0x03, 0x07, 0x0c, 0xc1, 
  0xba, 0x3c, 0xca, 0x30, 0x04, 0x4d, 0xf1, 0x4a, 0xa2, 0xf7, 0xf2, 0xd8, 0x56, 0x70, 0xb7, 0xe8, 
  0x43, 0xa1, 0x06, 0x10, 0xa2, 0xce, 0x23, 0xdd, 0xbf, 0xc2, 0xc2, 0x49, 0xa7, 0xb2, 0xb0, 0xe1, 
  0xea, 0xe8, 0xcf, 0x2c, 0xef, 0xf6, 0x5e, 0x79, 0x0c, 0x12, 0xe7, 0x2c, 0xb8, 0x20, 0x63, 0x96, 
  0xaa, 0xed, 0xe6, 0x10, 0x5f, 0x2e, 0xfc, 0xa0, 0xe5, 0x45, 0x32, 0x1d, 0xc9, 0xe5, 0xd4, 0x5c, 
  0xfc, 0x38, 0xdc, 0xb3, 0x4d, 0x9f, 0xbe, 0x85, 0xc4, 0xbd, 0xe0, 0x20, 0x0a, 0x3d, 0xd6, 0x3a, 
  0x29, 0xd8, 0xe9, 0x92, 0xc0, 0x18, 0x86, 0x5a, 0xa3, 0xbf, 0x4a, 0x28, 0xff, 0x4d, 0xd7, 0xe8, 
  0xd3, 0x97, 0x9b, 0x34, 0xc5, 0x4a, 0xa5, 0x4e, 0xf9, 0xb1, 0x6c, 0x9d, 0xca, 0xca, 0x99, 0x51, 
  0x18, 0xbd, 0xf3, 0xbc, 0x29, 0xde, 0x3a, 0x42, 0x35, 0x06, 0x51, 0xbd, 0xf4, 0x66, 0x08, 0xac, 
  0x9a, 0xcc, 0x19, 0x99, 0x51, 0x03, 0xc8, 0xb3, 0x1a, 0xee, 0xd4, 0xff, 0x0b, 0x22, 0xc9, 0x1e, 
  0xf0, 0x77, 0x71, 0x08, 0xc8, 0x2e, 0xfb, 0xba, 0xee, 0x54, 0xf9, 0x0e, 0xe5, 0xa2, 0xce, 0xb6, 
  0x11, 0x22, 0xb7, 0x1b, 0xb2, 0x4f, 0x2d, 0xf1, 0x21, 0xbf, 0xe2, 0x0c, 0x4f, 0x01, 0xcd, 0xbd, 
  0x3f, 0x11, 0x3e, 0x4a, 0x75, 0x3b, 0x3c, 0xa8, 0xeb, 0x24, 0x15, 0x39, 0x00, 0x0c, 0x26, 0x5f, 
  0xf7, 0x5d, 0x66, 0xb5, 0xdd, 0x28, 0x1e, 0xb2, 0x04, 0x9c, 0x97, 0x27, 0xf9, 0x16, 0x4a, 0xf6, 
  0x4e, 0xea, 0x2e, 0xbb, 0x0b, 0xcf, 0x72, 0x30, 0x9c, 0x8a, 0xa0, 0xb2, 0x0b, 0xb8, 0xb4, 0x0f, 
  0x61, 0x91, 0xf9, 0x7f, 0x16, 0x9c, 0xf7, 0x58, 0xf9, 0xec, 0x01, 0x4f, 0x09, 0x69, 0x28, 0xb1, 
  0x46, 0xde, 0xff, 0xff, 0x00, 0x00, 0x00, 0x09, 0x10, 0x00, 0x00, 0x00, 0x16, 0x00, 0x00, 0x00, 
  0x14, 0x00, 0x00, 0x00, 0x2c, 0x00, 0x00, 0x00, 0x02, 0x00, 0x00, 0x00, 0x10, 0x00, 0x00, 0x00, 
  0x20, 0x00, 0x00, 0x00, 0x17, 0x00, 0x00, 0x00, 0x73, 0x65, 0x71, 0x75, 0x65, 0x6e, 0x74, 0x69, 
  0x61, 0x6c, 0x2f, 0x64, 0x65, 0x6e, 0x73, 0x65, 0x2f, 0x4d, 0x61, 0x74, 0x4d, 0x75, 0x6c, 0x00, 
  0xe8, 0xe1, 0xff, 0xff, 0x08, 0x00, 0x00, 0x00, 0x0c, 0x00, 0x00, 0x00, 0x01, 0x00, 0x00, 0x00, 
  0x66, 0xc6, 0x63, 0x3b, 0x01, 0x00, 0x00, 0x00, 0x00, 0x00, 0x00, 0x00, 0x00, 0x00, 0x00, 0x00, 
  0xbe, 0xde, 0xff, 0xff, 0x04, 0x00, 0x00, 0x00, 0x20, 0x00, 0x00, 0x00, 0xe3, 0xab, 0x13, 0xde, 
  0xc6, 0xbd, 0xbe, 0x9f, 0xa5, 0xb3, 0x92, 0xda, 0x97, 0xa0, 0xcd, 0x80, 0xe3, 0xb4, 0xa2, 0xea, 
  0xcd, 0xc2, 0xd9, 0xe0, 0xc7, 0xa8, 0xa1, 0xd1, 0xad, 0xef, 0xb6, 0xa4, 0xd2, 0xde, 0xff, 0xff, 
  0x00, 0x00, 0x00, 0x09, 0x10, 0x00, 0x00, 0x00, 0x15, 0x00, 0x00, 0x00, 0x10, 0x00, 0x00, 0x00, 
  0x40, 0x00, 0x00, 0x00, 0x01, 0x00, 0x00, 0x00, 0x20, 0x00, 0x00, 0x00, 0x2e, 0x00, 0x00, 0x00, 
  0x73, 0x65, 0x71, 0x75, 0x65, 0x6e, 0x74, 0x69, 0x61, 0x6c, 0x2f, 0x62, 0x61, 0x74, 0x63, 0x68, 
  0x5f, 0x6e, 0x6f, 0x72, 0x6d, 0x61, 0x6c, 0x69, 0x7a, 0x61, 0x74, 0x69, 0x6f, 0x6e, 0x5f, 0x32, 
  0x2f, 0x62, 0x61, 0x74, 0x63, 0x68, 0x6e, 0x6f, 0x72, 0x6d, 0x2f, 0x73, 0x75, 0x62, 0x00, 0x00, 
  0x88, 0xe2, 0xff, 0xff, 0x08, 0x00, 0x00, 0x00, 0x0c, 0x00, 0x00, 0x00, 0x01, 0x00, 0x00, 0x00, 
  0x81, 0x3d, 0x4b, 0x3b, 0x01, 0x00, 0x00, 0x00, 0x7f, 0x00, 0x00, 0x00, 0x00, 0x00, 0x00, 0x00, 
  0x5e, 0xdf, 0xff, 0xff, 0x04, 0x00, 0x00, 0x00, 0x20, 0x00, 0x00, 0x00, 0x5e, 0xfb, 0x75, 0x7f, 
  0x27, 0x0f, 0x1a, 0x44, 0x06, 0x06, 0x2c, 0x1f, 0x05, 0x1c, 0x27, 0x15, 0x2c, 0x0c, 0xfa, 0x52, 
  0x3c, 0x3c, 0x39, 0x27, 0x2d, 0x4a, 0x1f, 0x36, 0x00, 0x48, 0x27, 0x2a, 0x72, 0xdf, 0xff, 0xff, 
  0x00, 0x00, 0x00, 0x09, 0x10, 0x00, 0x00, 0x00, 0x14, 0x00, 0x00, 0x00, 0x10, 0x00, 0x00, 0x00, 
  0x40, 0x00, 0x00, 0x00, 0x01, 0x00, 0x00, 0x00, 0x20, 0x00, 0x00, 0x00, 0x2e, 0x00, 0x00, 0x00, 
  0x73, 0x65, 0x71, 0x75, 0x65, 0x6e, 0x74, 0x69, 0x61, 0x6c, 0x2f, 0x62, 0x61, 0x74, 0x63, 0x68, 
  0x5f, 0x6e, 0x6f, 0x72, 0x6d, 0x61, 0x6c, 0x69, 0x7a, 0x61, 0x74, 0x69, 0x6f, 0x6e, 0x5f, 0x32, 
  0x2f, 0x62, 0x61, 0x74, 0x63, 0x68, 0x6e, 0x6f, 0x72, 0x6d, 0x2f, 0x6d, 0x75, 0x6c, 0x00, 0x00, 
  0x28, 0xe3, 0xff, 0xff, 0x08, 0x00, 0x00, 0x00, 0x0c, 0x00, 0x00, 0x00, 0x01, 0x00, 0x00, 0x00, 
  0x6d, 0xf6, 0xe7, 0x3b, 0x01, 0x00, 0x00, 0x00, 0x80, 0xff, 0xff, 0xff, 0xff, 0xff, 0xff, 0xff, 
  0x00, 0x00, 0x00, 0x00, 0x02, 0xe0, 0xff, 0xff, 0x04, 0x00, 0x00, 0x00, 0x80, 0x00, 0x00, 0x00, 
  0xf2, 0x13, 0x00, 0x00, 0x6f, 0x07, 0x00, 0x00, 0x9f, 0x16, 0x00, 0x00, 0xc4, 0x15, 0x00, 0x00, 
  0x5d, 0x03, 0x00, 0x00, 0x71, 0x05, 0x00, 0x00, 0x17, 0x16, 0x00, 0x00, 0xd4, 0x16, 0x00, 0x00, 
  0x4a, 0x00, 0x00, 0x00, 0x86, 0xf9, 0xff, 0xff, 0xdd, 0x12, 0x00, 0x00, 0x1c, 0x06, 0x00, 0x00, 
  0x17, 0x0c, 0x00, 0x00, 0xe9, 0x04, 0x00, 0x00, 0x3a, 0x05, 0x00, 0x00, 0x5c, 0x1b, 0x00, 0x00, 
  0x24, 0x0b, 0x00, 0x00, 0x3c, 0x06, 0x00, 0x00, 0x82, 0xfd, 0xff, 0xff, 0x94, 0xfa, 0xff, 0xff, 
  0x1c, 0xff, 0xff, 0xff, 0xbd, 0x06, 0x00, 0x00, 0xa3, 0x0b, 0x00, 0x00, 0x00, 0xef, 0xff, 0xff, 
  0x71, 0x14, 0x00, 0x00, 0xa2, 0x08, 0x00, 0x00, 0x66, 0x06, 0x00, 0x00, 0x7f, 0x14, 0x00, 0x00, 
  0x6b, 0x0e, 0x00, 0x00, 0xb3, 0xf4, 0xff, 0xff, 0x7b, 0x16, 0x00, 0x00, 0x69, 0x04, 0x00, 0x00, 
  0x76, 0xe0, 0xff, 0xff, 0x00, 0x00, 0x00, 0x02, 0x10, 0x00, 0x00, 0x00, 0x13, 0x00, 0x00, 0x00, 
  0x10, 0x00, 0x00, 0x00, 0xa0, 0x00, 0x00, 0x00, 0x01, 0x00, 0x00, 0x00, 0x20, 0x00, 0x00, 0x00, 
  0x8d, 0x00, 0x00, 0x00, 0x73, 0x65, 0x71, 0x75, 0x65, 0x6e, 0x74, 0x69, 0x61, 0x6c, 0x2f, 0x63, 
  0x6f, 0x6e, 0x76, 0x31, 0x64, 0x5f, 0x32, 0x2f, 0x42, 0x69, 0x61, 0x73, 0x41, 0x64, 0x64, 0x3b, 
  0x73, 0x65, 0x71, 0x75, 0x65, 0x6e, 0x74, 0x69, 0x61, 0x6c, 0x2f, 0x63, 0x6f, 0x6e, 0x76, 0x31, 
  0x64, 0x5f, 0x32, 0x2f, 0x63, 0x6f, 0x6e, 0x76, 0x31, 0x64, 0x2f, 0x53, 0x71, 0x75, 0x65, 0x65, 
  0x7a, 0x65, 0x3b, 0x73, 0x65, 0x71, 0x75, 0x65, 0x6e, 0x74, 0x69, 0x61, 0x6c, 0x2f, 0x63, 0x6f, 
  0x6e, 0x76, 0x31, 0x64, 0x5f, 0x32, 0x2f, 0x42, 0x69, 0x61, 0x73, 0x41, 0x64, 0x64, 0x2f, 0x52, 
  0x65, 0x61, 0x64, 0x56, 0x61, 0x72, 0x69, 0x61, 0x62, 0x6c, 0x65, 0x4f, 0x70, 0x2f, 0x72, 0x65, 
  0x73, 0x6f, 0x75, 0x72, 0x63, 0x65, 0x3b, 0x73, 0x65, 0x71, 0x75, 0x65, 0x6e, 0x74, 0x69, 0x61, 
  0x6c, 0x2f, 0x63, 0x6f, 0x6e, 0x76, 0x31, 0x64, 0x5f, 0x32, 0x2f, 0x63, 0x6f, 0x6e, 0x76, 0x31, 
  0x64, 0x00, 0x00, 0x00, 0x8c, 0xe4, 0xff, 0xff, 0x08, 0x00, 0x00, 0x00, 0x88, 0x00, 0x00, 0x00, 
  0x20, 0x00, 0x00, 0x00, 0x68, 0xe0, 0x02, 0x37, 0xb1, 0xc6, 0x14, 0x37, 0x60, 0x07, 0x06, 0x37, 
  0xf8, 0x88, 0x0b, 0x37, 0x39, 0x5e, 0x16, 0x37, 0xac, 0x25, 0x17, 0x37, 0x53, 0x48, 0x16, 0x37, 
  0x0a, 0x4b, 0x08, 0x37, 0x11, 0x4f, 0x30, 0x37, 0xd1, 0x5d, 0x1b, 0x37, 0x78, 0x65, 0x0a, 0x37, 
  0xe3, 0xc7, 0x09, 0x37, 0xc1, 0xa9, 0x0c, 0x37, 0x34, 0x7e, 0x05, 0x37, 0xca, 0x1b, 0x0a, 0x37, 
  0xaf, 0x01, 0x1b, 0x37, 0x3b, 0xff, 0x17, 0x37, 0x9d, 0x43, 0x15, 0x37, 0xe0, 0xbd, 0x0f, 0x37, 
  0x07, 0x18, 0x19, 0x37, 0xa2, 0x5d, 0x2d, 0x37, 0x85, 0xc4, 0x0a, 0x37, 0xa0, 0xf8, 0x1b, 0x37, 
  0x3a, 0xdc, 0x10, 0x37, 0xdd, 0xdc, 0x14, 0x37, 0x41, 0xbc, 0x21, 0x37, 0x41, 0x9b, 0x0f, 0x37, 
  0xa6, 0xa6, 0x11, 0x37, 0xcb, 0x7b, 0x1c, 0x37, 0x30, 0x35, 0x10, 0x37, 0xee, 0x53, 0x20, 0x37, 
  0x97, 0x69, 0x09, 0x37, 0x20, 0x00, 0x00, 0x00, 0x00, 0x00, 0x00, 0x00, 0x00, 0x00, 0x00, 0x00, 
  0x00, 0x00, 0x00, 0x00, 0x00, 0x00, 0x00, 0x00, 0x00, 0x00, 0x00, 0x00, 0x00, 0x00, 0x00, 0x00, 
  0x00, 0x00, 0x00, 0x00, 0x00, 0x00, 0x00, 0x00, 0x00, 0x00, 0x00, 0x00, 0x00, 0x00, 0x00, 0x00, 
  0x00, 0x00, 0x00, 0x00, 0x00, 0x00, 0x00, 0x00, 0x00, 0x00, 0x00, 0x00, 0x00, 0x00, 0x00, 0x00, 
  0x00, 0x00, 0x00, 0x00, 0x00, 0x00, 0x00, 0x00, 0x00, 0x00, 0x00, 0x00, 0x00, 0x00, 0x00, 0x00, 
  0x00, 0x00, 0x00, 0x00, 0x00, 0x00, 0x00, 0x00, 0x00, 0x00, 0x00, 0x00, 0x00, 0x00, 0x00, 0x00, 
  0x00, 0x00, 0x00, 0x00, 0x00, 0x00, 0x00, 0x00, 0x00, 0x00, 0x00, 0x00, 0x00, 0x00, 0x00, 0x00, 
  0x00, 0x00, 0x00, 0x00, 0x00, 0x00, 0x00, 0x00, 0x00, 0x00, 0x00, 0x00, 0x00, 0x00, 0x00, 0x00, 
  0x00, 0x00, 0x00, 0x00, 0x00, 0x00, 0x00, 0x00, 0x00, 0x00, 0x00, 0x00, 0x00, 0x00, 0x00, 0x00, 
  0x00, 0x00, 0x00, 0x00, 0x00, 0x00, 0x00, 0x00, 0x00, 0x00, 0x00, 0x00, 0x00, 0x00, 0x00, 0x00, 
  0x00, 0x00, 0x00, 0x00, 0x00, 0x00, 0x00, 0x00, 0x00, 0x00, 0x00, 0x00, 0x00, 0x00, 0x00, 0x00, 
  0x00, 0x00, 0x00, 0x00, 0x00, 0x00, 0x00, 0x00, 0x00, 0x00, 0x00, 0x00, 0x00, 0x00, 0x00, 0x00, 
  0x00, 0x00, 0x00, 0x00, 0x00, 0x00, 0x00, 0x00, 0x00, 0x00, 0x00, 0x00, 0x00, 0x00, 0x00, 0x00, 
  0x00, 0x00, 0x00, 0x00, 0x00, 0x00, 0x00, 0x00, 0x00, 0x00, 0x00, 0x00, 0x00, 0x00, 0x00, 0x00, 
  0x00, 0x00, 0x00, 0x00, 0x00, 0x00, 0x00, 0x00, 0x00, 0x00, 0x00, 0x00, 0x00, 0x00, 0x00, 0x00, 
  0x00, 0x00, 0x00, 0x00, 0x00, 0x00, 0x00, 0x00, 0x00, 0x00, 0x00, 0x00, 0x00, 0x00, 0x00, 0x00, 
  0x00, 0x00, 0x00, 0x00, 0x00, 0x00, 0x00, 0x00, 0x00, 0x00, 0x00, 0x00, 0xda, 0xe2, 0xff, 0xff, 
  0x04, 0x00, 0x00, 0x00, 0x00, 0x0e, 0x00, 0x00, 0x22, 0x38, 0x39, 0x0d, 0xb7, 0xb1, 0xa0, 0x43, 
  0xd8, 0xe7, 0xfd, 0xdb, 0xf9, 0x5d, 0x18, 0x10, 0x46, 0x47, 0x9a, 0x9c, 0xba, 0x62, 0x04, 0xd5, 
  0xe2, 0x6e, 0xd5, 0x8e, 0xeb, 0x92, 0x42, 0x60, 0x31, 0xd6, 0xd2, 0x8c, 0xfa, 0xdf, 0x9d, 0x1b, 
  0x8b, 0x5c, 0xbf, 0xc3, 0x90, 0x63, 0x8b, 0x29, 0xe2, 0x1e, 0x50, 0x3c, 0x61, 0xba, 0xaf, 0xaf, 
  0xb6, 0xc2, 0x68, 0x81, 0xcc, 0x4e, 0x4e, 0xab, 0xec, 0xe7, 0x58, 0x2a, 0xc8, 0x0a, 0xd9, 0xf9, 
  0xc2, 0xc2, 0xfe, 0xa0, 0xb6, 0xe4, 0xc1, 0xc5, 0xe3, 0x5d, 0x35, 0xa7, 0xac, 0xe1, 0x2a, 0xa5, 
  0xf2, 0xb8, 0xdd, 0x44, 0x2f, 0x34, 0x45, 0xde, 0xa3, 0xb0, 0x20, 0xb0, 0x99, 0x13, 0x22, 0x4e, 
  0xcc, 0x8e, 0x55, 0x39, 0x17, 0xa3, 0xfc, 0x4b, 0x28, 0xa8, 0x04, 0x49, 0xa9, 0xc5, 0xac, 0x92, 
  0xd4, 0x2c, 0x11, 0x5c, 0x1c, 0x55, 0x49, 0xb4, 0xe6, 0xb5, 0x39, 0xea, 0xe6, 0x91, 0xee, 0x1b, 
  0x66, 0x52, 0x55, 0x59, 0xc0, 0xbe, 0xd1, 0x18, 0x4c, 0x81, 0xf3, 0x06, 0xb6, 0xbb, 0x3d, 0x99, 
  0xb2, 0x3c, 0x32, 0xab, 0xab, 0x2d, 0xec, 0xc9, 0x4c, 0xa0, 0x15, 0x20, 0xe0, 0xc7, 0xc1, 0xc9, 
  0x05, 0xaa, 0x60, 0xc5, 0xbc, 0x63, 0xa6, 0xd1, 0xb2, 0xd6, 0xea, 0x29, 0xdd, 0x50, 0xa3, 0xeb, 
  0x40, 0x65, 0xee, 0x45, 0xf5, 0x55, 0xe1, 0x10, 0x0b, 0x30, 0xe6, 0xb6, 0x25, 0x99, 0x91, 0x0c, 
  0x26, 0xdf, 0x69, 0x31, 0x33, 0xbd, 0xaa, 0x37, 0xa2, 0xa8, 0xcd, 0x76, 0x55, 0xc4, 0xbe, 0xab, 
  0xf3, 0x1a, 0xcd, 0x24, 0x8d, 0xbc, 0x3f, 0xb7, 0x33, 0x3f, 0x0a, 0x0c, 0x1c, 0x85, 0xb5, 0x91, 
  0xb6, 0xa1, 0xc0, 0x96, 0xfe, 0xc4, 0x4c, 0x39, 0x02, 0xc4, 0xde, 0x6c, 0xe6, 0x14, 0x13, 0xa4, 
  0x45, 0x8a, 0x1f, 0x99, 0xc0, 0xd8, 0x1e, 0x9d, 0x9c, 0xde, 0xf4, 0xc4, 0x4c, 0x38, 0xea, 0x49, 
  0xb8, 0x1f, 0x08, 0x30, 0x4c, 0xc6, 0xec, 0x9d, 0xf9, 0xb9, 0xaa, 0x47, 0xd3, 0xe1, 0x1c, 0x55, 
  0x36, 0x0e, 0xa4, 0x50, 0x2c, 0x1c, 0x31, 0x0b, 0xe0, 0xd5, 0x03, 0xb6, 0x09, 0x8e, 0x85, 0x50, 
  0xf1, 0x3d, 0x36, 0xd3, 0x97, 0xd9, 0xc7, 0x43, 0x23, 0xa8, 0x89, 0x61, 0x37, 0x16, 0xe2, 0x04, 
  0x4c, 0xc3, 0x46, 0x1d, 0x1b, 0x14, 0xd3, 0xcd, 0x3c, 0x90, 0x3a, 0x22, 0xbd, 0xdd, 0x8b, 0xbd, 
  0x05, 0xb9, 0x4c, 0x2f, 0xa3, 0x97, 0x81, 0x9e, 0x37, 0x1d, 0xe9, 0xcd, 0xdf, 0x83, 0xc6, 0xf4, 
  0xf3, 0xdc, 0x4f, 0x67, 0x57, 0xbb, 0xe4, 0x20, 0x2c, 0xc9, 0x17, 0xde, 0xdc, 0x86, 0xe7, 0xef, 
  0xfe, 0x28, 0x2a, 0x2f, 0x54, 0x05, 0xb5, 0x10, 0x39, 0x60, 0x4b, 0xdc, 0x98, 0xeb, 0xdf, 0xc6, 
  0xb1, 0x1d, 0xae, 0xa1, 0xc8, 0x6a, 0xdf, 0xf7, 0x4a, 0x5b, 0xfe, 0xf7, 0xc0, 0x0a, 0xdb, 0x4f, 
  0x27, 0x97, 0xb5, 0x46, 0xc0, 0x0e, 0x50, 0x93, 0xba, 0x53, 0x4a, 0xc9, 0x6c, 0x1c, 0xcc, 0x02, 
  0xe7, 0xce, 0xde, 0x9d, 0x9d, 0xd9, 0x94, 0xaa, 0xa7, 0xc6, 0x05, 0x10, 0xe2, 0x81, 0xc6, 0x2f, 
  0xfc, 0x8c, 0xea, 0xf4, 0xf9, 0x27, 0x11, 0xf4, 0x37, 0xab, 0x7e, 0x9c, 0x29, 0x28, 0x1f, 0xfc, 
  0x02, 0xba, 0x4a, 0x43, 0xbb, 0xb7, 0xf6, 0xcf, 0xe4, 0xca, 0xf5, 0x52, 0xd3, 0xa7, 0x09, 0xa5, 
  0xc5, 0xdc, 0x41, 0x30, 0x05, 0x56, 0xd9, 0xdc, 0x2b, 0xe7, 0x35, 0xf2, 0xf3, 0xcd, 0x9e, 0x16, 
  0x25, 0xf3, 0x23, 0xe5, 0xa1, 0x4c, 0x9c, 0x96, 0x0c, 0xb1, 0xa5, 0x19, 0x56, 0xc7, 0x48, 0xaf, 
  0x68, 0x04, 0xdf, 0x0b, 0x3b, 0xc4, 0x47, 0xcb, 0xc8, 0xec, 0x41, 0xf1, 0xc3, 0x37, 0xc2, 0x37, 
  0x1b, 0x3c, 0xe6, 0xd6, 0xed, 0x51, 0xcd, 0xdf, 0xd4, 0x85, 0x23, 0x11, 0x15, 0xc4, 0x90, 0x21, 
  0x57, 0x25, 0x62, 0xc7, 0x40, 0xe7, 0x81, 0x4c, 0x55, 0x3b, 0x2e, 0xdb, 0xf6, 0xea, 0xf6, 0xcb, 
  0xfe, 0x23, 0xea, 0x0d, 0xae, 0xf2, 0x3a, 0xed, 0xb0, 0xe7, 0xa6, 0x1e, 0x64, 0xe1, 0xbc, 0x42, 
  0xe1, 0xf4, 0xe0, 0x57, 0x3a, 0xd9, 0xb2, 0x49, 0xd9, 0xfa, 0xdd, 0x40, 0x16, 0xba, 0x40, 0x36, 
  0x48, 0xe2, 0x5d, 0xd8, 0xff, 0xd3, 0xb3, 0xce, 0xff, 0x8b, 0xc5, 0x01, 0x30, 0xe3, 0x8b, 0x81, 
  0x20, 0xaa, 0xf3, 0x01, 0xdb, 0x67, 0x9c, 0x17, 0xfa, 0x8c, 0xed, 0x04, 0xd0, 0xd5, 0x0c, 0x2c, 
  0x20, 0x4f, 0xed, 0x1c, 0x95, 0x6a, 0xc0, 0xd6, 0xc2, 0xaf, 0xb6, 0x1c, 0x37, 0x00, 0xb3, 0x1a, 
  0x35, 0xbe, 0x4a, 0x44, 0xfb, 0x14, 0x27, 0x14, 0xdd, 0xa9, 0xce, 0xc2, 0x16, 0x34, 0x44, 0xdb, 
  0x46, 0x20, 0xfb, 0xb2, 0xdd, 0x4e, 0x9e, 0xfe, 0x40, 0xf8, 0xb4, 0x3f, 0x27, 0x33, 0xcf, 0x0f, 
  0x4c, 0x14, 0xd5, 0x5b, 0xc1, 0xf0, 0xd0, 0xfd, 0x3c, 0xec, 0x11, 0x6d, 0xc6, 0xfd, 0x12, 0xfb, 
  0xd5, 0x6c, 0xc0, 0xe1, 0x25, 0x34, 0xde, 0xbd, 0xc6, 0xe5, 0x36, 0xf2, 0xce, 0xe3, 0xd6, 0xfd, 
  0xe8, 0xe6, 0x38, 0xce, 0x93, 0x9a, 0x55, 0xdb, 0xd8, 0xc6, 0x3e, 0x3e, 0xbd, 0x9a, 0x1c, 0xc1, 
  0x4f, 0xe1, 0xbb, 0x4a, 0xae, 0x0b, 0xa3, 0xc5, 0xa4, 0x34, 0x0e, 0x41, 0x19, 0x47, 0xe8, 0x29, 
  0xc6, 0xdf, 0xf9, 0x98, 0x2a, 0x4b, 0x25, 0x42, 0x3b, 0x4a, 0x57, 0x02, 0xa6, 0xc2, 0x0c, 0x9f, 
  0xdb, 0xf3, 0x06, 0xa3, 0xd2, 0x34, 0x4d, 0xba, 0x5d, 0xd0, 0x2b, 0xe9, 0x0a, 0x03, 0x1f, 0x81, 
  0xe7, 0x01, 0xce, 0x62, 0xb0, 0xf1, 0x3a, 0x83, 0xc8, 0xeb, 0x6f, 0x9d, 0x00, 0xc0, 0x42, 0xe0, 
  0xfa, 0x11, 0xfc, 0x3b, 0xe1, 0xe3, 0x34, 0xb3, 0x62, 0xb0, 0x27, 0x14, 0x22, 0xfb, 0xe6, 0xf6, 
  0x43, 0xc3, 0xbb, 0xb9, 0x46, 0x07, 0x22, 0xc3, 0xcc, 0x4c, 0xc9, 0xe8, 0xcc, 0x50, 0xe0, 0xf5, 
  0x4e, 0x09, 0xba, 0x3d, 0xfc, 0x8e, 0x6a, 0x59, 0xbc, 0x14, 0x5d, 0xad, 0xcb, 0x22, 0x18, 0x27, 
  0x59, 0xe8, 0xfe, 0x4d, 0x32, 0xfb, 0x1d, 0xb8, 0x9c, 0x5c, 0x32, 0x55, 0xc9, 0x05, 0xb1, 0xab, 
  0xf6, 0x00, 0x01, 0xef, 0x63, 0xf6, 0xd7, 0xb9, 0x8e, 0xf6, 0xc0, 0x1b, 0x87, 0x36, 0xdb, 0xb7, 
  0x36, 0xc8, 0x3b, 0xc4, 0xac, 0x62, 0xd6, 0x0d, 0x0f, 0x7f, 0xe1, 0xe9, 0x4f, 0x0c, 0x59, 0x09, 
  0xc6, 0xce, 0x1a, 0x84, 0x12, 0x58, 0x67, 0x59, 0x3e, 0x33, 0xf6, 0xbc, 0xc8, 0xe4, 0x3f, 0xd8, 
  0xf9, 0x1d, 0x1a, 0x8b, 0xf0, 0xf0, 0x42, 0xf1, 0x50, 0xd4, 0xd5, 0xce, 0xbd, 0x0b, 0x30, 0x6f, 
  0x1b, 0x14, 0xa8, 0xef, 0x4f, 0xfc, 0xd1, 0x51, 0x33, 0x42, 0xce, 0x19, 0x31, 0xeb, 0xcd, 0x64, 
  0x44, 0xc2, 0x0b, 0x04, 0xd7, 0x1b, 0xe5, 0x5b, 0xc9, 0xb2, 0xb6, 0xf6, 0x2d, 0x3d, 0xed, 0x2e, 
  0xca, 0xb7, 0x28, 0x3d, 0x66, 0xc2, 0x55, 0xef, 0xbd, 0xbb, 0x18, 0x32, 0x2f, 0xc3, 0x1b, 0xf6, 
  0xfe, 0xb0, 0xf9, 0xaf, 0x19, 0x3f, 0xe8, 0xde, 0x33, 0x27, 0xc5, 0xc3, 0xff, 0x0c, 0xa2, 0x27, 
  0xf3, 0x24, 0x98, 0x2d, 0x3d, 0x3b, 0xfd, 0xe3, 0x16, 0x3c, 0x2a, 0xfb, 0x19, 0x28, 0x0d, 0x2b, 
  0x3a, 0x27, 0x06, 0x16, 0x50, 0x24, 0x22, 0x2e, 0xf5, 0x54, 0x0c, 0x1a, 0x31, 0xef, 0x8d, 0xea, 
  0xb3, 0xe3, 0x38, 0xe2, 0x5f, 0x4e, 0xcf, 0xde, 0xb8, 0xe1, 0x11, 0x73, 0x9b, 0x55, 0xd6, 0x7f, 
  0x2c, 0xd1, 0xfc, 0x0f, 0x1d, 0xe0, 0x36, 0x0a, 0x62, 0x08, 0x4c, 0xf8, 0x28, 0xf1, 0xe0, 0xe2, 
  0xff, 0xa1, 0xe9, 0xf9, 0xf3, 0x78, 0xfa, 0xcf, 0x57, 0x9b, 0xbc, 0xdf, 0xd6, 0x10, 0xc1, 0xf8, 
  0x43, 0xf5, 0x54, 0x08, 0x0f, 0x42, 0x24, 0xb9, 0x31, 0x32, 0xc0, 0xc2, 0xd8, 0x06, 0xb7, 0xc1, 
  0xf3, 0x1f, 0x60, 0xc6, 0xd6, 0xdc, 0x9f, 0x81, 0x32, 0x90, 0x55, 0x0f, 0x37, 0xc7, 0x06, 0xf1, 
  0x1e, 0x40, 0xdf, 0xd2, 0x2c, 0xdd, 0xb2, 0x3c, 0x43, 0x03, 0xf4, 0x34, 0x2e, 0x99, 0xbf, 0xeb, 
  0x55, 0x2f, 0x13, 0xb1, 0xd3, 0xb7, 0x00, 0xfd, 0xd3, 0x21, 0xcb, 0x37, 0x3f, 0x42, 0x41, 0x0b, 
  0x1a, 0xd9, 0x4f, 0x51, 0x2f, 0x16, 0xc8, 0x41, 0xa1, 0x91, 0xc3, 0x26, 0x1f, 0xf5, 0xa4, 0xd6, 
  0x1d, 0x53, 0x1a, 0xe7, 0x2c, 0x5c, 0x15, 0xc5, 0x65, 0x14, 0xa1, 0x8a, 0x5b, 0x1a, 0x03, 0x46, 
  0x31, 0x15, 0x42, 0xe0, 0x09, 0x94, 0x50, 0x33, 0xc3, 0xf8, 0xb4, 0x34, 0x31, 0x43, 0xc2, 0xd5, 
  0x97, 0x15, 0x86, 0xbb, 0x6f, 0xf1, 0x2e, 0xee, 0x40, 0xcf, 0xa9, 0xf6, 0xd1, 0x01, 0xa2, 0xad, 
  0x09, 0xa0, 0x9d, 0x21, 0xd8, 0x51, 0x4c, 0xf1, 0x40, 0xf4, 0xd4, 0xc2, 0x4a, 0x21, 0x42, 0x6a, 
  0xad, 0xf4, 0xcd, 0x60, 0x44, 0xff, 0xed, 0x33, 0xd3, 0x0b, 0x2e, 0x6e, 0x28, 0xce, 0x9d, 0x12, 
  0x43, 0x86, 0x05, 0xfa, 0xcc, 0x2a, 0x18, 0x04, 0xd0, 0x1d, 0xb9, 0x79, 0x34, 0xc9, 0x88, 0xf9, 
  0x57, 0x81, 0x66, 0x1f, 0xde, 0x24, 0x57, 0x56, 0x90, 0x04, 0xd0, 0x73, 0x14, 0x06, 0x22, 0x72, 
  0x51, 0xf5, 0x02, 0x4a, 0xd3, 0xe1, 0xc3, 0x3c, 0x4e, 0x12, 0x16, 0x4e, 0x3a, 0x20, 0xb5, 0x81, 
  0x3a, 0x59, 0xde, 0x6d, 0x20, 0x4b, 0x84, 0x0d, 0x16, 0xe6, 0x59, 0x22, 0x16, 0x81, 0xd1, 0x0b, 
  0x78, 0x00, 0xf2, 0xed, 0x0f, 0x75, 0x27, 0x00, 0xb4, 0x2e, 0x13, 0x63, 0x4f, 0xb5, 0x1a, 0x1f, 
  0x77, 0x4d, 0xad, 0xcb, 0xdd, 0x03, 0xa9, 0xc3, 0x3b, 0xd5, 0x35, 0x53, 0xc6, 0x0a, 0x36, 0x47, 
  0x0e, 0xab, 0x2a, 0xc8, 0x47, 0xc5, 0x35, 0x28, 0x42, 0xa2, 0x35, 0x00, 0x07, 0xbd, 0x97, 0xd6, 
  0x0c, 0xfd, 0x06, 0xb0, 0x9b, 0xac, 0x4a, 0xe9, 0x64, 0xb6, 0xba, 0xeb, 0xbe, 0x1d, 0x59, 0xbe, 
  0x57, 0x39, 0xcf, 0x30, 0xd9, 0xc3, 0x94, 0x1f, 0x6e, 0xac, 0x03, 0x49, 0x0c, 0x53, 0xc2, 0xd3, 
  0xe1, 0xa3, 0x29, 0xb8, 0x48, 0x3c, 0xb0, 0x2f, 0xdd, 0x08, 0xca, 0x8c, 0x2c, 0x4d, 0x11, 0xb2, 
  0x0b, 0xd8, 0xd2, 0xf3, 0x33, 0x93, 0x5c, 0x40, 0x4c, 0x1b, 0xcb, 0xd9, 0xf5, 0xaf, 0x11, 0xd5, 
  0xe8, 0xcd, 0x29, 0x35, 0x68, 0x4d, 0xb9, 0x6e, 0x1d, 0x1b, 0xc4, 0x52, 0x21, 0x60, 0xe5, 0x22, 
  0xee, 0xd8, 0x18, 0x05, 0x58, 0x9b, 0xac, 0x23, 0x9d, 0x4c, 0x4c, 0x44, 0xa3, 0xac, 0x09, 0x42, 
  0xe0, 0xd3, 0xea, 0xf9, 0x46, 0xc6, 0xba, 0xb7, 0x40, 0xe9, 0x1b, 0xb8, 0xb7, 0x56, 0x81, 0x1c, 
  0xf2, 0xae, 0xb2, 0x02, 0x3c, 0x15, 0x1c, 0xdc, 0xee, 0x62, 0xf8, 0x3e, 0xe8, 0x65, 0x17, 0x33, 
  0x07, 0xb9, 0x15, 0x12, 0x4f, 0x0d, 0x5b, 0x2a, 0xa9, 0x74, 0xf6, 0x16, 0x36, 0x0f, 0xf7, 0x6f, 
  0x99, 0x44, 0x34, 0x8d, 0x12, 0x50, 0xff, 0x31, 0x47, 0xe8, 0x25, 0xa3, 0xa0, 0x9e, 0x94, 0xd3, 
  0x2a, 0xbe, 0x90, 0xd6, 0xc0, 0xf0, 0xc8, 0xaf, 0xc4, 0x34, 0x81, 0x63, 0x19, 0x3f, 0x1f, 0x33, 
  0x11, 0x91, 0x05, 0xa1, 0xcb, 0xa7, 0xe6, 0xc7, 0xb4, 0x55, 0x26, 0x12, 0x0d, 0x25, 0xed, 0x64, 
  0x8e, 0xb5, 0xc3, 0x54, 0x0a, 0xd7, 0x38, 0x31, 0x06, 0xb9, 0x49, 0x5c, 0x9c, 0xbe, 0x2e, 0x54, 
  0x1a, 0x97, 0xb5, 0xdc, 0xf2, 0x69, 0xfa, 0xc4, 0x22, 0x0a, 0x1e, 0x14, 0xd8, 0x31, 0x94, 0x72, 
  0x17, 0xa3, 0x5a, 0xf8, 0x6b, 0x44, 0x35, 0x51, 0x5a, 0x29, 0x9d, 0x2a, 0x0f, 0x65, 0xf2, 0x26, 
  0x29, 0x9c, 0x4a, 0x07, 0x60, 0xe3, 0xa6, 0x73, 0x94, 0x02, 0xb9, 0xf3, 0xea, 0xeb, 0xc4, 0x28, 
  0x11, 0xc0, 0xea, 0x99, 0x2c, 0x04, 0x60, 0xfa, 0x2d, 0x81, 0x64, 0x5a, 0x44, 0x10, 0x9c, 0x9c, 
  0xf4, 0x0d, 0xbd, 0x0b, 0xbd, 0x0e, 0xba, 0xe2, 0x43, 0x4b, 0x40, 0xf5, 0xb5, 0xd3, 0x82, 0x9b, 
  0x3a, 0x93, 0xac, 0x08, 0xb2, 0xb7, 0xf2, 0xf2, 0x0d, 0x50, 0xf5, 0x4a, 0xde, 0xce, 0xb7, 0xd1, 
  0xe9, 0x1c, 0x14, 0x51, 0x50, 0x39, 0xc6, 0xc4, 0x2f, 0x47, 0x22, 0xf8, 0x5d, 0xe0, 0xe1, 0x3c, 
  0xc7, 0x2f, 0x63, 0xaa, 0x22, 0x7c, 0xc5, 0xee, 0x8e, 0xc7, 0x00, 0xe2, 0x23, 0x4f, 0x39, 0xd9, 
  0xee, 0x9b, 0x29, 0xfb, 0xb7, 0x7d, 0xc3, 0x1b, 0x17, 0xcd, 0xa8, 0x39, 0x28, 0x5a, 0xde, 0x4d, 
  0x56, 0xb1, 0x57, 0x39, 0x9b, 0x3b, 0xa7, 0x36, 0x2f, 0x2d, 0x89, 0x5f, 0x8b, 0xc7, 0x00, 0x70, 
  0x0f, 0xf4, 0xc1, 0x1a, 0xf1, 0x50, 0xa2, 0x1f, 0xf7, 0x45, 0xe2, 0x28, 0x55, 0x02, 0xc0, 0x15, 
  0xd6, 0x25, 0x60, 0xd8, 0xed, 0xd5, 0xfe, 0xb0, 0x4e, 0xa0, 0x4b, 0xef, 0x2b, 0x81, 0x43, 0xdd, 
  0xe9, 0x44, 0x3e, 0x4f, 0xe6, 0xba, 0x0f, 0xaa, 0xc1, 0x8c, 0x0e, 0x26, 0xda, 0xea, 0x40, 0xb6, 
  0xca, 0x3c, 0x59, 0x5a, 0xff, 0x5a, 0x27, 0xe7, 0xe6, 0xc5, 0xe1, 0x06, 0xd5, 0x2c, 0xe1, 0xdb, 
  0xc0, 0xef, 0x36, 0xd3, 0x10, 0x5b, 0x1e, 0xd7, 0x4e, 0x05, 0x1b, 0xed, 0x1f, 0x11, 0xc1, 0x93, 
  0x02, 0x02, 0x30, 0xd9, 0xc1, 0xee, 0xde, 0xfa, 0xaa, 0xfa, 0x12, 0xfc, 0xc7, 0x28, 0x45, 0x90, 
  0x02, 0xc4, 0xbc, 0x0e, 0xd9, 0x10, 0xe4, 0xb0, 0x37, 0xec, 0x34, 0xcc, 0x1a, 0x44, 0x29, 0xfb, 
  0x68, 0x2d, 0x36, 0x48, 0xdc, 0xe6, 0x3a, 0x15, 0x22, 0xe5, 0x55, 0xe8, 0x10, 0xb9, 0xb9, 0x53, 
  0xd8, 0x1c, 0xaa, 0xb8, 0x09, 0xd9, 0xeb, 0x3b, 0x3d, 0xbc, 0xfc, 0x94, 0xd9, 0x40, 0x27, 0x04, 
  0x1a, 0x1d, 0x0f, 0x01, 0x50, 0xa6, 0xc5, 0xc4, 0x23, 0x2d, 0x20, 0xb6, 0x55, 0x2f, 0x31, 0xb0, 
  0xaf, 0x16, 0xd1, 0xfb, 0xda, 0x2f, 0x18, 0x09, 0x50, 0x05, 0x5d, 0xc4, 0x09, 0x32, 0x41, 0x34, 
  0xcf, 0x2f, 0xb3, 0x43, 0x22, 0xb1, 0x1c, 0xf2, 0x26, 0x54, 0x36, 0xfd, 0xc7, 0x0e, 0x34, 0xf3, 
  0x3f, 0x2f, 0xad, 0x1d, 0x9c, 0x0e, 0xe0, 0x15, 0xc0, 0xb1, 0x27, 0x15, 0x52, 0x13, 0x7f, 0xd3, 
  0x28, 0xd8, 0xcd, 0xd4, 0xcf, 0x3b, 0x2e, 0x29, 0x23, 0xc1, 0x24, 0x06, 0x04, 0x18, 0x23, 0xc1, 
  0x05, 0x1e, 0xbe, 0x31, 0xba, 0x43, 0x2a, 0xdc, 0x2d, 0xda, 0x55, 0x4e, 0x1e, 0x2b, 0xea, 0x9f, 
  0xf9, 0x34, 0xf4, 0x2f, 0x02, 0xfb, 0xe3, 0x81, 0x16, 0xdf, 0xd6, 0x24, 0x55, 0x36, 0xaa, 0xde, 
  0xd1, 0xc6, 0xe3, 0xfe, 0x4f, 0x5c, 0xd1, 0xaa, 0x21, 0x92, 0x3d, 0xbe, 0xe1, 0x40, 0x2e, 0x22, 
  0xf2, 0xca, 0x21, 0x4a, 0x9c, 0x65, 0x18, 0x1d, 0x07, 0xda, 0xa4, 0x38, 0xa2, 0xaf, 0x10, 0x2e, 
  0x43, 0x34, 0xbb, 0xb7, 0xd2, 0xd4, 0xae, 0xdd, 0x1d, 0xe3, 0x2e, 0xca, 0x55, 0xcc, 0xcb, 0xb0, 
  0xb0, 0xfc, 0x75, 0x1a, 0x15, 0x38, 0xda, 0x0a, 0x08, 0x99, 0xf7, 0x15, 0x31, 0x9a, 0x9b, 0x1d, 
  0x0e, 0x1a, 0x2f, 0x56, 0xaf, 0x24, 0xd7, 0x02, 0xa0, 0x3f, 0x43, 0x42, 0xe8, 0xd9, 0x1f, 0xf0, 
  0x08, 0xf3, 0x6c, 0x32, 0xac, 0xd3, 0xdb, 0x0e, 0x58, 0xdd, 0x0f, 0xdf, 0x0d, 0x2d, 0x0a, 0xd6, 
  0x74, 0x98, 0x43, 0xe4, 0xcf, 0xe0, 0xfc, 0x24, 0x09, 0xb3, 0x5f, 0x2b, 0x34, 0xf0, 0x9d, 0x8c, 
  0x7f, 0x9c, 0x44, 0xef, 0xb2, 0x4e, 0x37, 0xd6, 0x06, 0xd2, 0xe6, 0xd8, 0xfa, 0xf4, 0xed, 0x89, 
  0x19, 0x53, 0x3a, 0x50, 0x3d, 0xc1, 0xf8, 0x94, 0x05, 0xf3, 0xb1, 0xd8, 0xe8, 0xa1, 0xe7, 0xfb, 
  0x4f, 0x37, 0xde, 0xdf, 0xc3, 0xe0, 0x8a, 0x41, 0xd3, 0x8a, 0x06, 0x1c, 0x51, 0xd2, 0x9d, 0xb3, 
  0x46, 0x52, 0x02, 0x21, 0xf7, 0x12, 0x0f, 0x42, 0x2c, 0x38, 0x9c, 0x28, 0xdd, 0xe3, 0xf1, 0x2b, 
  0x37, 0x6d, 0x5d, 0xf2, 0xe8, 0xd8, 0xc8, 0x36, 0xed, 0x2c, 0x3d, 0xf8, 0x13, 0xed, 0xf9, 0x96, 
  0xe3, 0x00, 0x7b, 0x0e, 0xd0, 0x24, 0x3d, 0xe8, 0xf6, 0x46, 0xd5, 0xad, 0xf1, 0x0d, 0x30, 0x2a, 
  0xc5, 0x11, 0x10, 0x4c, 0xe4, 0x2b, 0xf7, 0x5d, 0xe5, 0x35, 0xc4, 0x2f, 0xcf, 0x5d, 0x3a, 0xaf, 
  0x10, 0x01, 0x0b, 0xb0, 0x17, 0x9c, 0xcd, 0x10, 0xfc, 0x34, 0x20, 0x3c, 0x47, 0xfe, 0x66, 0xa9, 
  0xab, 0x56, 0x49, 0x29, 0xed, 0x35, 0xbb, 0x2a, 0x4d, 0x61, 0x4e, 0xe1, 0xfa, 0xc4, 0x20, 0x31, 
  0xc5, 0xeb, 0x40, 0xf2, 0xba, 0xaf, 0xe9, 0xf3, 0x0b, 0x50, 0x5b, 0x40, 0x26, 0x41, 0x42, 0x16, 
  0x02, 0xad, 0xeb, 0x27, 0x26, 0x31, 0x38, 0x9a, 0xbb, 0x40, 0x01, 0xb3, 0x15, 0xb3, 0xff, 0xcb, 
  0xef, 0xf2, 0xf5, 0xd6, 0xd5, 0x26, 0xb5, 0xca, 0xae, 0x21, 0xc6, 0x81, 0xfe, 0xfa, 0xfb, 0xbb, 
  0xf3, 0x2d, 0xc7, 0x1d, 0xe7, 0x18, 0xb3, 0xdf, 0x35, 0xfd, 0x09, 0xd2, 0x20, 0x53, 0xf6, 0xe4, 
  0xff, 0x42, 0xff, 0xb3, 0x19, 0x17, 0x11, 0x22, 0xab, 0x27, 0xf3, 0x19, 0xe8, 0x4c, 0x23, 0xad, 
  0xbc, 0x2a, 0x4b, 0xb6, 0xc1, 0x14, 0xd1, 0xd3, 0xcd, 0xe0, 0xeb, 0x9c, 0x1e, 0x47, 0xca, 0xe4, 
  0xc0, 0xbb, 0x39, 0xb5, 0xd0, 0xf7, 0xc8, 0xbe, 0xc7, 0x05, 0x32, 0x34, 0xd2, 0x0d, 0x26, 0x05, 
  0x24, 0x15, 0xaa, 0x00, 0xd3, 0xbc, 0x48, 0xa8, 0x14, 0xda, 0xef, 0xa1, 0x33, 0x24, 0x5d, 0x14, 
  0xc5, 0xbc, 0xce, 0x12, 0xb6, 0x28, 0x15, 0xb9, 0x3d, 0xb3, 0xe2, 0x30, 0x21, 0xae, 0x3a, 0xee, 
  0x20, 0xd5, 0x3f, 0x18, 0x08, 0xc3, 0xe3, 0x01, 0x1b, 0x06, 0xe0, 0xc2, 0x02, 0xaf, 0x7f, 0x33, 
  0xac, 0xe5, 0xbf, 0xd8, 0xf4, 0xdf, 0x3a, 0xe6, 0x0c, 0x35, 0x58, 0xe1, 0x9f, 0x07, 0xb3, 0xd2, 
  0x51, 0xa0, 0xf2, 0x14, 0xf2, 0xeb, 0xcf, 0x32, 0x29, 0x1c, 0x8a, 0x28, 0x4f, 0xaf, 0x3e, 0x34, 
  0xea, 0x33, 0x0e, 0xe8, 0x66, 0x96, 0xc2, 0x1d, 0x01, 0x02, 0x0e, 0x30, 0x31, 0x0b, 0x2f, 0xe2, 
  0x39, 0x85, 0xea, 0xa1, 0xc7, 0xea, 0x70, 0x41, 0x96, 0xca, 0x21, 0x14, 0xf3, 0xe4, 0xa7, 0x21, 
  0xa8, 0x89, 0x31, 0x92, 0x0f, 0x09, 0x15, 0x19, 0x15, 0xa0, 0xdd, 0xd2, 0xa2, 0xec, 0x18, 0x6b, 
  0x24, 0x8d, 0xc3, 0x43, 0xcf, 0x22, 0xdb, 0x38, 0x8d, 0xf9, 0xb2, 0x00, 0x3f, 0x7f, 0xcc, 0x56, 
  0x2b, 0xe8, 0x47, 0xd7, 0x20, 0x32, 0x22, 0xe5, 0x0d, 0x14, 0xa7, 0xdb, 0x0a, 0x4b, 0xad, 0xd0, 
  0xcb, 0xf2, 0xc5, 0xe3, 0x5c, 0xc5, 0x48, 0xe0, 0x94, 0x41, 0x35, 0x08, 0xe9, 0xdc, 0xf2, 0x1e, 
  0xb9, 0x5a, 0x19, 0x2c, 0x86, 0xff, 0x49, 0xf4, 0x2d, 0x0f, 0x26, 0xe9, 0x36, 0x42, 0x50, 0xd7, 
  0x2d, 0xe4, 0xa3, 0x27, 0xad, 0x2b, 0xed, 0x42, 0x03, 0xf2, 0xd5, 0xb5, 0x1a, 0x31, 0x20, 0x2f, 
  0xd8, 0xaf, 0x2a, 0x07, 0x24, 0xa3, 0x11, 0xe6, 0xf0, 0x08, 0xf5, 0x81, 0x9d, 0x8f, 0x1e, 0x1d, 
  0x11, 0x30, 0xe4, 0xe4, 0xb8, 0x18, 0xec, 0xd3, 0xb8, 0x26, 0x39, 0xf0, 0xae, 0x09, 0x3b, 0xd9, 
  0xd9, 0xac, 0xf6, 0x2d, 0x37, 0x0f, 0xad, 0x11, 0xd9, 0x3b, 0x4b, 0xdf, 0x60, 0x8c, 0x05, 0x17, 
  0xc1, 0x9a, 0x2f, 0xb9, 0x4e, 0xf6, 0xc5, 0x90, 0xca, 0x2b, 0xe5, 0x0c, 0x41, 0x2e, 0x60, 0x98, 
  0xb0, 0xe7, 0x16, 0x59, 0x30, 0x2d, 0x08, 0x0b, 0x06, 0x5d, 0xf9, 0x21, 0x46, 0x58, 0xa4, 0xd6, 
  0xab, 0xda, 0xb7, 0x93, 0x98, 0x29, 0xe0, 0x74, 0xad, 0x4d, 0x1f, 0xd2, 0x1b, 0x6d, 0x30, 0xd9, 
  0xda, 0x61, 0x5c, 0x81, 0xbb, 0x29, 0xd1, 0xfc, 0x52, 0x2f, 0xa4, 0xc5, 0x1c, 0x07, 0x06, 0x3b, 
  0x1b, 0x61, 0x33, 0xb2, 0xc4, 0xc6, 0xb3, 0xe2, 0xe2, 0x5b, 0xff, 0xc6, 0xa6, 0x03, 0x0f, 0xf2, 
  0x12, 0xcc, 0xef, 0x48, 0x50, 0xd7, 0xad, 0x27, 0xb6, 0x69, 0x17, 0x17, 0x27, 0xa6, 0x48, 0x55, 
  0x1f, 0x2c, 0x06, 0xf7, 0xa1, 0xb9, 0xe1, 0xd1, 0xf8, 0x1e, 0xfc, 0xe7, 0x29, 0xb9, 0xfb, 0xa0, 
  0xea, 0x30, 0x30, 0xaf, 0x0b, 0x85, 0xcb, 0xa2, 0x3c, 0x30, 0xfc, 0x31, 0xe1, 0x26, 0xf9, 0x2f, 
  0xaa, 0x71, 0x9f, 0xbc, 0xeb, 0x24, 0xbb, 0x49, 0xbc, 0x06, 0xde, 0xc8, 0xc7, 0x9d, 0x1b, 0x53, 
  0x55, 0xe3, 0x23, 0x1b, 0xb9, 0x4b, 0xbd, 0xe8, 0xe6, 0xc9, 0xc9, 0xe1, 0x40, 0x31, 0x5e, 0xc5, 
  0xe2, 0x4b, 0x2f, 0xd3, 0xe1, 0x51, 0xf4, 0x48, 0xd9, 0x51, 0x0f, 0xee, 0xcc, 0x9c, 0x68, 0x83, 
  0x20, 0x34, 0xc7, 0x0c, 0xa6, 0xca, 0x05, 0xc4, 0xd9, 0x4c, 0xb5, 0x0f, 0xcf, 0xdb, 0x6b, 0xf4, 
  0xa9, 0xf9, 0xaa, 0x0a, 0x3b, 0x43, 0xe5, 0xfb, 0xe4, 0xd3, 0x2e, 0xb7, 0x47, 0x25, 0x11, 0x04, 
  0x3e, 0x55, 0x24, 0x16, 0x21, 0x9b, 0x9f, 0xc3, 0xb2, 0xf3, 0x46, 0x43, 0x30, 0xc5, 0x3b, 0xea, 
  0x9e, 0x9d, 0x44, 0xbb, 0x2c, 0x4b, 0xe6, 0x1e, 0xf0, 0x0d, 0x6b, 0x3a, 0xa6, 0xb0, 0x7f, 0x45, 
  0x5e, 0xc2, 0xcb, 0xe5, 0xcf, 0xe6, 0x09, 0xce, 0x0c, 0xdf, 0xf1, 0x0b, 0x22, 0x4e, 0xee, 0x60, 
  0xbd, 0xf2, 0x12, 0x22, 0x54, 0xbf, 0x3f, 0x32, 0xe5, 0x7f, 0x34, 0xc2, 0x22, 0x5a, 0x2d, 0x5d, 
  0x31, 0x55, 0x11, 0xf9, 0xd5, 0xc1, 0x47, 0x0d, 0xa8, 0x35, 0xb3, 0xfe, 0x55, 0xf1, 0x3a, 0xc0, 
  0xc5, 0x47, 0xe0, 0x54, 0xdd, 0xa5, 0xde, 0x08, 0xcc, 0xba, 0xbc, 0x61, 0x17, 0x48, 0x34, 0xb7, 
  0xb7, 0xe1, 0x52, 0x48, 0x44, 0xa6, 0xdb, 0x21, 0x24, 0x15, 0xf8, 0xf7, 0x59, 0xd0, 0xe0, 0xfd, 
  0x44, 0xf9, 0xe5, 0x0f, 0x4c, 0x50, 0xab, 0xe0, 0xc6, 0xf2, 0x5f, 0xf8, 0xb1, 0x42, 0x1c, 0xf8, 
  0xe3, 0xd0, 0x4b, 0x0b, 0x26, 0xf2, 0xf0, 0xe0, 0xc2, 0x0f, 0xde, 0xf0, 0x18, 0x04, 0xdb, 0x0b, 
  0xac, 0xff, 0xcc, 0x48, 0x3d, 0x9d, 0x4d, 0xa2, 0xb7, 0x13, 0xca, 0xd3, 0xf9, 0xd2, 0xc5, 0x66, 
  0x3b, 0xdf, 0xb4, 0x4f, 0x41, 0x24, 0x03, 0x39, 0x1d, 0xe7, 0x06, 0x35, 0x11, 0x37, 0x0b, 0x48, 
  0x03, 0xf8, 0xa4, 0xb6, 0x6c, 0xe5, 0x63, 0xc0, 0xa3, 0x0a, 0x56, 0x97, 0xeb, 0xaf, 0xa0, 0xdc, 
  0x4b, 0x4a, 0x86, 0x13, 0xbe, 0x00, 0xc2, 0x61, 0xe3, 0x26, 0x1f, 0x5a, 0x27, 0xe4, 0x8d, 0x56, 
  0xdf, 0x13, 0xbf, 0x3c, 0x54, 0xe9, 0x0a, 0xb1, 0x41, 0x45, 0x9e, 0x66, 0xa3, 0xc0, 0xc2, 0x11, 
  0xed, 0xe9, 0x5a, 0xc2, 0x55, 0xa2, 0x7f, 0x10, 0x00, 0x6b, 0x8e, 0x5f, 0xfa, 0xfe, 0x27, 0x30, 
  0x9e, 0xe1, 0xce, 0x39, 0xc4, 0x1e, 0xe0, 0xc0, 0xd7, 0xd0, 0xfa, 0x5f, 0x1d, 0x55, 0xb9, 0x6c, 
  0xd1, 0x3a, 0xde, 0xcd, 0x0e, 0x32, 0xcc, 0xd3, 0xb3, 0xc6, 0xee, 0x28, 0x30, 0xe3, 0x5f, 0x4f, 
  0xc2, 0x1c, 0x04, 0x21, 0xc1, 0xe6, 0xbf, 0xe0, 0xb9, 0x2a, 0x23, 0xfb, 0x05, 0x5f, 0x13, 0x19, 
  0xce, 0x23, 0x2a, 0x32, 0x44, 0x30, 0xcd, 0x13, 0x3a, 0x43, 0xd5, 0xa5, 0xc7, 0x31, 0x73, 0x23, 
  0xe4, 0x39, 0xe8, 0x09, 0x49, 0xff, 0xfb, 0x34, 0xcd, 0xbd, 0x33, 0x9d, 0xdb, 0x3c, 0x79, 0xf0, 
  0xef, 0x00, 0xe7, 0x12, 0xa7, 0x0e, 0xab, 0x2b, 0xad, 0x42, 0x34, 0x21, 0xe8, 0xd3, 0x5d, 0xf5, 
  0x45, 0x46, 0x35, 0x61, 0xfd, 0x43, 0xee, 0xd0, 0x40, 0x61, 0xc4, 0x9b, 0xf4, 0xb2, 0x27, 0x81, 
  0xa4, 0x4b, 0x2d, 0xd5, 0xe6, 0x23, 0x59, 0x36, 0xa3, 0x26, 0x2c, 0x97, 0x38, 0x36, 0xe0, 0x99, 
  0xa1, 0x01, 0xc4, 0x53, 0x47, 0x96, 0x02, 0xac, 0x5f, 0xea, 0x25, 0x5e, 0xf0, 0x9d, 0xa5, 0x00, 
  0xc8, 0x0d, 0xdf, 0x4d, 0xaa, 0x3d, 0xd9, 0x8f, 0xf2, 0x81, 0x25, 0xc5, 0x5d, 0xb7, 0x05, 0x91, 
  0xbf, 0x72, 0x21, 0x4e, 0xd7, 0x0f, 0x4f, 0x8c, 0xc5, 0x91, 0x09, 0xf1, 0xc1, 0xfd, 0x1e, 0x1b, 
  0xec, 0x1e, 0x05, 0x3f, 0x16, 0x76, 0x96, 0xf0, 0x2e, 0xd0, 0xb4, 0x4e, 0x32, 0xe6, 0x24, 0x0c, 
  0x0f, 0x64, 0x78, 0xbc, 0xb0, 0x46, 0xbc, 0x2c, 0x1d, 0xd3, 0xa2, 0x3f, 0x0d, 0x35, 0x1b, 0xbd, 
  0x35, 0x46, 0x24, 0xd5, 0x20, 0xdc, 0xec, 0xbd, 0x27, 0xf3, 0x14, 0x60, 0x09, 0x0d, 0x1e, 0xb1, 
  0xe3, 0xd5, 0x32, 0xd4, 0xc9, 0x06, 0xab, 0xdb, 0x43, 0x09, 0xaa, 0xe5, 0x42, 0x1d, 0xa7, 0xe7, 
  0x17, 0xe4, 0xcd, 0x18, 0x33, 0xec, 0x2c, 0x00, 0x42, 0xb6, 0xfc, 0x24, 0xa5, 0xbe, 0xc8, 0x23, 
  0xd9, 0x6b, 0x5d, 0xe7, 0x39, 0x2b, 0x1e, 0xfb, 0xbe, 0x2a, 0xb4, 0xfe, 0x06, 0xc8, 0x42, 0xb4, 
  0xc3, 0x31, 0xaf, 0x8f, 0x9b, 0x00, 0xdb, 0x0a, 0xd2, 0x4f, 0x52, 0xfc, 0x1f, 0x0f, 0x12, 0xf5, 
  0x95, 0x6a, 0x29, 0xfb, 0xa8, 0x9f, 0xeb, 0x37, 0xb1, 0x5c, 0x3a, 0x48, 0x39, 0x18, 0x7a, 0x97, 
  0x0a, 0xda, 0xcb, 0x5e, 0x44, 0xcd, 0x01, 0x20, 0x3b, 0x4d, 0xd9, 0x18, 0x15, 0xce, 0x24, 0xdc, 
  0x47, 0x7f, 0x9e, 0x2b, 0x3f, 0xdf, 0x1f, 0x53, 0x22, 0x24, 0x55, 0x2d, 0xb3, 0x48, 0x26, 0x00, 
  0x4b, 0xf6, 0xbb, 0xc1, 0x09, 0x1a, 0x32, 0x0f, 0xa8, 0x48, 0xce, 0xdb, 0x1f, 0x55, 0xe6, 0xdf, 
  0x9d, 0x09, 0x10, 0xea, 0xb9, 0xfd, 0xc1, 0x23, 0x4b, 0xca, 0xb0, 0xc7, 0xb6, 0x01, 0xfd, 0xfc, 
  0xc2, 0xdb, 0x11, 0x10, 0xa2, 0x27, 0x10, 0x51, 0xbe, 0x19, 0xe5, 0x21, 0xc5, 0x1b, 0xd7, 0x17, 
  0x56, 0xc3, 0xf2, 0x3e, 0xf2, 0xc7, 0x15, 0x96, 0x06, 0x1c, 0x25, 0xeb, 0x4a, 0x93, 0x45, 0x31, 
  0xd1, 0x2c, 0xc4, 0xb5, 0x19, 0xb1, 0x44, 0xf2, 0xb6, 0xa1, 0x33, 0xcc, 0xc6, 0x25, 0x2e, 0x8a, 
  0x1b, 0x50, 0x2b, 0x31, 0xfc, 0xe6, 0x31, 0x24, 0xf8, 0x0a, 0xcd, 0x41, 0x27, 0xf4, 0x1c, 0x81, 
  0xe4, 0x4f, 0xad, 0xc6, 0xa8, 0xd1, 0x0f, 0x18, 0x32, 0xc0, 0x3f, 0x34, 0x17, 0x03, 0x62, 0xeb, 
  0xb1, 0xb7, 0xaf, 0x43, 0xf6, 0x05, 0x4c, 0xdf, 0x4b, 0x93, 0x67, 0x0f, 0xef, 0x8e, 0x27, 0x3f, 
  0xfb, 0x51, 0x27, 0x30, 0xad, 0x25, 0xdf, 0x8e, 0x0f, 0xbf, 0xa1, 0x99, 0x9f, 0x01, 0xec, 0x44, 
  0xf8, 0xfe, 0x81, 0x20, 0x15, 0xfa, 0xd0, 0x0b, 0x51, 0xf4, 0xfa, 0x53, 0xb7, 0xb7, 0xeb, 0xbf, 
  0xf6, 0xd7, 0x93, 0x48, 0xbe, 0xfc, 0x1d, 0x57, 0x1e, 0xcd, 0xfc, 0x2c, 0x08, 0x27, 0x3c, 0x1d, 
  0xe4, 0xfa, 0xbb, 0xfb, 0x14, 0xd2, 0xf4, 0x44, 0x5a, 0xd4, 0xa1, 0xa5, 0xa6, 0x33, 0xc6, 0x54, 
  0x42, 0xf8, 0x17, 0x06, 0x73, 0xa6, 0x0f, 0xbd, 0x0c, 0xad, 0xbd, 0x46, 0xf2, 0x32, 0x9d, 0x2c, 
  0x8a, 0xca, 0xf2, 0xb5, 0x41, 0x08, 0xb7, 0x17, 0x55, 0x19, 0xa4, 0xbb, 0x2c, 0x5d, 0xcc, 0x62, 
  0x00, 0x18, 0x03, 0x02, 0x3a, 0x5a, 0xd8, 0x08, 0xcd, 0xdf, 0x8d, 0x5f, 0xaf, 0x03, 0xf6, 0x51, 
  0xbf, 0xc2, 0xa6, 0xbd, 0xe4, 0xea, 0xe2, 0xe1, 0xce, 0xf0, 0xff, 0xff, 0x00, 0x00, 0x00, 0x09, 
  0x10, 0x00, 0x00, 0x00, 0x12, 0x00, 0x00, 0x00, 0x1c, 0x00, 0x00, 0x00, 0x38, 0x00, 0x00, 0x00, 
  0x04, 0x00, 0x00, 0x00, 0x20, 0x00, 0x00, 0x00, 0x01, 0x00, 0x00, 0x00, 0x07, 0x00, 0x00, 0x00, 
  0x10, 0x00, 0x00, 0x00, 0x1a, 0x00, 0x00, 0x00, 0x73, 0x65, 0x71, 0x75, 0x65, 0x6e, 0x74, 0x69, 
  0x61, 0x6c, 0x2f, 0x63, 0x6f, 0x6e, 0x76, 0x31, 0x64, 0x5f, 0x32, 0x2f, 0x63, 0x6f, 0x6e, 0x76, 
  0x31, 0x64, 0x00, 0x00, 0x7c, 0xf4, 0xff, 0xff, 0x08, 0x00, 0x00, 0x00, 0x88, 0x00, 0x00, 0x00, 
  0x20, 0x00, 0x00, 0x00, 0xa0, 0x17, 0x97, 0x3a, 0xb6, 0xc1, 0xab, 0x3a, 0x3e, 0xbb, 0x9a, 0x3a, 
  0x91, 0x16, 0xa1, 0x3a, 0x30, 0x98, 0xad, 0x3a, 0x72, 0x7e, 0xae, 0x3a, 0xe8, 0x7e, 0xad, 0x3a, 
  0x71, 0x58, 0x9d, 0x3a, 0xcd, 0x8a, 0xcb, 0x3a, 0x6f, 0x5d, 0xb3, 0x3a, 0x0a, 0xc6, 0x9f, 0x3a, 
  0x1e, 0x10, 0x9f, 0x3a, 0xf6, 0x63, 0xa2, 0x3a, 0xe2, 0x1c, 0x9a, 0x3a, 0xfb, 0x70, 0x9f, 0x3a, 
  0x12, 0xf3, 0xb2, 0x3a, 0x9c, 0x79, 0xaf, 0x3a, 0xed, 0x51, 0xac, 0x3a, 0xd1, 0xf1, 0xa5, 0x3a, 
  0xc7, 0xbd, 0xb0, 0x3a, 0xfe, 0x24, 0xc8, 0x3a, 0xc6, 0x33, 0xa0, 0x3a, 0x28, 0x10, 0xb4, 0x3a, 
  0x66, 0x3c, 0xa7, 0x3a, 0x4e, 0xdb, 0xab, 0x3a, 0xb7, 0xb7, 0xba, 0x3a, 0xd9, 0xc9, 0xa5, 0x3a, 
  0x16, 0x26, 0xa8, 0x3a, 0x95, 0xa7, 0xb4, 0x3a, 0x8f, 0x7b, 0xa6, 0x3a, 0xbc, 0x17, 0xb9, 0x3a, 
  0x42, 0xa3, 0x9e, 0x3a, 0x20, 0x00, 0x00, 0x00, 0x00, 0x00, 0x00, 0x00, 0x00, 0x00, 0x00, 0x00, 
  0x00, 0x00, 0x00, 0x00, 0x00, 0x00, 0x00, 0x00, 0x00, 0x00, 0x00, 0x00, 0x00, 0x00, 0x00, 0x00, 
  0x00, 0x00, 0x00, 0x00, 0x00, 0x00, 0x00, 0x00, 0x00, 0x00, 0x00, 0x00, 0x00, 0x00, 0x00, 0x00, 
  0x00, 0x00, 0x00, 0x00, 0x00, 0x00, 0x00, 0x00, 0x00, 0x00, 0x00, 0x00, 0x00, 0x00, 0x00, 0x00, 
  0x00, 0x00, 0x00, 0x00, 0x00, 0x00, 0x00, 0x00, 0x00, 0x00, 0x00, 0x00, 0x00, 0x00, 0x00, 0x00, 
  0x00, 0x00, 0x00, 0x00, 0x00, 0x00, 0x00, 0x00, 0x00, 0x00, 0x00, 0x00, 0x00, 0x00, 0x00, 0x00, 
  0x00, 0x00, 0x00, 0x00, 0x00, 0x00, 0x00, 0x00, 0x00, 0x00, 0x00, 0x00, 0x00, 0x00, 0x00, 0x00, 
  0x00, 0x00, 0x00, 0x00, 0x00, 0x00, 0x00, 0x00, 0x00, 0x00, 0x00, 0x00, 0x00, 0x00, 0x00, 0x00, 
  0x00, 0x00, 0x00, 0x00, 0x00, 0x00, 0x00, 0x00, 0x00, 0x00, 0x00, 0x00, 0x00, 0x00, 0x00, 0x00, 
  0x00, 0x00, 0x00, 0x00, 0x00, 0x00, 0x00, 0x00, 0x00, 0x00, 0x00, 0x00, 0x00, 0x00, 0x00, 0x00, 
  0x00, 0x00, 0x00, 0x00, 0x00, 0x00, 0x00, 0x00, 0x00, 0x00, 0x00, 0x00, 0x00, 0x00, 0x00, 0x00, 
  0x00, 0x00, 0x00, 0x00, 0x00, 0x00, 0x00, 0x00, 0x00, 0x00, 0x00, 0x00, 0x00, 0x00, 0x00, 0x00, 
  0x00, 0x00, 0x00, 0x00, 0x00, 0x00, 0x00, 0x00, 0x00, 0x00, 0x00, 0x00, 0x00, 0x00, 0x00, 0x00, 
  0x00, 0x00, 0x00, 0x00, 0x00, 0x00, 0x00, 0x00, 0x00, 0x00, 0x00, 0x00, 0x00, 0x00, 0x00, 0x00, 
  0x00, 0x00, 0x00, 0x00, 0x00, 0x00, 0x00, 0x00, 0x00, 0x00, 0x00, 0x00, 0x00, 0x00, 0x00, 0x00, 
  0x00, 0x00, 0x00, 0x00, 0x00, 0x00, 0x00, 0x00, 0x00, 0x00, 0x00, 0x00, 0x00, 0x00, 0x00, 0x00, 
  0x00, 0x00, 0x00, 0x00, 0x00, 0x00, 0x00, 0x00, 0xc6, 0xf2, 0xff, 0xff, 0x04, 0x00, 0x00, 0x00, 
  0x10, 0x00, 0x00, 0x00, 0xe2, 0xee, 0xd2, 0xea, 0xb0, 0x86, 0xd5, 0xdc, 0xf1, 0xda, 0x02, 0xd9, 
  0xe3, 0xf5, 0x10, 0x80, 0xca, 0xf2, 0xff, 0xff, 0x00, 0x00, 0x00, 0x09, 0x10, 0x00, 0x00, 0x00, 
  0x11, 0x00, 0x00, 0x00, 0x10, 0x00, 0x00, 0x00, 0x40, 0x00, 0x00, 0x00, 0x01, 0x00, 0x00, 0x00, 
  0x10, 0x00, 0x00, 0x00, 0x2e, 0x00, 0x00, 0x00, 0x73, 0x65, 0x71, 0x75, 0x65, 0x6e, 0x74, 0x69, 
  0x61, 0x6c, 0x2f, 0x62, 0x61, 0x74, 0x63, 0x68, 0x5f, 0x6e, 0x6f, 0x72, 0x6d, 0x61, 0x6c, 0x69, 
  0x7a, 0x61, 0x74, 0x69, 0x6f, 0x6e, 0x5f, 0x31, 0x2f, 0x62, 0x61, 0x74, 0x63, 0x68, 0x6e, 0x6f, 
  0x72, 0x6d, 0x2f, 0x73, 0x75, 0x62, 0x00, 0x00, 0x80, 0xf6, 0xff, 0xff, 0x08, 0x00, 0x00, 0x00, 
  0x0c, 0x00, 0x00, 0x00, 0x01, 0x00, 0x00, 0x00, 0x22, 0x20, 0x30, 0x3b, 0x01, 0x00, 0x00, 0x00, 
  0x7f, 0x00, 0x00, 0x00, 0x00, 0x00, 0x00, 0x00, 0x56, 0xf3, 0xff, 0xff, 0x04, 0x00, 0x00, 0x00, 
  0x10, 0x00, 0x00, 0x00, 0x35, 0x7f, 0x52, 0x68, 0x21, 0x25, 0x4f, 0x7b, 0x62, 0x57, 0x75, 0x3b, 
  0x70, 0x54, 0x77, 0x3c, 0x5a, 0xf3, 0xff, 0xff, 0x00, 0x00, 0x00, 0x09, 0x10, 0x00, 0x00, 0x00, 
  0x10, 0x00, 0x00, 0x00, 0x10, 0x00, 0x00, 0x00, 0x40, 0x00, 0x00, 0x00, 0x01, 0x00, 0x00, 0x00, 
  0x10, 0x00, 0x00, 0x00, 0x2e, 0x00, 0x00, 0x00, 0x73, 0x65, 0x71, 0x75, 0x65, 0x6e, 0x74, 0x69, 
  0x61, 0x6c, 0x2f, 0x62, 0x61, 0x74, 0x63, 0x68, 0x5f, 0x6e, 0x6f, 0x72, 0x6d, 0x61, 0x6c, 0x69, 
  0x7a, 0x61, 0x74, 0x69, 0x6f, 0x6e, 0x5f, 0x31, 0x2f, 0x62, 0x61, 0x74, 0x63, 0x68, 0x6e, 0x6f, 
  0x72, 0x6d, 0x2f, 0x6d, 0x75, 0x6c, 0x00, 0x00, 0x10, 0xf7, 0xff, 0xff, 0x08, 0x00, 0x00, 0x00, 
  0x0c, 0x00, 0x00, 0x00, 0x01, 0x00, 0x00, 0x00, 0xc7, 0x8d, 0x0e, 0x3c, 0x01, 0x00, 0x00, 0x00, 
  0x80, 0xff, 0xff, 0xff, 0xff, 0xff, 0xff, 0xff, 0x00, 0x00, 0x00, 0x00, 0xea, 0xf3, 0xff, 0xff, 
  0x04, 0x00, 0x00, 0x00, 0x40, 0x00, 0x00, 0x00, 0xef, 0x09, 0x00, 0x00, 0xb7, 0xfa, 0xff, 0xff, 
  0xb6, 0x08, 0x00, 0x00, 0xd7, 0x0f, 0x00, 0x00, 0x80, 0x07, 0x00, 0x00, 0x91, 0xfa, 0xff, 0xff, 
  0xce, 0xfa, 0xff, 0xff, 0xed, 0xff, 0xff, 0xff, 0xe4, 0x02, 0x00, 0x00, 0xe7, 0xf8, 0xff, 0xff, 
  0x38, 0x07, 0x00, 0x00, 0xc4, 0x0b, 0x00, 0x00, 0x92, 0x01, 0x00, 0x00, 0xba, 0x06, 0x00, 0x00, 
  0x05, 0x02, 0x00, 0x00, 0x37, 0x02, 0x00, 0x00, 0x1e, 0xf4, 0xff, 0xff, 0x00, 0x00, 0x00, 0x02, 
  0x10, 0x00, 0x00, 0x00, 0x0f, 0x00, 0x00, 0x00, 0x10, 0x00, 0x00, 0x00, 0xa0, 0x00, 0x00, 0x00, 
  0x01, 0x00, 0x00, 0x00, 0x10, 0x00, 0x00, 0x00, 0x8d, 0x00, 0x00, 0x00, 0x73, 0x65, 0x71, 0x75, 
  0x65, 0x6e, 0x74, 0x69, 0x61, 0x6c, 0x2f, 0x63, 0x6f, 0x6e, 0x76, 0x31, 0x64, 0x5f, 0x31, 0x2f, 
  0x42, 0x69, 0x61, 0x73, 0x41, 0x64, 0x64, 0x3b, 0x73, 0x65, 0x71, 0x75, 0x65, 0x6e, 0x74, 0x69, 
  0x61, 0x6c, 0x2f, 0x63, 0x6f, 0x6e, 0x76, 0x31, 0x64, 0x5f, 0x31, 0x2f, 0x63, 0x6f, 0x6e, 0x76, 
  0x31, 0x64, 0x2f, 0x53, 0x71, 0x75, 0x65, 0x65, 0x7a, 0x65, 0x3b, 0x73, 0x65, 0x71, 0x75, 0x65, 
  0x6e, 0x74, 0x69, 0x61, 0x6c, 0x2f, 0x63, 0x6f, 0x6e, 0x76, 0x31, 0x64, 0x5f, 0x31, 0x2f, 0x42, 
  0x69, 0x61, 0x73, 0x41, 0x64, 0x64, 0x2f, 0x52, 0x65, 0x61, 0x64, 0x56, 0x61, 0x72, 0x69, 0x61, 
  0x62, 0x6c, 0x65, 0x4f, 0x70, 0x2f, 0x72, 0x65, 0x73, 0x6f, 0x75, 0x72, 0x63, 0x65, 0x3b, 0x73, 
  0x65, 0x71, 0x75, 0x65, 0x6e, 0x74, 0x69, 0x61, 0x6c, 0x2f, 0x63, 0x6f, 0x6e, 0x76, 0x31, 0x64, 
  0x5f, 0x31, 0x2f, 0x63, 0x6f, 0x6e, 0x76, 0x31, 0x64, 0x00, 0x00, 0x00, 0x34, 0xf8, 0xff, 0xff, 
  0x08, 0x00, 0x00, 0x00, 0x48, 0x00, 0x00, 0x00, 0x10, 0x00, 0x00, 0x00, 0xed, 0x40, 0x82, 0x37, 
  0xf2, 0x45, 0x6f, 0x37, 0xd7, 0x06, 0x6c, 0x37, 0xe7, 0x15, 0x8c, 0x37, 0xe9, 0x0f, 0x6c, 0x37, 
  0x26, 0xc5, 0x75, 0x37, 0x80, 0x17, 0x5a, 0x37, 0x88, 0x1a, 0x41, 0x37, 0xe1, 0x9c, 0x54, 0x37, 
  0xa6, 0x4d, 0x4e, 0x37, 0x8f, 0xfc, 0x57, 0x37, 0xe4, 0x8b, 0x89, 0x37, 0x88, 0xea, 0x4f, 0x37, 
  0x0f, 0x9b, 0x5d, 0x37, 0xfc, 0xf3, 0x54, 0x37, 0xf3, 0xbb, 0x6b, 0x37, 0x10, 0x00, 0x00, 0x00, 
  0x00, 0x00, 0x00, 0x00, 0x00, 0x00, 0x00, 0x00, 0x00, 0x00, 0x00, 0x00, 0x00, 0x00, 0x00, 0x00, 
  0x00, 0x00, 0x00, 0x00, 0x00, 0x00, 0x00, 0x00, 0x00, 0x00, 0x00, 0x00, 0x00, 0x00, 0x00, 0x00, 
  0x00, 0x00, 0x00, 0x00, 0x00, 0x00, 0x00, 0x00, 0x00, 0x00, 0x00, 0x00, 0x00, 0x00, 0x00, 0x00, 
  0x00, 0x00, 0x00, 0x00, 0x00, 0x00, 0x00, 0x00, 0x00, 0x00, 0x00, 0x00, 0x00, 0x00, 0x00, 0x00, 
  0x00, 0x00, 0x00, 0x00, 0x00, 0x00, 0x00, 0x00, 0x00, 0x00, 0x00, 0x00, 0x00, 0x00, 0x00, 0x00, 
  0x00, 0x00, 0x00, 0x00, 0x00, 0x00, 0x00, 0x00, 0x00, 0x00, 0x00, 0x00, 0x00, 0x00, 0x00, 0x00, 
  0x00, 0x00, 0x00, 0x00, 0x00, 0x00, 0x00, 0x00, 0x00, 0x00, 0x00, 0x00, 0x00, 0x00, 0x00, 0x00, 
  0x00, 0x00, 0x00, 0x00, 0x00, 0x00, 0x00, 0x00, 0x00, 0x00, 0x00, 0x00, 0x00, 0x00, 0x00, 0x00, 
  0x00, 0x00, 0x00, 0x00, 0xc2, 0xf5, 0xff, 0xff, 0x04, 0x00, 0x00, 0x00, 0x80, 0x02, 0x00, 0x00, 
  0x43, 0x1a, 0x9e, 0xf9, 0xcd, 0x01, 0xf5, 0x14, 0x3f, 0x4f, 0xd4, 0x12, 0x34, 0x9d, 0x41, 0x01, 
  0x6b, 0x70, 0x21, 0x1b, 0x1e, 0xb1, 0xb3, 0x0c, 0x49, 0x1e, 0xe8, 0x46, 0xdd, 0x9b, 0xa0, 0x4e, 
  0x72, 0x38, 0xfa, 0xd3, 0x0d, 0xa1, 0xeb, 0x81, 0x33, 0xf5, 0xb7, 0x1b, 0x00, 0xcd, 0x56, 0x30, 
  0x88, 0xca, 0xd3, 0xff, 0xaa, 0x78, 0x09, 0xf8, 0xc8, 0xb5, 0x96, 0x9e, 0xbc, 0xc7, 0xf1, 0x18, 
  0x31, 0x81, 0xb0, 0xa7, 0xf6, 0x1c, 0xfc, 0x4d, 0xd5, 0xa0, 0x1c, 0x67, 0xf7, 0x57, 0xe4, 0xf9, 
  0x6e, 0xcc, 0x50, 0xb7, 0x14, 0x70, 0x8c, 0x03, 0x7f, 0xaa, 0xfd, 0x0b, 0x59, 0x95, 0x51, 0x9d, 
  0x06, 0xdd, 0x38, 0xd0, 0x4a, 0x60, 0xad, 0xbc, 0x65, 0x31, 0x5f, 0x20, 0x42, 0x0b, 0x21, 0xba, 
  0x74, 0x66, 0x6e, 0xc2, 0xff, 0x3b, 0x55, 0x4d, 0x16, 0x78, 0x15, 0xd2, 0x10, 0xa4, 0xa6, 0x1a, 
  0x36, 0x1a, 0xc8, 0x3f, 0x02, 0x01, 0x28, 0xcf, 0xc5, 0x3d, 0x20, 0x47, 0xe5, 0x09, 0x07, 0x0d, 
  0x5d, 0x21, 0x37, 0xb7, 0x18, 0x22, 0x55, 0xa5, 0xf2, 0x7f, 0xde, 0x4a, 0xb2, 0x37, 0x25, 0xc0, 
  0x7f, 0x38, 0xcd, 0x1d, 0x3e, 0x62, 0x20, 0x93, 0x37, 0xc2, 0xfc, 0x03, 0xdc, 0xb8, 0xf7, 0x82, 
  0x5c, 0x59, 0xff, 0xb6, 0x1a, 0xe0, 0x03, 0x35, 0x99, 0x20, 0x42, 0xff, 0x4e, 0xcc, 0xb5, 0x98, 
  0xd0, 0x3c, 0xf9, 0x99, 0x30, 0xe5, 0xc1, 0xbb, 0x2a, 0x5c, 0xf9, 0x6a, 0x1b, 0x12, 0x53, 0x08, 
  0xd8, 0xe5, 0x38, 0x76, 0xc6, 0xfa, 0x48, 0xbd, 0xa0, 0x3f, 0x81, 0xf0, 0x9b, 0x40, 0x76, 0xff, 
  0xaa, 0x4b, 0x1c, 0xf1, 0xf8, 0xe2, 0x6c, 0x12, 0x9c, 0x05, 0x2b, 0xf4, 0xce, 0x3c, 0x20, 0x3b, 
  0x2e, 0x38, 0x6e, 0x3c, 0xe7, 0x6e, 0x5a, 0xca, 0xb0, 0xd6, 0x0b, 0xd5, 0xee, 0x1c, 0x9d, 0x6e, 
  0x59, 0x1b, 0x2e, 0x92, 0xa0, 0xb7, 0xc6, 0xa3, 0xc2, 0xf6, 0x73, 0xa6, 0x85, 0x28, 0xbf, 0x2f, 
